{
  "version": "1.0",
  "truncation": null,
  "padding": null,
  "added_tokens": [
    {
      "id": 0,
      "content": "[PAD]",
      "single_word": false,
      "lstrip": false,
      "rstrip": false,
      "normalized": false,
      "special": true
    },
    {
      "id": 1,
      "content": "[SOS]",
      "single_word": false,
      "lstrip": false,
      "rstrip": false,
      "normalized": false,
      "special": true
    },
    {
      "id": 2,
      "content": "[EOS]",
      "single_word": false,
      "lstrip": false,
      "rstrip": false,
      "normalized": false,
      "special": true
    },
    {
      "id": 3,
      "content": "[UNK]",
      "single_word": false,
      "lstrip": false,
      "rstrip": false,
      "normalized": false,
      "special": true
    }
  ],
  "normalizer": null,
  "pre_tokenizer": {
    "type": "Whitespace"
  },
  "post_processor": {
    "type": "TemplateProcessing",
    "single": [
      {
        "SpecialToken": {
          "id": "[SOS]",
          "type_id": 0
        }
      },
      {
        "Sequence": {
          "id": "A",
          "type_id": 0
        }
      },
      {
        "SpecialToken": {
          "id": "[EOS]",
          "type_id": 0
        }
      }
    ],
    "pair": [
      {
        "Sequence": {
          "id": "A",
          "type_id": 0
        }
      },
      {
        "Sequence": {
          "id": "B",
          "type_id": 1
        }
      }
    ],
    "special_tokens": {
      "[EOS]": {
        "id": "[EOS]",
        "ids": [
          2
        ],
        "tokens": [
          "[EOS]"
        ]
      },
      "[SOS]": {
        "id": "[SOS]",
        "ids": [
          1
        ],
        "tokens": [
          "[SOS]"
        ]
      }
    }
  },
  "decoder": null,
  "model": {
    "type": "BPE",
    "dropout": null,
    "unk_token": "[UNK]",
    "continuing_subword_prefix": null,
    "end_of_word_suffix": null,
    "fuse_unk": false,
    "vocab": {
      "[PAD]": 0,
      "[SOS]": 1,
      "[EOS]": 2,
      "[UNK]": 3,
      "!": 4,
      "\"": 5,
      "#": 6,
      "$": 7,
      "%": 8,
      "&": 9,
      "'": 10,
      "(": 11,
      ")": 12,
      "*": 13,
      "+": 14,
      ",": 15,
      "-": 16,
      ".": 17,
      "/": 18,
      "0": 19,
      "1": 20,
      "2": 21,
      "3": 22,
      "4": 23,
      "5": 24,
      "6": 25,
      "7": 26,
      "8": 27,
      "9": 28,
      ":": 29,
      ";": 30,
      "=": 31,
      "?": 32,
      "@": 33,
      "A": 34,
      "B": 35,
      "C": 36,
      "D": 37,
      "E": 38,
      "F": 39,
      "G": 40,
      "H": 41,
      "I": 42,
      "J": 43,
      "K": 44,
      "L": 45,
      "M": 46,
      "N": 47,
      "O": 48,
      "P": 49,
      "Q": 50,
      "R": 51,
      "S": 52,
      "T": 53,
      "U": 54,
      "V": 55,
      "W": 56,
      "X": 57,
      "Y": 58,
      "Z": 59,
      "[": 60,
      "\\": 61,
      "]": 62,
      "^": 63,
      "_": 64,
      "`": 65,
      "a": 66,
      "b": 67,
      "c": 68,
      "d": 69,
      "e": 70,
      "f": 71,
      "g": 72,
      "h": 73,
      "i": 74,
      "j": 75,
      "k": 76,
      "l": 77,
      "m": 78,
      "n": 79,
      "o": 80,
      "p": 81,
      "q": 82,
      "r": 83,
      "s": 84,
      "t": 85,
      "u": 86,
      "v": 87,
      "w": 88,
      "x": 89,
      "y": 90,
      "z": 91,
      "th": 92,
      "in": 93,
      "the": 94,
      "an": 95,
      "re": 96,
      "at": 97,
      "ou": 98,
      "on": 99,
      "er": 100,
      "to": 101,
      "is": 102,
      "en": 103,
      "al": 104,
      "ing": 105,
      "it": 106,
      "es": 107,
      "or": 108,
      "and": 109,
      "of": 110,
      "ar": 111,
      "as": 112,
      "ed": 113,
      "le": 114,
      "st": 115,
      "that": 116,
      "se": 117,
      "om": 118,
      "ic": 119,
      "he": 120,
      "we": 121,
      "ve": 122,
      "you": 123,
      "ow": 124,
      "be": 125,
      "ly": 126,
      "nd": 127,
      "ac": 128,
      "ion": 129,
      "wh": 130,
      "ha": 131,
      "ll": 132,
      "ent": 133,
      "ld": 134,
      "ut": 135,
      "me": 136,
      "ver": 137,
      "li": 138,
      "ot": 139,
      "ay": 140,
      "ch": 141,
      "id": 142,
      "And": 143,
      "ab": 144,
      "this": 145,
      "for": 146,
      "ro": 147,
      "ke": 148,
      "out": 149,
      "are": 150,
      "lo": 151,
      "ge": 152,
      "gh": 153,
      "wi": 154,
      "pe": 155,
      "all": 156,
      "ne": 157,
      "was": 158,
      "ri": 159,
      "do": 160,
      "so": 161,
      "ir": 162,
      "mo": 163,
      "go": 164,
      "ce": 165,
      "de": 166,
      "ome": 167,
      "us": 168,
      "ally": 169,
      "fe": 170,
      "im": 171,
      "with": 172,
      "op": 173,
      "one": 174,
      "have": 175,
      "ter": 176,
      "--": 177,
      "ra": 178,
      "ct": 179,
      "they": 180,
      "can": 181,
      "ation": 182,
      "if": 183,
      "te": 184,
      "our": 185,
      "wor": 186,
      "The": 187,
      "thing": 188,
      "con": 189,
      "ma": 190,
      "ca": 191,
      "ur": 192,
      "ght": 193,
      "what": 194,
      "So": 195,
      "very": 196,
      "ul": 197,
      "now": 198,
      "ad": 199,
      "un": 200,
      "ould": 201,
      "ther": 202,
      "ant": 203,
      "about": 204,
      "com": 205,
      "Th": 206,
      "act": 207,
      "per": 208,
      "ex": 209,
      "fr": 210,
      "not": 211,
      "pro": 212,
      "ust": 213,
      "art": 214,
      "here": 215,
      "pl": 216,
      "il": 217,
      "od": 218,
      "use": 219,
      "am": 220,
      "ol": 221,
      "some": 222,
      "my": 223,
      "there": 224,
      "tr": 225,
      "We": 226,
      "ind": 227,
      "ess": 228,
      "ure": 229,
      "ig": 230,
      "like": 231,
      "ople": 232,
      "sh": 233,
      "ate": 234,
      "um": 235,
      "up": 236,
      "ity": 237,
      "ok": 238,
      "It": 239,
      "people": 240,
      "from": 241,
      "but": 242,
      "est": 243,
      "ive": 244,
      "sa": 245,
      "no": 246,
      "qu": 247,
      "po": 248,
      "way": 249,
      "ci": 250,
      "ye": 251,
      "ink": 252,
      "know": 253,
      "ta": 254,
      "just": 255,
      "res": 256,
      "cause": 257,
      "get": 258,
      "any": 259,
      "them": 260,
      "ill": 261,
      "ide": 262,
      "ag": 263,
      "ers": 264,
      "ist": 265,
      "see": 266,
      "But": 267,
      "these": 268,
      "ti": 269,
      "think": 270,
      "by": 271,
      "ans": 272,
      "who": 273,
      "alk": 274,
      "ound": 275,
      "co": 276,
      "ars": 277,
      "ren": 278,
      "ich": 279,
      "going": 280,
      "ment": 281,
      "ine": 282,
      "ort": 283,
      "more": 284,
      "work": 285,
      "other": 286,
      "had": 287,
      "when": 288,
      "end": 289,
      "your": 290,
      "ph": 291,
      "et": 292,
      "because": 293,
      "ack": 294,
      "red": 295,
      "su": 296,
      "how": 297,
      "pp": 298,
      "Wh": 299,
      "fo": 300,
      "would": 301,
      "00": 302,
      "sp": 303,
      "look": 304,
      "were": 305,
      "their": 306,
      "which": 307,
      "ies": 308,
      "ous": 309,
      "want": 310,
      "tor": 311,
      "really": 312,
      "ard": 313,
      "ble": 314,
      "ually": 315,
      "ast": 316,
      "ev": 317,
      ".\"": 318,
      "em": 319,
      "own": 320,
      "world": 321,
      "time": 322,
      "reat": 323,
      "where": 324,
      "ace": 325,
      "ach": 326,
      "You": 327,
      "ple": 328,
      "day": 329,
      "has": 330,
      "then": 331,
      "iv": 332,
      "el": 333,
      "iz": 334,
      "ough": 335,
      "pr": 336,
      "don": 337,
      "ence": 338,
      "This": 339,
      "able": 340,
      "every": 341,
      "age": 342,
      "ong": 343,
      "und": 344,
      "gr": 345,
      "into": 346,
      "say": 347,
      "ight": 348,
      "ions": 349,
      "actually": 350,
      "could": 351,
      "talk": 352,
      "log": 353,
      "will": 354,
      "In": 355,
      "ain": 356,
      "cent": 357,
      "ild": 358,
      "bo": 359,
      "years": 360,
      "things": 361,
      "itt": 362,
      "pt": 363,
      "did": 364,
      "ose": 365,
      "Now": 366,
      "ud": 367,
      "part": 368,
      "ical": 369,
      "feren": 370,
      "ie": 371,
      "put": 372,
      "his": 373,
      "wo": 374,
      "right": 375,
      "new": 376,
      "ite": 377,
      "than": 378,
      "chan": 379,
      "They": 380,
      "make": 381,
      "oun": 382,
      "happ": 383,
      "sel": 384,
      "bu": 385,
      "been": 386,
      "dif": 387,
      "ice": 388,
      "dis": 389,
      "ign": 390,
      "form": 391,
      "ass": 392,
      "des": 393,
      "over": 394,
      "need": 395,
      "most": 396,
      "port": 397,
      "ree": 398,
      "start": 399,
      "try": 400,
      "sy": 401,
      "back": 402,
      "come": 403,
      "irst": 404,
      "said": 405,
      "He": 406,
      "got": 407,
      "something": 408,
      "bl": 409,
      "ia": 410,
      "mu": 411,
      "call": 412,
      "int": 413,
      "ens": 414,
      "two": 415,
      "those": 416,
      "cl": 417,
      "kind": 418,
      "she": 419,
      "ves": 420,
      "much": 421,
      "first": 422,
      "king": 423,
      "ater": 424,
      "ber": 425,
      "differen": 426,
      "ap": 427,
      "ult": 428,
      "gu": 429,
      "spe": 430,
      "ittle": 431,
      "life": 432,
      "also": 433,
      "bod": 434,
      "ho": 435,
      "little": 436,
      "ving": 437,
      "lot": 438,
      "bet": 439,
      "str": 440,
      "ss": 441,
      "That": 442,
      "br": 443,
      "ish": 444,
      "ep": 445,
      "rest": 446,
      "thr": 447,
      "uc": 448,
      "hum": 449,
      "gra": 450,
      "af": 451,
      "her": 452,
      "ob": 453,
      "only": 454,
      "gen": 455,
      "tell": 456,
      "ful": 457,
      "cho": 458,
      "ated": 459,
      "cre": 460,
      "What": 461,
      "pre": 462,
      "even": 463,
      "body": 464,
      "ty": 465,
      "rain": 466,
      "take": 467,
      "many": 468,
      "under": 469,
      "ED": 470,
      "its": 471,
      "ms": 472,
      "coun": 473,
      "lear": 474,
      "ect": 475,
      "tory": 476,
      "comm": 477,
      "real": 478,
      "TED": 479,
      "ase": 480,
      "ick": 481,
      "les": 482,
      "man": 483,
      "tech": 484,
      "down": 485,
      "good": 486,
      "pres": 487,
      "through": 488,
      "self": 489,
      "different": 490,
      "cr": 491,
      "around": 492,
      "does": 493,
      "ting": 494,
      "tri": 495,
      "uct": 496,
      "There": 497,
      "show": 498,
      "logy": 499,
      "son": 500,
      "stand": 501,
      "hi": 502,
      "ict": 503,
      "ue": 504,
      "als": 505,
      "sci": 506,
      "off": 507,
      "di": 508,
      "read": 509,
      "cess": 510,
      "ank": 511,
      "urn": 512,
      "being": 513,
      "let": 514,
      "vi": 515,
      "ought": 516,
      "ord": 517,
      "ents": 518,
      "ations": 519,
      "ins": 520,
      "ary": 521,
      "stem": 522,
      "mer": 523,
      "ance": 524,
      "ip": 525,
      "happen": 526,
      "proble": 527,
      "med": 528,
      "ys": 529,
      "fore": 530,
      "same": 531,
      "Well": 532,
      "lect": 533,
      "human": 534,
      "ics": 535,
      "mar": 536,
      "cri": 537,
      "cont": 538,
      "ject": 539,
      "sur": 540,
      "ning": 541,
      "big": 542,
      "system": 543,
      "wr": 544,
      "year": 545,
      "may": 546,
      "ck": 547,
      "techno": 548,
      "sto": 549,
      "la": 550,
      "tra": 551,
      "ower": 552,
      "ts": 553,
      "build": 554,
      "ef": 555,
      "find": 556,
      "doing": 557,
      "fa": 558,
      "well": 559,
      "three": 560,
      "If": 561,
      "great": 562,
      "soci": 563,
      "comp": 564,
      "ces": 565,
      "ible": 566,
      "inter": 567,
      "min": 568,
      "ak": 569,
      "car": 570,
      "ways": 571,
      "fact": 572,
      "cond": 573,
      "ically": 574,
      "bi": 575,
      "ask": 576,
      "design": 577,
      "came": 578,
      "bit": 579,
      "inv": 580,
      "called": 581,
      "ser": 582,
      "turn": 583,
      "ved": 584,
      "long": 585,
      "xt": 586,
      "sol": 587,
      "less": 588,
      "percent": 589,
      "child": 590,
      "fl": 591,
      "vers": 592,
      "quest": 593,
      "Ch": 594,
      "cer": 595,
      "stud": 596,
      "inte": 597,
      "hel": 598,
      "sim": 599,
      "change": 600,
      "col": 601,
      "ever": 602,
      "ities": 603,
      "mon": 604,
      "exper": 605,
      "wom": 606,
      "again": 607,
      "made": 608,
      "light": 609,
      "old": 610,
      "ps": 611,
      "ating": 612,
      "ual": 613,
      "arch": 614,
      "fin": 615,
      "ons": 616,
      "sm": 617,
      "play": 618,
      "tim": 619,
      "illion": 620,
      "bas": 621,
      "why": 622,
      "creat": 623,
      "fect": 624,
      "import": 625,
      "pa": 626,
      "Be": 627,
      "person": 628,
      "after": 629,
      "ates": 630,
      "should": 631,
      "ition": 632,
      "brain": 633,
      "alth": 634,
      "gan": 635,
      "ven": 636,
      "plan": 637,
      "used": 638,
      "ica": 639,
      "ger": 640,
      "sha": 641,
      "ub": 642,
      "feel": 643,
      "power": 644,
      "sing": 645,
      "thought": 646,
      "cal": 647,
      "cour": 648,
      "important": 649,
      "idea": 650,
      "technology": 651,
      "didn": 652,
      "ond": 653,
      "000": 654,
      "today": 655,
      "kes": 656,
      "ry": 657,
      "mean": 658,
      "high": 659,
      "prod": 660,
      "ial": 661,
      "him": 662,
      "point": 663,
      "ff": 664,
      "started": 665,
      "last": 666,
      "interest": 667,
      "trans": 668,
      "land": 669,
      "Thank": 670,
      "story": 671,
      "went": 672,
      "side": 673,
      "place": 674,
      "mat": 675,
      "pu": 676,
      "ga": 677,
      "exam": 678,
      "ility": 679,
      "ize": 680,
      "understand": 681,
      "ire": 682,
      "might": 683,
      "ise": 684,
      "hand": 685,
      "?\"": 686,
      "pos": 687,
      "pol": 688,
      "ile": 689,
      "better": 690,
      "times": 691,
      "before": 692,
      "eng": 693,
      "commun": 694,
      "beli": 695,
      "mem": 696,
      "ists": 697,
      "bal": 698,
      "ese": 699,
      "20": 700,
      "give": 701,
      "care": 702,
      "vir": 703,
      "water": 704,
      "chool": 705,
      "vis": 706,
      "course": 707,
      "ily": 708,
      "tain": 709,
      "help": 710,
      "another": 711,
      "found": 712,
      "never": 713,
      "bab": 714,
      "gether": 715,
      "cur": 716,
      "net": 717,
      "ular": 718,
      "problem": 719,
      "fam": 720,
      "inst": 721,
      "ution": 722,
      "vel": 723,
      "together": 724,
      "still": 725,
      "ian": 726,
      "velo": 727,
      "ago": 728,
      "few": 729,
      "kid": 730,
      "imag": 731,
      "10": 732,
      "next": 733,
      "tit": 734,
      "ata": 735,
      "sort": 736,
      "nat": 737,
      "19": 738,
      "iness": 739,
      "learn": 740,
      "school": 741,
      "gy": 742,
      "ors": 743,
      "pat": 744,
      "poss": 745,
      "too": 746,
      "ween": 747,
      "comple": 748,
      "When": 749,
      "ward": 750,
      "talks": 751,
      "num": 752,
      "each": 753,
      "ense": 754,
      "book": 755,
      "ness": 756,
      "ix": 757,
      "develo": 758,
      "How": 759,
      "cell": 760,
      "ft": 761,
      "cy": 762,
      "Amer": 763,
      "dec": 764,
      "Tr": 765,
      "ited": 766,
      "between": 767,
      "data": 768,
      ",\"": 769,
      "che": 770,
      "women": 771,
      "cript": 772,
      "ug": 773,
      "mis": 774,
      "St": 775,
      "clo": 776,
      "att": 777,
      "rel": 778,
      "question": 779,
      "comput": 780,
      "love": 781,
      "ience": 782,
      "word": 783,
      "ures": 784,
      "bus": 785,
      "develop": 786,
      "health": 787,
      "four": 788,
      "grow": 789,
      "bot": 790,
      "comes": 791,
      "head": 792,
      "move": 793,
      "ng": 794,
      "live": 795,
      "ear": 796,
      "ib": 797,
      "looking": 798,
      "par": 799,
      "lim": 800,
      "ters": 801,
      "small": 802,
      "room": 803,
      "using": 804,
      "ship": 805,
      "conom": 806,
      "..": 807,
      "cor": 808,
      "ized": 809,
      "mind": 810,
      "science": 811,
      "line": 812,
      "example": 813,
      "lar": 814,
      "Talk": 815,
      "Because": 816,
      "mom": 817,
      "gener": 818,
      "done": 819,
      "fri": 820,
      "chang": 821,
      "ner": 822,
      "vie": 823,
      "second": 824,
      "uni": 825,
      "formation": 826,
      "pri": 827,
      "doesn": 828,
      "glo": 829,
      "econom": 830,
      "Trans": 831,
      "ings": 832,
      "reas": 833,
      "hard": 834,
      "partic": 835,
      "ath": 836,
      "wanted": 837,
      "children": 838,
      "aut": 839,
      "mus": 840,
      "av": 841,
      "set": 842,
      "working": 843,
      "graph": 844,
      "ious": 845,
      "far": 846,
      "face": 847,
      "ross": 848,
      "whole": 849,
      "ks": 850,
      "giv": 851,
      "atch": 852,
      "Un": 853,
      "run": 854,
      "press": 855,
      "selves": 856,
      "oft": 857,
      "led": 858,
      "Afr": 859,
      "away": 860,
      "mal": 861,
      "ific": 862,
      "bre": 863,
      "home": 864,
      "No": 865,
      "ism": 866,
      "ational": 867,
      "million": 868,
      "ener": 869,
      "eve": 870,
      "aren": 871,
      "cept": 872,
      "sk": 873,
      "men": 874,
      "war": 875,
      "ote": 876,
      "search": 877,
      "ments": 878,
      "gre": 879,
      "friend": 880,
      "always": 881,
      "open": 882,
      "organ": 883,
      "trying": 884,
      "oney": 885,
      "exp": 886,
      "titles": 887,
      "au": 888,
      "Sub": 889,
      "ird": 890,
      "low": 891,
      "top": 892,
      "issu": 893,
      "ah": 894,
      "sup": 895,
      "anim": 896,
      "ones": 897,
      "space": 898,
      "ural": 899,
      "Transcript": 900,
      "Subtitles": 901,
      "dr": 902,
      "wa": 903,
      "ative": 904,
      "ama": 905,
      "believe": 906,
      "ress": 907,
      "lead": 908,
      "del": 909,
      "coming": 910,
      "country": 911,
      "pect": 912,
      "50": 913,
      "fut": 914,
      "dri": 915,
      "aces": 916,
      "Ne": 917,
      "ute": 918,
      "thinking": 919,
      "llow": 920,
      "project": 921,
      "nect": 922,
      "sub": 923,
      "add": 924,
      "pict": 925,
      "As": 926,
      "create": 927,
      "ket": 928,
      "five": 929,
      "ris": 930,
      "speci": 931,
      "ang": 932,
      "future": 933,
      "cult": 934,
      "information": 935,
      "publ": 936,
      "tre": 937,
      "means": 938,
      "ory": 939,
      "walk": 940,
      "global": 941,
      "cou": 942,
      "business": 943,
      "social": 944,
      "hal": 945,
      "ident": 946,
      "kids": 947,
      "doll": 948,
      "making": 949,
      "process": 950,
      "took": 951,
      "fun": 952,
      "eas": 953,
      "My": 954,
      "ries": 955,
      "everything": 956,
      "food": 957,
      "maybe": 958,
      "na": 959,
      "connect": 960,
      "become": 961,
      "pret": 962,
      "gest": 963,
      "contro": 964,
      "val": 965,
      "money": 966,
      "inc": 967,
      "One": 968,
      "beg": 969,
      "gover": 970,
      "teach": 971,
      "ready": 972,
      "ines": 973,
      "leg": 974,
      "os": 975,
      "view": 976,
      "struct": 977,
      "elect": 978,
      "energy": 979,
      "resp": 980,
      "She": 981,
      "govern": 982,
      "air": 983,
      "ouse": 984,
      "tern": 985,
      "getting": 986,
      "Ind": 987,
      "uff": 988,
      "number": 989,
      "left": 990,
      "probab": 991,
      "product": 992,
      "bor": 993,
      "ital": 994,
      "phys": 995,
      "cap": 996,
      "tries": 997,
      "vide": 998,
      "building": 999,
      "reg": 1000,
      "enough": 1001,
      "fic": 1002,
      "month": 1003,
      "best": 1004,
      "quite": 1005,
      "possible": 1006,
      "sense": 1007,
      "ctor": 1008,
      "lan": 1009,
      "allow": 1010,
      "interesting": 1011,
      "says": 1012,
      "grou": 1013,
      "ability": 1014,
      "pass": 1015,
      "iting": 1016,
      "ash": 1017,
      "These": 1018,
      "educ": 1019,
      "cle": 1020,
      "lives": 1021,
      "aw": 1022,
      "cons": 1023,
      "Is": 1024,
      "happened": 1025,
      "fu": 1026,
      "cus": 1027,
      "ican": 1028,
      "For": 1029,
      "talking": 1030,
      "planet": 1031,
      "mor": 1032,
      "pie": 1033,
      "whe": 1034,
      "half": 1035,
      "ices": 1036,
      "pop": 1037,
      "ran": 1038,
      "wee": 1039,
      "sign": 1040,
      "probably": 1041,
      "viron": 1042,
      "Why": 1043,
      "told": 1044,
      "without": 1045,
      "beaut": 1046,
      "Here": 1047,
      "moment": 1048,
      "keep": 1049,
      "yes": 1050,
      "stuff": 1051,
      "oto": 1052,
      "ont": 1053,
      "makes": 1054,
      "answ": 1055,
      "200": 1056,
      "polit": 1057,
      "environ": 1058,
      "ately": 1059,
      "scient": 1060,
      "model": 1061,
      "Let": 1062,
      "job": 1063,
      "An": 1064,
      "member": 1065,
      "countries": 1066,
      "else": 1067,
      "zing": 1068,
      "ction": 1069,
      "sound": 1070,
      "Africa": 1071,
      "case": 1072,
      "ering": 1073,
      "ying": 1074,
      "idd": 1075,
      "hour": 1076,
      "saw": 1077,
      "anything": 1078,
      "fig": 1079,
      "reason": 1080,
      "ric": 1081,
      "jo": 1082,
      "across": 1083,
      "oc": 1084,
      "unt": 1085,
      "ina": 1086,
      "seen": 1087,
      "prof": 1088,
      "music": 1089,
      "pretty": 1090,
      "research": 1091,
      "verse": 1092,
      "ality": 1093,
      "photo": 1094,
      "such": 1095,
      "app": 1096,
      "ark": 1097,
      "ince": 1098,
      "bad": 1099,
      "hope": 1100,
      "New": 1101,
      "dollars": 1102,
      "list": 1103,
      "bring": 1104,
      "city": 1105,
      "ith": 1106,
      "simple": 1107,
      "All": 1108,
      "mic": 1109,
      "ention": 1110,
      "present": 1111,
      "uring": 1112,
      "ants": 1113,
      "char": 1114,
      "works": 1115,
      "family": 1116,
      "living": 1117,
      "ead": 1118,
      "gn": 1119,
      "sit": 1120,
      "young": 1121,
      "wond": 1122,
      "while": 1123,
      "experience": 1124,
      "dra": 1125,
      "ced": 1126,
      "nor": 1127,
      "fort": 1128,
      "later": 1129,
      "level": 1130,
      "ety": 1131,
      "having": 1132,
      "uro": 1133,
      "iter": 1134,
      "days": 1135,
      "ient": 1136,
      "computer": 1137,
      "30": 1138,
      "bio": 1139,
      "fac": 1140,
      "asked": 1141,
      "environment": 1142,
      "ided": 1143,
      "mach": 1144,
      "goes": 1145,
      "order": 1146,
      "effect": 1147,
      "Ear": 1148,
      "happens": 1149,
      "olution": 1150,
      "begin": 1151,
      "plic": 1152,
      "public": 1153,
      "equ": 1154,
      "complete": 1155,
      "gl": 1156,
      "lea": 1157,
      "problems": 1158,
      "Go": 1159,
      "stre": 1160,
      "ousand": 1161,
      "watch": 1162,
      "particular": 1163,
      "pain": 1164,
      "tem": 1165,
      "ili": 1166,
      "Ar": 1167,
      "mother": 1168,
      "blo": 1169,
      "irl": 1170,
      "community": 1171,
      "thousand": 1172,
      "night": 1173,
      "ilt": 1174,
      "robot": 1175,
      "history": 1176,
      "single": 1177,
      "picture": 1178,
      "six": 1179,
      "suc": 1180,
      "inside": 1181,
      "Earth": 1182,
      "cord": 1183,
      "serv": 1184,
      "sure": 1185,
      "test": 1186,
      "ken": 1187,
      "state": 1188,
      "Mo": 1189,
      "hear": 1190,
      "treat": 1191,
      "almost": 1192,
      "ivity": 1193,
      "dist": 1194,
      "Some": 1195,
      "bro": 1196,
      "cha": 1197,
      "iful": 1198,
      "langu": 1199,
      "uck": 1200,
      "culture": 1201,
      "paren": 1202,
      "met": 1203,
      "yet": 1204,
      "heart": 1205,
      "control": 1206,
      "acy": 1207,
      "disco": 1208,
      "Inter": 1209,
      "uce": 1210,
      "ulation": 1211,
      "cost": 1212,
      "Con": 1213,
      "progra": 1214,
      "sc": 1215,
      "class": 1216,
      "Al": 1217,
      "pris": 1218,
      "fish": 1219,
      "unch": 1220,
      "ideas": 1221,
      "house": 1222,
      "both": 1223,
      "ference": 1224,
      "billion": 1225,
      "ivid": 1226,
      "bed": 1227,
      "already": 1228,
      "saying": 1229,
      "contin": 1230,
      "once": 1231,
      "Do": 1232,
      "looked": 1233,
      "certain": 1234,
      "mil": 1235,
      "law": 1236,
      "fil": 1237,
      "looks": 1238,
      "ously": 1239,
      "within": 1240,
      "ages": 1241,
      "someone": 1242,
      "ply": 1243,
      "ied": 1244,
      "chall": 1245,
      "io": 1246,
      "front": 1247,
      "basically": 1248,
      "often": 1249,
      "expl": 1250,
      "dep": 1251,
      "wrong": 1252,
      "education": 1253,
      "100": 1254,
      "whether": 1255,
      "nothing": 1256,
      "cells": 1257,
      "incred": 1258,
      "dire": 1259,
      "matter": 1260,
      "answer": 1261,
      "exact": 1262,
      "oper": 1263,
      "beautiful": 1264,
      "ury": 1265,
      "true": 1266,
      "Se": 1267,
      "kill": 1268,
      "guy": 1269,
      "words": 1270,
      "remember": 1271,
      "amazing": 1272,
      "ush": 1273,
      "ield": 1274,
      "imagine": 1275,
      "mater": 1276,
      "fund": 1277,
      "wonder": 1278,
      "built": 1279,
      "action": 1280,
      "gets": 1281,
      "heard": 1282,
      "myself": 1283,
      "hy": 1284,
      "aster": 1285,
      "ground": 1286,
      "government": 1287,
      "itive": 1288,
      "girl": 1289,
      "prot": 1290,
      "figure": 1291,
      "hold": 1292,
      "nam": 1293,
      "inno": 1294,
      "large": 1295,
      "mag": 1296,
      "engine": 1297,
      "Pe": 1298,
      "hu": 1299,
      "dev": 1300,
      "Internet": 1301,
      "adv": 1302,
      "months": 1303,
      "undred": 1304,
      "United": 1305,
      "piece": 1306,
      "tom": 1307,
      "appro": 1308,
      "den": 1309,
      "ues": 1310,
      "cancer": 1311,
      "ator": 1312,
      "individ": 1313,
      "group": 1314,
      "cra": 1315,
      "Ok": 1316,
      "pay": 1317,
      "scal": 1318,
      "entire": 1319,
      "cut": 1320,
      "video": 1321,
      "iddle": 1322,
      "Or": 1323,
      "igh": 1324,
      "result": 1325,
      "free": 1326,
      "wasn": 1327,
      "hundred": 1328,
      "bers": 1329,
      "On": 1330,
      "stories": 1331,
      "though": 1332,
      "fre": 1333,
      "vo": 1334,
      "lab": 1335,
      "places": 1336,
      "ization": 1337,
      "At": 1338,
      "oh": 1339,
      "issues": 1340,
      "imp": 1341,
      "mp": 1342,
      "tool": 1343,
      "couple": 1344,
      "follow": 1345,
      "ming": 1346,
      "...": 1347,
      "taking": 1348,
      "language": 1349,
      "incre": 1350,
      "nature": 1351,
      "must": 1352,
      "clim": 1353,
      "name": 1354,
      "tru": 1355,
      "object": 1356,
      "until": 1357,
      "ease": 1358,
      "became": 1359,
      "species": 1360,
      "demo": 1361,
      "pped": 1362,
      "everybody": 1363,
      "utes": 1364,
      "Every": 1365,
      "cu": 1366,
      "key": 1367,
      "der": 1368,
      "sion": 1369,
      "isn": 1370,
      "share": 1371,
      "phone": 1372,
      "quick": 1373,
      "society": 1374,
      "experim": 1375,
      "drug": 1376,
      "stop": 1377,
      "aud": 1378,
      "tors": 1379,
      "animals": 1380,
      "ze": 1381,
      "America": 1382,
      "success": 1383,
      "fly": 1384,
      "que": 1385,
      "woman": 1386,
      "outh": 1387,
      "universe": 1388,
      "learned": 1389,
      "friends": 1390,
      "innov": 1391,
      "clear": 1392,
      "arr": 1393,
      "completely": 1394,
      "OK": 1395,
      "sho": 1396,
      "decided": 1397,
      "dro": 1398,
      "deal": 1399,
      "States": 1400,
      "study": 1401,
      "ton": 1402,
      "train": 1403,
      "main": 1404,
      "exactly": 1405,
      "Okay": 1406,
      "happening": 1407,
      "won": 1408,
      "meet": 1409,
      "exc": 1410,
      "God": 1411,
      "ien": 1412,
      "mess": 1413,
      "beha": 1414,
      "oce": 1415,
      "collect": 1416,
      "knew": 1417,
      "wind": 1418,
      "disease": 1419,
      "15": 1420,
      "third": 1421,
      "itself": 1422,
      "relation": 1423,
      "takes": 1424,
      "against": 1425,
      "NA": 1426,
      "ier": 1427,
      "fully": 1428,
      "since": 1429,
      "turns": 1430,
      "ork": 1431,
      "ional": 1432,
      "spend": 1433,
      "complex": 1434,
      "team": 1435,
      "ples": 1436,
      "systems": 1437,
      "huge": 1438,
      "close": 1439,
      "somebody": 1440,
      "appe": 1441,
      "acter": 1442,
      "market": 1443,
      "enter": 1444,
      "lt": 1445,
      "meas": 1446,
      "versity": 1447,
      "mass": 1448,
      "questions": 1449,
      "cogn": 1450,
      "Can": 1451,
      "students": 1452,
      "created": 1453,
      "behavi": 1454,
      "uses": 1455,
      "American": 1456,
      "father": 1457,
      "company": 1458,
      "coll": 1459,
      "opport": 1460,
      "themselves": 1461,
      "field": 1462,
      "kinds": 1463,
      "opportun": 1464,
      "ourselves": 1465,
      "past": 1466,
      "itting": 1467,
      "game": 1468,
      "pot": 1469,
      "minutes": 1470,
      "reli": 1471,
      "indust": 1472,
      "cities": 1473,
      "India": 1474,
      "fer": 1475,
      "sex": 1476,
      "perform": 1477,
      "along": 1478,
      "jour": 1479,
      "pred": 1480,
      "logical": 1481,
      "haps": 1482,
      "program": 1483,
      "sometimes": 1484,
      "De": 1485,
      "Oh": 1486,
      "hours": 1487,
      "happy": 1488,
      "ste": 1489,
      "ted": 1490,
      "others": 1491,
      "ians": 1492,
      "rather": 1493,
      "worked": 1494,
      "step": 1495,
      "known": 1496,
      "var": 1497,
      "early": 1498,
      "text": 1499,
      "mill": 1500,
      "ats": 1501,
      "ots": 1502,
      "Br": 1503,
      "communic": 1504,
      "ail": 1505,
      "dig": 1506,
      "shows": 1507,
      "rap": 1508,
      "expect": 1509,
      "news": 1510,
      "everyone": 1511,
      "liter": 1512,
      "couldn": 1513,
      "turned": 1514,
      "deep": 1515,
      "century": 1516,
      "ished": 1517,
      "ged": 1518,
      "spect": 1519,
      "typ": 1520,
      "viol": 1521,
      "paper": 1522,
      "bs": 1523,
      "sens": 1524,
      "taken": 1525,
      "istic": 1526,
      "ibly": 1527,
      "depend": 1528,
      "To": 1529,
      "death": 1530,
      "Then": 1531,
      "cul": 1532,
      "hind": 1533,
      "ream": 1534,
      "natural": 1535,
      "speak": 1536,
      "least": 1537,
      "exist": 1538,
      "guys": 1539,
      "based": 1540,
      "har": 1541,
      "ared": 1542,
      "diffic": 1543,
      "listen": 1544,
      "protect": 1545,
      "micro": 1546,
      "thousands": 1547,
      "photograph": 1548,
      "relationship": 1549,
      "York": 1550,
      "cir": 1551,
      "flu": 1552,
      "acc": 1553,
      "ases": 1554,
      "invest": 1555,
      "seven": 1556,
      "ordin": 1557,
      "ban": 1558,
      "dom": 1559,
      "China": 1560,
      "incl": 1561,
      "instead": 1562,
      "break": 1563,
      "vision": 1564,
      "ele": 1565,
      "posed": 1566,
      "amoun": 1567,
      "wards": 1568,
      "green": 1569,
      "black": 1570,
      "40": 1571,
      "colle": 1572,
      "psy": 1573,
      "ives": 1574,
      "explain": 1575,
      "lots": 1576,
      "fail": 1577,
      "difficult": 1578,
      "itect": 1579,
      "ially": 1580,
      "national": 1581,
      "pur": 1582,
      "tin": 1583,
      "tail": 1584,
      "gave": 1585,
      "changed": 1586,
      "powerful": 1587,
      "ging": 1588,
      "record": 1589,
      "ential": 1590,
      "difference": 1591,
      "Li": 1592,
      "fall": 1593,
      "ror": 1594,
      "compan": 1595,
      "moving": 1596,
      "vered": 1597,
      "week": 1598,
      "full": 1599,
      "street": 1600,
      "scale": 1601,
      "Euro": 1602,
      "ither": 1603,
      "recent": 1604,
      "ature": 1605,
      "aring": 1606,
      "outside": 1607,
      "flo": 1608,
      "learning": 1609,
      "media": 1610,
      "non": 1611,
      "60": 1612,
      "ster": 1613,
      "behind": 1614,
      "area": 1615,
      "local": 1616,
      "Re": 1617,
      "18": 1618,
      "ider": 1619,
      "issue": 1620,
      "12": 1621,
      "ral": 1622,
      "sour": 1623,
      "win": 1624,
      "support": 1625,
      "wit": 1626,
      "neur": 1627,
      "sug": 1628,
      "explo": 1629,
      "leave": 1630,
      "gle": 1631,
      "given": 1632,
      "fra": 1633,
      "ling": 1634,
      "architect": 1635,
      "machine": 1636,
      "Af": 1637,
      "ired": 1638,
      "pen": 1639,
      "reach": 1640,
      "short": 1641,
      "personal": 1642,
      "Lo": 1643,
      "hor": 1644,
      "size": 1645,
      "evolution": 1646,
      "beginning": 1647,
      "behavior": 1648,
      "middle": 1649,
      "decis": 1650,
      "draw": 1651,
      "squ": 1652,
      "extra": 1653,
      "ended": 1654,
      "parts": 1655,
      "eyes": 1656,
      "access": 1657,
      "parents": 1658,
      "Nor": 1659,
      "oil": 1660,
      "oud": 1661,
      "olved": 1662,
      "foot": 1663,
      "ney": 1664,
      "pattern": 1665,
      "Le": 1666,
      "yourself": 1667,
      "path": 1668,
      "Fr": 1669,
      "tot": 1670,
      "began": 1671,
      "por": 1672,
      "sent": 1673,
      "easy": 1674,
      "Eng": 1675,
      "dan": 1676,
      "ients": 1677,
      "astic": 1678,
      "jor": 1679,
      "cial": 1680,
      "super": 1681,
      "population": 1682,
      "Europe": 1683,
      "common": 1684,
      "Just": 1685,
      "spir": 1686,
      "impro": 1687,
      "pick": 1688,
      "seeing": 1689,
      "Ye": 1690,
      "hood": 1691,
      "soft": 1692,
      "doctor": 1693,
      "perhaps": 1694,
      "solute": 1695,
      "ben": 1696,
      "emot": 1697,
      "finally": 1698,
      "dream": 1699,
      "terms": 1700,
      "verage": 1701,
      "board": 1702,
      "force": 1703,
      "ument": 1704,
      "pract": 1705,
      "trad": 1706,
      "utions": 1707,
      "telling": 1708,
      "simply": 1709,
      "scre": 1710,
      "extre": 1711,
      "companies": 1712,
      "grand": 1713,
      "box": 1714,
      "needs": 1715,
      "hands": 1716,
      "wonderful": 1717,
      "perfect": 1718,
      "sed": 1719,
      "event": 1720,
      "medic": 1721,
      "sequ": 1722,
      "obvi": 1723,
      "sun": 1724,
      "ances": 1725,
      "plant": 1726,
      "Conference": 1727,
      "famili": 1728,
      "defin": 1729,
      "pose": 1730,
      "ax": 1731,
      "during": 1732,
      "ware": 1733,
      "knowled": 1734,
      "surv": 1735,
      "eight": 1736,
      "stay": 1737,
      "needed": 1738,
      "idence": 1739,
      "major": 1740,
      "ude": 1741,
      "lling": 1742,
      "realized": 1743,
      "economic": 1744,
      "ump": 1745,
      "ball": 1746,
      "image": 1747,
      "humans": 1748,
      "vol": 1749,
      "blue": 1750,
      "sum": 1751,
      "gs": 1752,
      "reality": 1753,
      "People": 1754,
      "wall": 1755,
      "stage": 1756,
      "longer": 1757,
      "compe": 1758,
      "strong": 1759,
      "mark": 1760,
      "special": 1761,
      "safe": 1762,
      "cannot": 1763,
      "ament": 1764,
      "whatever": 1765,
      "tract": 1766,
      "bar": 1767,
      "feed": 1768,
      "ilar": 1769,
      "dark": 1770,
      "une": 1771,
      "felt": 1772,
      "resour": 1773,
      "absolute": 1774,
      "ames": 1775,
      "rent": 1776,
      "medi": 1777,
      "democr": 1778,
      "rate": 1779,
      "fast": 1780,
      "lay": 1781,
      "ocean": 1782,
      "amount": 1783,
      "CA": 1784,
      "growth": 1785,
      "itions": 1786,
      "quickly": 1787,
      "experiment": 1788,
      "fight": 1789,
      "cop": 1790,
      "books": 1791,
      "Right": 1792,
      "born": 1793,
      "80": 1794,
      "climate": 1795,
      "row": 1796,
      "eat": 1797,
      "approach": 1798,
      "sis": 1799,
      "road": 1800,
      "forest": 1801,
      "buy": 1802,
      "tried": 1803,
      "gone": 1804,
      "conv": 1805,
      "poor": 1806,
      "film": 1807,
      "ny": 1808,
      "lands": 1809,
      "risk": 1810,
      "Yeah": 1811,
      "ties": 1812,
      "interested": 1813,
      "May": 1814,
      "solution": 1815,
      "measure": 1816,
      "type": 1817,
      "ibility": 1818,
      "opportunity": 1819,
      "anal": 1820,
      "stat": 1821,
      "near": 1822,
      "mot": 1823,
      "knowledge": 1824,
      "tend": 1825,
      "tow": 1826,
      "Wor": 1827,
      "lost": 1828,
      "spent": 1829,
      "print": 1830,
      "political": 1831,
      "Yes": 1832,
      "send": 1833,
      "ane": 1834,
      "DNA": 1835,
      "recogn": 1836,
      "ides": 1837,
      "situ": 1838,
      "ron": 1839,
      "ange": 1840,
      "travel": 1841,
      "ustain": 1842,
      "deca": 1843,
      "Not": 1844,
      "forward": 1845,
      "prom": 1846,
      "weeks": 1847,
      "ten": 1848,
      "enge": 1849,
      "lish": 1850,
      "ni": 1851,
      "quality": 1852,
      "spec": 1853,
      "respons": 1854,
      "orig": 1855,
      "ried": 1856,
      "grad": 1857,
      "value": 1858,
      "cool": 1859,
      "economy": 1860,
      "ake": 1861,
      "lies": 1862,
      "ler": 1863,
      "sitting": 1864,
      "blood": 1865,
      "Ro": 1866,
      "ination": 1867,
      "feet": 1868,
      "growing": 1869,
      "vor": 1870,
      "term": 1871,
      "physical": 1872,
      "worth": 1873,
      "write": 1874,
      "bon": 1875,
      "surface": 1876,
      "predict": 1877,
      "cks": 1878,
      "changes": 1879,
      "sil": 1880,
      "sustain": 1881,
      "extreme": 1882,
      "technolog": 1883,
      "ouch": 1884,
      "tic": 1885,
      "impact": 1886,
      "comb": 1887,
      "produc": 1888,
      "challenge": 1889,
      "slow": 1890,
      "structure": 1891,
      "Our": 1892,
      "ught": 1893,
      "vent": 1894,
      "ively": 1895,
      "either": 1896,
      "ined": 1897,
      "ators": 1898,
      "relig": 1899,
      "feeling": 1900,
      "scientists": 1901,
      "11": 1902,
      "ills": 1903,
      "interact": 1904,
      "patients": 1905,
      "incredible": 1906,
      "gress": 1907,
      "sea": 1908,
      "white": 1909,
      "terri": 1910,
      "die": 1911,
      "consum": 1912,
      "ford": 1913,
      "tellig": 1914,
      "Ha": 1915,
      "zy": 1916,
      "ero": 1917,
      "direct": 1918,
      "bri": 1919,
      "entially": 1920,
      "animal": 1921,
      "rele": 1922,
      "areas": 1923,
      "camer": 1924,
      "suggest": 1925,
      "morning": 1926,
      "innovation": 1927,
      "aking": 1928,
      "wouldn": 1929,
      "material": 1930,
      "sli": 1931,
      "moder": 1932,
      "attention": 1933,
      "hot": 1934,
      "development": 1935,
      "bes": 1936,
      "understanding": 1937,
      "bottom": 1938,
      "neigh": 1939,
      "mole": 1940,
      "map": 1941,
      "giving": 1942,
      "profess": 1943,
      "ony": 1944,
      "emer": 1945,
      "World": 1946,
      "ino": 1947,
      "track": 1948,
      "brought": 1949,
      "surpris": 1950,
      "serious": 1951,
      "flow": 1952,
      "numbers": 1953,
      "ordinary": 1954,
      "Ste": 1955,
      "nice": 1956,
      "conf": 1957,
      "pping": 1958,
      "card": 1959,
      "visual": 1960,
      "male": 1961,
      "tools": 1962,
      "rich": 1963,
      "invent": 1964,
      "individual": 1965,
      "average": 1966,
      "ery": 1967,
      "realize": 1968,
      "Bo": 1969,
      "intellig": 1970,
      "descri": 1971,
      "solve": 1972,
      "eye": 1973,
      "ref": 1974,
      "starting": 1975,
      "changing": 1976,
      "abor": 1977,
      "images": 1978,
      "ials": 1979,
      "includ": 1980,
      "ring": 1981,
      "wish": 1982,
      "dden": 1983,
      "activ": 1984,
      "crit": 1985,
      "Mar": 1986,
      "sle": 1987,
      "developed": 1988,
      "gain": 1989,
      "requ": 1990,
      "izing": 1991,
      "literally": 1992,
      "With": 1993,
      "ned": 1994,
      "astr": 1995,
      "sym": 1996,
      "hundreds": 1997,
      "audience": 1998,
      "fear": 1999,
      "const": 2000,
      "consci": 2001,
      "hosp": 2002,
      "millions": 2003,
      "fire": 2004,
      "nal": 2005,
      "alone": 2006,
      "online": 2007,
      "ene": 2008,
      "lled": 2009,
      "soon": 2010,
      "dead": 2011,
      "seems": 2012,
      "sudden": 2013,
      "spread": 2014,
      "touch": 2015,
      "atic": 2016,
      "similar": 2017,
      "wrote": 2018,
      "gives": 2019,
      "technologies": 2020,
      "modern": 2021,
      "icy": 2022,
      "meaning": 2023,
      "running": 2024,
      "tar": 2025,
      "color": 2026,
      "normal": 2027,
      "cars": 2028,
      "center": 2029,
      "count": 2030,
      "produce": 2031,
      "miles": 2032,
      "ped": 2033,
      "rev": 2034,
      "movement": 2035,
      "theory": 2036,
      "computers": 2037,
      "radi": 2038,
      "likely": 2039,
      "sphere": 2040,
      "peri": 2041,
      "90": 2042,
      "post": 2043,
      "cially": 2044,
      "compass": 2045,
      "hon": 2046,
      "focus": 2047,
      "fundament": 2048,
      "tradition": 2049,
      "ley": 2050,
      "favor": 2051,
      "instit": 2052,
      "arm": 2053,
      "soph": 2054,
      "70": 2055,
      "creating": 2056,
      "position": 2057,
      "Don": 2058,
      "tele": 2059,
      "poll": 2060,
      "anyone": 2061,
      "vill": 2062,
      "concept": 2063,
      "dim": 2064,
      "fill": 2065,
      "medical": 2066,
      "pan": 2067,
      "ore": 2068,
      "25": 2069,
      "fair": 2070,
      "fur": 2071,
      "round": 2072,
      "uals": 2073,
      "convers": 2074,
      "generation": 2075,
      "electric": 2076,
      "psycho": 2077,
      "ox": 2078,
      "loc": 2079,
      "forms": 2080,
      "playing": 2081,
      "patient": 2082,
      "chem": 2083,
      "avail": 2084,
      "guess": 2085,
      "cing": 2086,
      "rul": 2087,
      "curity": 2088,
      "song": 2089,
      "thank": 2090,
      "fine": 2091,
      "affect": 2092,
      "late": 2093,
      "bey": 2094,
      "developing": 2095,
      "ale": 2096,
      "writing": 2097,
      "function": 2098,
      "joy": 2099,
      "source": 2100,
      "dy": 2101,
      "push": 2102,
      "represent": 2103,
      "moved": 2104,
      "ensive": 2105,
      "designed": 2106,
      "absolutely": 2107,
      "priv": 2108,
      "South": 2109,
      "rod": 2110,
      "kets": 2111,
      "fortun": 2112,
      "smart": 2113,
      "iant": 2114,
      "ada": 2115,
      "talked": 2116,
      "pression": 2117,
      "English": 2118,
      "Man": 2119,
      "proper": 2120,
      "showed": 2121,
      "network": 2122,
      "discovered": 2123,
      "benef": 2124,
      "Co": 2125,
      "Joh": 2126,
      "bird": 2127,
      "ased": 2128,
      "asking": 2129,
      "chance": 2130,
      "voice": 2131,
      "ses": 2132,
      "omen": 2133,
      "current": 2134,
      "town": 2135,
      "rup": 2136,
      "ilities": 2137,
      "wood": 2138,
      "strate": 2139,
      "violence": 2140,
      "connected": 2141,
      "mathem": 2142,
      "industry": 2143,
      "experien": 2144,
      "ges": 2145,
      "liz": 2146,
      "attack": 2147,
      "rial": 2148,
      "save": 2149,
      "gas": 2150,
      "lines": 2151,
      "onto": 2152,
      "peace": 2153,
      "prov": 2154,
      "Where": 2155,
      "band": 2156,
      "eth": 2157,
      "sold": 2158,
      "tiny": 2159,
      "asing": 2160,
      "sever": 2161,
      "challeng": 2162,
      "medicine": 2163,
      "gor": 2164,
      "seem": 2165,
      "aged": 2166,
      "Goo": 2167,
      "div": 2168,
      "gent": 2169,
      "iss": 2170,
      "door": 2171,
      "dest": 2172,
      "rece": 2173,
      "cover": 2174,
      "truth": 2175,
      "By": 2176,
      "thor": 2177,
      "inal": 2178,
      "beyond": 2179,
      "ches": 2180,
      "available": 2181,
      "gal": 2182,
      "journey": 2183,
      "speed": 2184,
      "compassion": 2185,
      "zz": 2186,
      "icans": 2187,
      "cli": 2188,
      "rop": 2189,
      "knows": 2190,
      "mission": 2191,
      "incredibly": 2192,
      "recently": 2193,
      "ences": 2194,
      "shape": 2195,
      "reasons": 2196,
      "baby": 2197,
      "emp": 2198,
      "ali": 2199,
      "rad": 2200,
      "among": 2201,
      "solar": 2202,
      "subject": 2203,
      "resources": 2204,
      "trust": 2205,
      "mul": 2206,
      "report": 2207,
      "asc": 2208,
      "lived": 2209,
      "construct": 2210,
      "Chin": 2211,
      "genet": 2212,
      "Ho": 2213,
      "inci": 2214,
      "Chris": 2215,
      "Look": 2216,
      "John": 2217,
      "Com": 2218,
      "necess": 2219,
      "conscious": 2220,
      "Ge": 2221,
      "respond": 2222,
      "rid": 2223,
      "sat": 2224,
      "table": 2225,
      "ana": 2226,
      "haven": 2227,
      "lam": 2228,
      "evidence": 2229,
      "message": 2230,
      "digital": 2231,
      "espe": 2232,
      "transform": 2233,
      "groups": 2234,
      "software": 2235,
      "especially": 2236,
      "ghter": 2237,
      "tells": 2238,
      "biology": 2239,
      "drugs": 2240,
      "ru": 2241,
      "concer": 2242,
      "drive": 2243,
      "situation": 2244,
      "revolution": 2245,
      "period": 2246,
      "mechan": 2247,
      "rais": 2248,
      "choice": 2249,
      "carbon": 2250,
      "ilo": 2251,
      "becomes": 2252,
      "potential": 2253,
      "involved": 2254,
      "coura": 2255,
      "aware": 2256,
      "danger": 2257,
      "Chinese": 2258,
      "ift": 2259,
      "pictures": 2260,
      "collabor": 2261,
      "Car": 2262,
      "Po": 2263,
      "ouble": 2264,
      "security": 2265,
      "robots": 2266,
      "screen": 2267,
      "Sh": 2268,
      "passion": 2269,
      "several": 2270,
      "bigger": 2271,
      "girls": 2272,
      "Who": 2273,
      "effic": 2274,
      "da": 2275,
      "ites": 2276,
      "aging": 2277,
      "basic": 2278,
      "sleep": 2279,
      "mand": 2280,
      "moun": 2281,
      "multi": 2282,
      "leader": 2283,
      "dimens": 2284,
      "aim": 2285,
      "Google": 2286,
      "hit": 2287,
      "abo": 2288,
      "ext": 2289,
      "sounds": 2290,
      "usion": 2291,
      "bacter": 2292,
      "web": 2293,
      "load": 2294,
      "except": 2295,
      "politics": 2296,
      "nuc": 2297,
      "Inst": 2298,
      "putting": 2299,
      "prison": 2300,
      "Ph": 2301,
      "pover": 2302,
      "sal": 2303,
      "threat": 2304,
      "suff": 2305,
      "flict": 2306,
      "First": 2307,
      "ado": 2308,
      "nine": 2309,
      "scientific": 2310,
      "device": 2311,
      "rules": 2312,
      "smo": 2313,
      "ably": 2314,
      "believ": 2315,
      "ade": 2316,
      "cit": 2317,
      "phen": 2318,
      "cris": 2319,
      "materials": 2320,
      "towards": 2321,
      "ows": 2322,
      "wide": 2323,
      "itary": 2324,
      "lex": 2325,
      "ival": 2326,
      "code": 2327,
      "lau": 2328,
      "link": 2329,
      "examples": 2330,
      "Maybe": 2331,
      "neighbor": 2332,
      "fant": 2333,
      "tion": 2334,
      "secre": 2335,
      "progress": 2336,
      "istan": 2337,
      "died": 2338,
      "diag": 2339,
      "pair": 2340,
      "eco": 2341,
      "fold": 2342,
      "oid": 2343,
      "starts": 2344,
      "iction": 2345,
      "poverty": 2346,
      "boy": 2347,
      "clin": 2348,
      "tribut": 2349,
      "general": 2350,
      "anybody": 2351,
      "After": 2352,
      "stra": 2353,
      "stick": 2354,
      "happiness": 2355,
      "sect": 2356,
      "vari": 2357,
      "Fe": 2358,
      "inde": 2359,
      "mobi": 2360,
      "mental": 2361,
      "largest": 2362,
      "projects": 2363,
      "detail": 2364,
      "creative": 2365,
      "fing": 2366,
      "democracy": 2367,
      "Of": 2368,
      "cross": 2369,
      "kept": 2370,
      "princi": 2371,
      "minute": 2372,
      "clean": 2373,
      "results": 2374,
      "bir": 2375,
      "ls": 2376,
      "rand": 2377,
      "vert": 2378,
      "terror": 2379,
      "leaders": 2380,
      "walking": 2381,
      "entertain": 2382,
      "citiz": 2383,
      "sco": 2384,
      "plants": 2385,
      "syn": 2386,
      "wants": 2387,
      "sl": 2388,
      "character": 2389,
      "arts": 2390,
      "communities": 2391,
      "schools": 2392,
      "fix": 2393,
      "anti": 2394,
      "introd": 2395,
      "genes": 2396,
      "positive": 2397,
      "iversity": 2398,
      "mail": 2399,
      "brains": 2400,
      "North": 2401,
      "conflict": 2402,
      "comfort": 2403,
      "ency": 2404,
      "sem": 2405,
      "brid": 2406,
      "biggest": 2407,
      "chemical": 2408,
      "tle": 2409,
      "showing": 2410,
      "camera": 2411,
      "games": 2412,
      "role": 2413,
      "deli": 2414,
      "okay": 2415,
      "allowed": 2416,
      "exciting": 2417,
      "further": 2418,
      "tw": 2419,
      "higher": 2420,
      "particip": 2421,
      "bur": 2422,
      "sor": 2423,
      "insp": 2424,
      "mit": 2425,
      "onse": 2426,
      "ived": 2427,
      "student": 2428,
      "virt": 2429,
      "Any": 2430,
      "totally": 2431,
      "accept": 2432,
      "ption": 2433,
      "response": 2434,
      "certainly": 2435,
      "obviously": 2436,
      "birth": 2437,
      "mers": 2438,
      "creativity": 2439,
      "capital": 2440,
      "pers": 2441,
      "standard": 2442,
      "avid": 2443,
      "objects": 2444,
      "rights": 2445,
      "fuel": 2446,
      "watching": 2447,
      "extraordinary": 2448,
      "neuro": 2449,
      "memory": 2450,
      "performance": 2451,
      "star": 2452,
      "sell": 2453,
      "antly": 2454,
      "office": 2455,
      "architecture": 2456,
      "including": 2457,
      "lose": 2458,
      "standing": 2459,
      "carry": 2460,
      "ech": 2461,
      "urban": 2462,
      "teachers": 2463,
      "inner": 2464,
      "antic": 2465,
      "nobody": 2466,
      "skin": 2467,
      "particularly": 2468,
      "mine": 2469,
      "zero": 2470,
      "activity": 2471,
      "logist": 2472,
      "author": 2473,
      "range": 2474,
      "500": 2475,
      "bank": 2476,
      "pack": 2477,
      "discover": 2478,
      "individuals": 2479,
      "hun": 2480,
      "mous": 2481,
      "everywhere": 2482,
      "legal": 2483,
      "Brit": 2484,
      "Are": 2485,
      "David": 2486,
      "apart": 2487,
      "ik": 2488,
      "loy": 2489,
      "fundamental": 2490,
      "bul": 2491,
      "fasc": 2492,
      "Me": 2493,
      "imate": 2494,
      "African": 2495,
      "improve": 2496,
      "lad": 2497,
      "amp": 2498,
      "jobs": 2499,
      "extremely": 2500,
      "IV": 2501,
      "West": 2502,
      "blind": 2503,
      "trees": 2504,
      "named": 2505,
      "rect": 2506,
      "offe": 2507,
      "stri": 2508,
      "gue": 2509,
      "buildings": 2510,
      "models": 2511,
      "colleag": 2512,
      "cam": 2513,
      "supposed": 2514,
      "Pro": 2515,
      "wait": 2516,
      "crazy": 2517,
      "favorite": 2518,
      "14": 2519,
      "War": 2520,
      "weight": 2521,
      "complic": 2522,
      "shop": 2523,
      "discus": 2524,
      "physics": 2525,
      "consider": 2526,
      "Tod": 2527,
      "ium": 2528,
      "agree": 2529,
      "finding": 2530,
      "immedi": 2531,
      "grew": 2532,
      "hospital": 2533,
      "Even": 2534,
      "hom": 2535,
      "infect": 2536,
      "notice": 2537,
      "taught": 2538,
      "minds": 2539,
      "engineering": 2540,
      "ather": 2541,
      "bat": 2542,
      "separ": 2543,
      "adult": 2544,
      "itten": 2545,
      "bodies": 2546,
      "mathemat": 2547,
      ".,": 2548,
      "bol": 2549,
      "onom": 2550,
      "moral": 2551,
      "occur": 2552,
      "eventually": 2553,
      "crisis": 2554,
      "Har": 2555,
      "influ": 2556,
      "wild": 2557,
      "goal": 2558,
      "math": 2559,
      "apan": 2560,
      "earli": 2561,
      "sky": 2562,
      "essentially": 2563,
      "Most": 2564,
      "Japan": 2565,
      "Mic": 2566,
      "ded": 2567,
      "doc": 2568,
      "His": 2569,
      "ify": 2570,
      "perspect": 2571,
      "shot": 2572,
      "continue": 2573,
      "edom": 2574,
      "launch": 2575,
      "SA": 2576,
      "bom": 2577,
      "ified": 2578,
      "fortunately": 2579,
      "cape": 2580,
      "Ger": 2581,
      "faster": 2582,
      "rist": 2583,
      "icle": 2584,
      "meant": 2585,
      "humanity": 2586,
      "teacher": 2587,
      "cases": 2588,
      "mid": 2589,
      "mir": 2590,
      "arg": 2591,
      "waste": 2592,
      "specific": 2593,
      "village": 2594,
      "mobile": 2595,
      "bunch": 2596,
      "task": 2597,
      "shown": 2598,
      "respect": 2599,
      "college": 2600,
      "decision": 2601,
      "movie": 2602,
      "points": 2603,
      "products": 2604,
      "allows": 2605,
      "16": 2606,
      "dau": 2607,
      "sand": 2608,
      "remark": 2609,
      "ham": 2610,
      "worse": 2611,
      "signific": 2612,
      "TV": 2613,
      "page": 2614,
      "context": 2615,
      "version": 2616,
      "tree": 2617,
      "dete": 2618,
      "pieces": 2619,
      "above": 2620,
      "loved": 2621,
      "cked": 2622,
      "successful": 2623,
      "nuclear": 2624,
      "HIV": 2625,
      "bill": 2626,
      "reci": 2627,
      "ert": 2628,
      "policy": 2629,
      "truly": 2630,
      "families": 2631,
      "17": 2632,
      "ires": 2633,
      "site": 2634,
      "wife": 2635,
      "somewhere": 2636,
      "conditions": 2637,
      "studies": 2638,
      "conversation": 2639,
      "Ex": 2640,
      "burn": 2641,
      "ime": 2642,
      "arily": 2643,
      "temper": 2644,
      "military": 2645,
      "magic": 2646,
      "labor": 2647,
      "surprising": 2648,
      "traditional": 2649,
      "entertainment": 2650,
      "killed": 2651,
      "choose": 2652,
      "older": 2653,
      "pull": 2654,
      "healthy": 2655,
      "types": 2656,
      "lack": 2657,
      "vil": 2658,
      "lif": 2659,
      "machines": 2660,
      "suddenly": 2661,
      "ered": 2662,
      "pture": 2663,
      "organization": 2664,
      "bing": 2665,
      "luck": 2666,
      "swe": 2667,
      "wever": 2668,
      "finan": 2669,
      "glass": 2670,
      "fascin": 2671,
      "Jo": 2672,
      "wise": 2673,
      "stars": 2674,
      "ribut": 2675,
      "impossible": 2676,
      "larger": 2677,
      "square": 2678,
      "Dan": 2679,
      "hero": 2680,
      "service": 2681,
      "Today": 2682,
      "continu": 2683,
      "ulate": 2684,
      "cold": 2685,
      "ieve": 2686,
      "plane": 2687,
      "galax": 2688,
      "cise": 2689,
      "itch": 2690,
      "reading": 2691,
      "series": 2692,
      "expensive": 2693,
      "appear": 2694,
      "cat": 2695,
      "race": 2696,
      "rough": 2697,
      "ann": 2698,
      "trick": 2699,
      "TEDx": 2700,
      "univers": 2701,
      "bacteria": 2702,
      "indeed": 2703,
      "manage": 2704,
      "earth": 2705,
      "Bra": 2706,
      "Those": 2707,
      "atory": 2708,
      "estern": 2709,
      "ables": 2710,
      "neg": 2711,
      "sorts": 2712,
      "intelligence": 2713,
      "pet": 2714,
      "useum": 2715,
      "famous": 2716,
      "production": 2717,
      "decisions": 2718,
      "complicated": 2719,
      "Ad": 2720,
      "isms": 2721,
      "achieve": 2722,
      "afford": 2723,
      "East": 2724,
      "itation": 2725,
      "ounds": 2726,
      "ending": 2727,
      "transport": 2728,
      "police": 2729,
      "iced": 2730,
      "prote": 2731,
      "region": 2732,
      "excited": 2733,
      "massive": 2734,
      "Mus": 2735,
      "faces": 2736,
      "nia": 2737,
      "izations": 2738,
      "international": 2739,
      "base": 2740,
      "lower": 2741,
      "rise": 2742,
      "solutions": 2743,
      "Americans": 2744,
      "seconds": 2745,
      "freedom": 2746,
      "increase": 2747,
      "lying": 2748,
      "habit": 2749,
      "dog": 2750,
      "active": 2751,
      "lights": 2752,
      "199": 2753,
      "treatment": 2754,
      "chair": 2755,
      "doctors": 2756,
      "aid": 2757,
      "cas": 2758,
      "jud": 2759,
      "usually": 2760,
      "ung": 2761,
      "uction": 2762,
      "distribut": 2763,
      "listening": 2764,
      "Like": 2765,
      "critical": 2766,
      "13": 2767,
      "Imag": 2768,
      "narr": 2769,
      "skills": 2770,
      "phenomen": 2771,
      "perspective": 2772,
      "Pr": 2773,
      "cis": 2774,
      "nation": 2775,
      "somehow": 2776,
      "civi": 2777,
      "beings": 2778,
      "content": 2779,
      "written": 2780,
      "demon": 2781,
      "mak": 2782,
      "driving": 2783,
      "training": 2784,
      "straight": 2785,
      "Col": 2786,
      "hous": 2787,
      "saving": 2788,
      "engage": 2789,
      "increasing": 2790,
      "communication": 2791,
      "patterns": 2792,
      "sou": 2793,
      "alive": 2794,
      "deb": 2795,
      "foc": 2796,
      "strug": 2797,
      "Per": 2798,
      "pes": 2799,
      "alter": 2800,
      "anywhere": 2801,
      "unders": 2802,
      "smaller": 2803,
      "oxy": 2804,
      "cup": 2805,
      "uss": 2806,
      "uments": 2807,
      "philo": 2808,
      "Which": 2809,
      "cles": 2810,
      "Act": 2811,
      "lap": 2812,
      "arri": 2813,
      "yeah": 2814,
      "crimin": 2815,
      "beauty": 2816,
      "becoming": 2817,
      "entre": 2818,
      "def": 2819,
      "provide": 2820,
      "mention": 2821,
      "philosoph": 2822,
      "catch": 2823,
      "urt": 2824,
      "actual": 2825,
      "cient": 2826,
      "price": 2827,
      "diseas": 2828,
      "gradu": 2829,
      "electricity": 2830,
      "enor": 2831,
      "plastic": 2832,
      "cure": 2833,
      "anymore": 2834,
      "throw": 2835,
      "recognize": 2836,
      "bra": 2837,
      "bits": 2838,
      "ners": 2839,
      "please": 2840,
      "unique": 2841,
      "address": 2842,
      "reflect": 2843,
      "private": 2844,
      "neighborhood": 2845,
      "secret": 2846,
      "City": 2847,
      "scan": 2848,
      "slight": 2849,
      "vacc": 2850,
      "store": 2851,
      "calcul": 2852,
      "neurons": 2853,
      "familiar": 2854,
      "dangerous": 2855,
      "van": 2856,
      "infr": 2857,
      "income": 2858,
      "ched": 2859,
      "roll": 2860,
      "cele": 2861,
      "journal": 2862,
      "diseases": 2863,
      "mix": 2864,
      "swi": 2865,
      "strange": 2866,
      "career": 2867,
      "virus": 2868,
      "atom": 2869,
      "stress": 2870,
      "cook": 2871,
      "cru": 2872,
      "celebr": 2873,
      "Mc": 2874,
      "iti": 2875,
      "webs": 2876,
      "tered": 2877,
      "upon": 2878,
      "phones": 2879,
      "effective": 2880,
      "explore": 2881,
      "earlier": 2882,
      "!\"": 2883,
      "Ken": 2884,
      "logists": 2885,
      "gotten": 2886,
      "auto": 2887,
      "direction": 2888,
      "entrepre": 2889,
      "bel": 2890,
      "tex": 2891,
      "teen": 2892,
      "workers": 2893,
      "Christ": 2894,
      "waiting": 2895,
      "Your": 2896,
      "hop": 2897,
      "hol": 2898,
      "nut": 2899,
      "rom": 2900,
      "weren": 2901,
      "demand": 2902,
      "willing": 2903,
      "cloud": 2904,
      "integr": 2905,
      "ffic": 2906,
      "tains": 2907,
      "costs": 2908,
      "plac": 2909,
      "genetic": 2910,
      "instr": 2911,
      "meth": 2912,
      "counter": 2913,
      "painting": 2914,
      "Mars": 2915,
      "sess": 2916,
      "himself": 2917,
      "decade": 2918,
      "Imagine": 2919,
      "ame": 2920,
      "insect": 2921,
      "ceed": 2922,
      "istics": 2923,
      "ender": 2924,
      "tempt": 2925,
      "brother": 2926,
      "fit": 2927,
      "contribut": 2928,
      "throughout": 2929,
      "greater": 2930,
      "floor": 2931,
      "Dr": 2932,
      "forth": 2933,
      "optim": 2934,
      "express": 2935,
      "interview": 2936,
      "values": 2937,
      "flying": 2938,
      "motiv": 2939,
      "Aust": 2940,
      "ID": 2941,
      "raise": 2942,
      "thern": 2943,
      "attle": 2944,
      "legs": 2945,
      "laugh": 2946,
      "sus": 2947,
      "quant": 2948,
      "prevent": 2949,
      "belief": 2950,
      "connection": 2951,
      "frame": 2952,
      "21": 2953,
      "sam": 2954,
      "prim": 2955,
      "physic": 2956,
      "environmental": 2957,
      "services": 2958,
      "central": 2959,
      "governments": 2960,
      "Arab": 2961,
      "explor": 2962,
      "dependent": 2963,
      "invented": 2964,
      "iet": 2965,
      "jump": 2966,
      "vit": 2967,
      "veh": 2968,
      "account": 2969,
      "hair": 2970,
      "worry": 2971,
      "condition": 2972,
      "matic": 2973,
      "clearly": 2974,
      "practice": 2975,
      "diagno": 2976,
      "Ano": 2977,
      "beat": 2978,
      "Char": 2979,
      "funny": 2980,
      "capac": 2981,
      "decades": 2982,
      "religion": 2983,
      "citizens": 2984,
      "website": 2985,
      "Lon": 2986,
      "ray": 2987,
      "proto": 2988,
      "surger": 2989,
      "immediately": 2990,
      "Another": 2991,
      "mas": 2992,
      "atmo": 2993,
      "quar": 2994,
      "ends": 2995,
      "final": 2996,
      "Afgh": 2997,
      "radio": 2998,
      "adapt": 2999,
      "fantastic": 3000,
      "Pa": 3001,
      "therap": 3002,
      "wealth": 3003,
      "walked": 3004,
      "meeting": 3005,
      "challenges": 3006,
      "ustr": 3007,
      "teaching": 3008,
      "scientist": 3009,
      "stream": 3010,
      "relationships": 3011,
      "remarkable": 3012,
      "cket": 3013,
      "tens": 3014,
      "era": 3015,
      "select": 3016,
      "weap": 3017,
      "manu": 3018,
      "drink": 3019,
      "levels": 3020,
      "institutions": 3021,
      "random": 3022,
      "London": 3023,
      "ories": 3024,
      "ishing": 3025,
      "ai": 3026,
      "dance": 3027,
      "ito": 3028,
      "ograph": 3029,
      "iger": 3030,
      "helped": 3031,
      "related": 3032,
      "University": 3033,
      "laws": 3034,
      "courage": 3035,
      "Je": 3036,
      "zed": 3037,
      "wered": 3038,
      "choices": 3039,
      "greatest": 3040,
      "wheel": 3041,
      "following": 3042,
      "honest": 3043,
      "tood": 3044,
      "female": 3045,
      "cry": 3046,
      "Two": 3047,
      "yle": 3048,
      "babies": 3049,
      "dollar": 3050,
      "broad": 3051,
      "understood": 3052,
      "Afghan": 3053,
      "enjoy": 3054,
      "useful": 3055,
      "phor": 3056,
      "brand": 3057,
      "drop": 3058,
      "colleagues": 3059,
      "financial": 3060,
      "Ju": 3061,
      "artist": 3062,
      "therefore": 3063,
      "offic": 3064,
      "sustainable": 3065,
      "dynam": 3066,
      "Braz": 3067,
      "Western": 3068,
      "ahead": 3069,
      "je": 3070,
      "seas": 3071,
      "wel": 3072,
      "claim": 3073,
      "surround": 3074,
      "decide": 3075,
      "popular": 3076,
      "ping": 3077,
      "inspir": 3078,
      "iding": 3079,
      "iling": 3080,
      "bert": 3081,
      "From": 3082,
      "sme": 3083,
      "crow": 3084,
      "shared": 3085,
      "pressure": 3086,
      "inspired": 3087,
      "24": 3088,
      "En": 3089,
      "cast": 3090,
      "ju": 3091,
      "ky": 3092,
      "wed": 3093,
      "imately": 3094,
      "consequ": 3095,
      "whose": 3096,
      "paign": 3097,
      "economics": 3098,
      "Will": 3099,
      "relative": 3100,
      "join": 3101,
      "programs": 3102,
      "various": 3103,
      "spirit": 3104,
      "daughter": 3105,
      "Face": 3106,
      "hack": 3107,
      "paid": 3108,
      "transl": 3109,
      "ashing": 3110,
      "curi": 3111,
      "streets": 3112,
      "obvious": 3113,
      "email": 3114,
      "itted": 3115,
      "minis": 3116,
      "purpose": 3117,
      "analy": 3118,
      "Ber": 3119,
      "cot": 3120,
      "associ": 3121,
      "bees": 3122,
      "loss": 3123,
      "concl": 3124,
      "saur": 3125,
      "electron": 3126,
      "effects": 3127,
      "bridge": 3128,
      "Many": 3129,
      "mes": 3130,
      "worst": 3131,
      "sport": 3132,
      "speaking": 3133,
      "astruct": 3134,
      "efficient": 3135,
      "atmosphere": 3136,
      "ube": 3137,
      "termin": 3138,
      "orders": 3139,
      "expand": 3140,
      "terrible": 3141,
      "entrepreneur": 3142,
      "ior": 3143,
      "mend": 3144,
      "aris": 3145,
      "destro": 3146,
      "300": 3147,
      "Ma": 3148,
      "Sy": 3149,
      "Tim": 3150,
      "sen": 3151,
      "sick": 3152,
      "wis": 3153,
      "remain": 3154,
      "iles": 3155,
      "resist": 3156,
      "ets": 3157,
      "played": 3158,
      "although": 3159,
      "states": 3160,
      "check": 3161,
      "cultural": 3162,
      "industrial": 3163,
      "iers": 3164,
      "sw": 3165,
      "ret": 3166,
      "tery": 3167,
      "Think": 3168,
      "ils": 3169,
      "techni": 3170,
      "trade": 3171,
      "identity": 3172,
      "Second": 3173,
      "reve": 3174,
      "commer": 3175,
      "possibly": 3176,
      "rooms": 3177,
      "profound": 3178,
      "slide": 3179,
      "dad": 3180,
      "fir": 3181,
      "gun": 3182,
      "agric": 3183,
      "infrastruct": 3184,
      "agricult": 3185,
      "Great": 3186,
      "forget": 3187,
      "markets": 3188,
      "surve": 3189,
      "survive": 3190,
      "enormous": 3191,
      "manufact": 3192,
      "Mon": 3193,
      "athe": 3194,
      "mig": 3195,
      "none": 3196,
      "formed": 3197,
      "instance": 3198,
      "ashion": 3199,
      "television": 3200,
      "below": 3201,
      "camp": 3202,
      "techn": 3203,
      "biological": 3204,
      "experiments": 3205,
      "temperature": 3206,
      "slightly": 3207,
      "ancy": 3208,
      "forces": 3209,
      "rock": 3210,
      "wire": 3211,
      "tax": 3212,
      "organizations": 3213,
      "broken": 3214,
      "Ben": 3215,
      "San": 3216,
      "anth": 3217,
      "cies": 3218,
      "anyway": 3219,
      "idden": 3220,
      "capacity": 3221,
      "eties": 3222,
      "mut": 3223,
      "mort": 3224,
      "ico": 3225,
      "boys": 3226,
      "hole": 3227,
      "stopped": 3228,
      "Good": 3229,
      "summer": 3230,
      "Rich": 3231,
      "fat": 3232,
      "gar": 3233,
      "thetic": 3234,
      "return": 3235,
      "mam": 3236,
      "societies": 3237,
      "members": 3238,
      "corpor": 3239,
      "answers": 3240,
      "communicate": 3241,
      "Geor": 3242,
      "campaign": 3243,
      "Ed": 3244,
      "Mort": 3245,
      "bud": 3246,
      "dying": 3247,
      "pite": 3248,
      "aly": 3249,
      "aries": 3250,
      "heat": 3251,
      "justice": 3252,
      "evolved": 3253,
      "prise": 3254,
      "networks": 3255,
      "planets": 3256,
      "compet": 3257,
      "directly": 3258,
      "leadership": 3259,
      "method": 3260,
      "Facebook": 3261,
      "Ira": 3262,
      "kil": 3263,
      "rout": 3264,
      "tun": 3265,
      "lie": 3266,
      "causes": 3267,
      "shift": 3268,
      "assum": 3269,
      "mostly": 3270,
      "native": 3271,
      "published": 3272,
      "emotional": 3273,
      "Cali": 3274,
      "Med": 3275,
      "compl": 3276,
      "sharing": 3277,
      "suit": 3278,
      "profit": 3279,
      "civiliz": 3280,
      "Califor": 3281,
      "bound": 3282,
      "edge": 3283,
      "uced": 3284,
      "helping": 3285,
      "tremend": 3286,
      "gorith": 3287,
      "Instead": 3288,
      "swim": 3289,
      "Gre": 3290,
      "blog": 3291,
      "bought": 3292,
      "algorith": 3293,
      "sector": 3294,
      "held": 3295,
      "calls": 3296,
      "lets": 3297,
      "supply": 3298,
      "birds": 3299,
      "comfortable": 3300,
      "umb": 3301,
      "core": 3302,
      "partner": 3303,
      "produced": 3304,
      "Gu": 3305,
      "lat": 3306,
      "swit": 3307,
      "rem": 3308,
      "meta": 3309,
      "raid": 3310,
      "conference": 3311,
      "noticed": 3312,
      "cycle": 3313,
      "devices": 3314,
      "document": 3315,
      "National": 3316,
      "bone": 3317,
      "fashion": 3318,
      "meters": 3319,
      "liber": 3320,
      "conserv": 3321,
      "boat": 3322,
      "feels": 3323,
      "Islam": 3324,
      "advant": 3325,
      "Iraq": 3326,
      "California": 3327,
      "hus": 3328,
      "gentle": 3329,
      "Iran": 3330,
      "itor": 3331,
      "vast": 3332,
      "atell": 3333,
      "spaces": 3334,
      "embr": 3335,
      "original": 3336,
      "experiences": 3337,
      "infrastructure": 3338,
      "dou": 3339,
      "spo": 3340,
      "rew": 3341,
      "applic": 3342,
      "differently": 3343,
      "grees": 3344,
      "rapid": 3345,
      "circ": 3346,
      "twice": 3347,
      "surgery": 3348,
      "Sp": 3349,
      "eating": 3350,
      "rare": 3351,
      "oting": 3352,
      "degrees": 3353,
      "closer": 3354,
      "correct": 3355,
      "Indian": 3356,
      "bringing": 3357,
      "window": 3358,
      "cules": 3359,
      "copy": 3360,
      "consciousness": 3361,
      "Morton": 3362,
      "Fran": 3363,
      "gree": 3364,
      "speech": 3365,
      "highly": 3366,
      "Bast": 3367,
      "ked": 3368,
      "ently": 3369,
      "actions": 3370,
      "gene": 3371,
      "Isra": 3372,
      "nearly": 3373,
      "oxygen": 3374,
      "satell": 3375,
      "tough": 3376,
      "thes": 3377,
      "repe": 3378,
      "usual": 3379,
      "party": 3380,
      "traffic": 3381,
      "significant": 3382,
      "Su": 3383,
      "aper": 3384,
      "fro": 3385,
      "remind": 3386,
      "capture": 3387,
      "erson": 3388,
      "reduce": 3389,
      "differences": 3390,
      "afraid": 3391,
      "invention": 3392,
      "missing": 3393,
      "easily": 3394,
      "complexity": 3395,
      "total": 3396,
      "flies": 3397,
      "pleas": 3398,
      "contact": 3399,
      "compon": 3400,
      "creates": 3401,
      "passed": 3402,
      "oceans": 3403,
      "cred": 3404,
      "degree": 3405,
      "studying": 3406,
      "match": 3407,
      "corner": 3408,
      "craft": 3409,
      "rule": 3410,
      "Afghanistan": 3411,
      "zo": 3412,
      "icon": 3413,
      "inosaur": 3414,
      "gender": 3415,
      "hall": 3416,
      "trouble": 3417,
      "hibit": 3418,
      "responsibility": 3419,
      "Her": 3420,
      "gap": 3421,
      "zine": 3422,
      "ancient": 3423,
      "icles": 3424,
      "civil": 3425,
      "crime": 3426,
      "Again": 3427,
      "Ke": 3428,
      "Russ": 3429,
      "ds": 3430,
      "atives": 3431,
      "bub": 3432,
      "Hey": 3433,
      "diversity": 3434,
      "invol": 3435,
      "Middle": 3436,
      "dama": 3437,
      "sad": 3438,
      "vict": 3439,
      "ening": 3440,
      "lied": 3441,
      "ulner": 3442,
      "plat": 3443,
      "knowing": 3444,
      "seemed": 3445,
      "possibility": 3446,
      "molecules": 3447,
      "fascinating": 3448,
      "Take": 3449,
      "fol": 3450,
      "pal": 3451,
      "anda": 3452,
      "spot": 3453,
      "shares": 3454,
      "corrup": 3455,
      "symbol": 3456,
      "Paul": 3457,
      "bag": 3458,
      "ining": 3459,
      "wash": 3460,
      "note": 3461,
      "cope": 3462,
      "designers": 3463,
      "balance": 3464,
      "victim": 3465,
      "Over": 3466,
      "rot": 3467,
      "anced": 3468,
      "attract": 3469,
      "arian": 3470,
      "lliant": 3471,
      "nel": 3472,
      "mod": 3473,
      "epide": 3474,
      "posite": 3475,
      "Austral": 3476,
      "3D": 3477,
      "Cam": 3478,
      "Did": 3479,
      "Twit": 3480,
      "ding": 3481,
      "covered": 3482,
      "Thanks": 3483,
      "avoid": 3484,
      "parent": 3485,
      "raised": 3486,
      "IDS": 3487,
      "Mex": 3488,
      "giant": 3489,
      "mouth": 3490,
      "ened": 3491,
      "aspect": 3492,
      "rian": 3493,
      "Web": 3494,
      "leading": 3495,
      "charge": 3496,
      "hearing": 3497,
      "operation": 3498,
      "fresh": 3499,
      "target": 3500,
      "host": 3501,
      "carto": 3502,
      "basis": 3503,
      "puzz": 3504,
      "spending": 3505,
      "deliver": 3506,
      "husband": 3507,
      "Des": 3508,
      "Dar": 3509,
      "cand": 3510,
      "alo": 3511,
      "shel": 3512,
      "trial": 3513,
      "heads": 3514,
      "addition": 3515,
      "Asia": 3516,
      "structures": 3517,
      "definition": 3518,
      "focused": 3519,
      "smell": 3520,
      "ull": 3521,
      "vest": 3522,
      "ram": 3523,
      "prep": 3524,
      "sites": 3525,
      "block": 3526,
      "distance": 3527,
      "opportunities": 3528,
      "Am": 3529,
      "hang": 3530,
      "rum": 3531,
      "tour": 3532,
      "tum": 3533,
      "vulner": 3534,
      "ya": 3535,
      "ths": 3536,
      "otic": 3537,
      "genome": 3538,
      "faith": 3539,
      "Bill": 3540,
      "Ob": 3541,
      "fab": 3542,
      "stren": 3543,
      "contr": 3544,
      "urch": 3545,
      "intu": 3546,
      "finished": 3547,
      "trend": 3548,
      "necessary": 3549,
      "offee": 3550,
      "kilome": 3551,
      "tremendous": 3552,
      "Twitter": 3553,
      "IT": 3554,
      "opt": 3555,
      "shar": 3556,
      "effort": 3557,
      "moments": 3558,
      "sexual": 3559,
      "finger": 3560,
      "Ab": 3561,
      "sn": 3562,
      "maga": 3563,
      "yellow": 3564,
      "rench": 3565,
      "background": 3566,
      "grade": 3567,
      "turning": 3568,
      "miss": 3569,
      "failure": 3570,
      "400": 3571,
      "master": 3572,
      "tissue": 3573,
      "inct": 3574,
      "ander": 3575,
      "gry": 3576,
      "bled": 3577,
      "invis": 3578,
      "serve": 3579,
      "imagination": 3580,
      "cheap": 3581,
      "landscape": 3582,
      "insects": 3583,
      "Brazil": 3584,
      "streng": 3585,
      "Bar": 3586,
      "coffee": 3587,
      "pi": 3588,
      "tal": 3589,
      "vity": 3590,
      "assem": 3591,
      "hell": 3592,
      "myster": 3593,
      "ards": 3594,
      "brings": 3595,
      "ception": 3596,
      "organisms": 3597,
      "apply": 3598,
      "cording": 3599,
      "hydro": 3600,
      "AIDS": 3601,
      "Lu": 3602,
      "etry": 3603,
      "museum": 3604,
      "enn": 3605,
      "weird": 3606,
      "lip": 3607,
      "exer": 3608,
      "etc": 3609,
      "creation": 3610,
      "forever": 3611,
      "responsible": 3612,
      "mountain": 3613,
      "detect": 3614,
      "negative": 3615,
      "Mr": 3616,
      "sch": 3617,
      "notion": 3618,
      "ami": 3619,
      "histor": 3620,
      "electr": 3621,
      "regular": 3622,
      "religious": 3623,
      "lucky": 3624,
      "CO": 3625,
      "DP": 3626,
      "bling": 3627,
      "visit": 3628,
      "benefits": 3629,
      "argument": 3630,
      "Actually": 3631,
      "dinosaur": 3632,
      "flight": 3633,
      "va": 3634,
      "attempt": 3635,
      "weak": 3636,
      "accur": 3637,
      "gold": 3638,
      "poem": 3639,
      "els": 3640,
      "helps": 3641,
      "creatures": 3642,
      "park": 3643,
      "frequ": 3644,
      "aur": 3645,
      "river": 3646,
      "despite": 3647,
      "insight": 3648,
      "matters": 3649,
      "collap": 3650,
      "investment": 3651,
      "Aud": 3652,
      "Te": 3653,
      "easier": 3654,
      "valu": 3655,
      "emotion": 3656,
      "describe": 3657,
      "bread": 3658,
      "fle": 3659,
      "ology": 3660,
      "decl": 3661,
      "opposite": 3662,
      "contain": 3663,
      "evol": 3664,
      "flag": 3665,
      "figured": 3666,
      "fighting": 3667,
      "necessarily": 3668,
      "demonstr": 3669,
      "Niger": 3670,
      "Pri": 3671,
      "Sha": 3672,
      "fed": 3673,
      "zen": 3674,
      "sets": 3675,
      "artists": 3676,
      "everyday": 3677,
      "puts": 3678,
      "More": 3679,
      "See": 3680,
      "entirely": 3681,
      "Once": 3682,
      "accident": 3683,
      "collaboration": 3684,
      "virtual": 3685,
      "phenomenon": 3686,
      "seed": 3687,
      "icking": 3688,
      "celer": 3689,
      "matically": 3690,
      "norm": 3691,
      "suffering": 3692,
      "Would": 3693,
      "date": 3694,
      "eg": 3695,
      "hidden": 3696,
      "dered": 3697,
      "determin": 3698,
      "ultimately": 3699,
      "commit": 3700,
      "ysis": 3701,
      "cognitive": 3702,
      "deeply": 3703,
      "Life": 3704,
      "However": 3705,
      "Richard": 3706,
      "Egy": 3707,
      "nan": 3708,
      "uary": 3709,
      "zon": 3710,
      "wear": 3711,
      "olly": 3712,
      "proud": 3713,
      "childhood": 3714,
      "importantly": 3715,
      "limited": 3716,
      "breast": 3717,
      "signal": 3718,
      "appreci": 3719,
      "dreams": 3720,
      "sorry": 3721,
      "influence": 3722,
      "gard": 3723,
      "ston": 3724,
      "stuck": 3725,
      "vere": 3726,
      "riage": 3727,
      "ifically": 3728,
      "itely": 3729,
      "opened": 3730,
      "holding": 3731,
      "require": 3732,
      "George": 3733,
      "mouse": 3734,
      "pir": 3735,
      "atures": 3736,
      "org": 3737,
      "hea": 3738,
      "roof": 3739,
      "letter": 3740,
      "expert": 3741,
      "198": 3742,
      "domin": 3743,
      "moves": 3744,
      "events": 3745,
      "grown": 3746,
      "studied": 3747,
      "colors": 3748,
      "psych": 3749,
      "walls": 3750,
      "fairly": 3751,
      "billions": 3752,
      "remote": 3753,
      "cro": 3754,
      "erve": 3755,
      "idents": 3756,
      "ured": 3757,
      "coast": 3758,
      "chick": 3759,
      "chip": 3760,
      "ids": 3761,
      "qual": 3762,
      "ager": 3763,
      "succeed": 3764,
      "scul": 3765,
      "European": 3766,
      "brilliant": 3767,
      "bright": 3768,
      "pounds": 3769,
      "abilities": 3770,
      "ulations": 3771,
      "quote": 3772,
      "pher": 3773,
      "newsp": 3774,
      "click": 3775,
      "surge": 3776,
      "emotions": 3777,
      "filled": 3778,
      "placed": 3779,
      "competition": 3780,
      "sight": 3781,
      "tons": 3782,
      "acceler": 3783,
      "hael": 3784,
      "depression": 3785,
      "concent": 3786,
      "humor": 3787,
      "foreign": 3788,
      "lesson": 3789,
      "pressed": 3790,
      "mothers": 3791,
      "collective": 3792,
      "elements": 3793,
      "benefit": 3794,
      "French": 3795,
      "due": 3796,
      "gon": 3797,
      "lunch": 3798,
      "mber": 3799,
      "pig": 3800,
      "anger": 3801,
      "tag": 3802,
      "presents": 3803,
      "discovery": 3804,
      "Have": 3805,
      "destroy": 3806,
      "45": 3807,
      "icians": 3808,
      "poetry": 3809,
      "resident": 3810,
      "tempor": 3811,
      "psychology": 3812,
      "invisible": 3813,
      "Rob": 3814,
      "double": 3815,
      "rit": 3816,
      "aste": 3817,
      "meter": 3818,
      "university": 3819,
      "Sometimes": 3820,
      "failed": 3821,
      "horri": 3822,
      "statistics": 3823,
      "150": 3824,
      "Hum": 3825,
      "cular": 3826,
      "heav": 3827,
      "moon": 3828,
      "indic": 3829,
      "previ": 3830,
      "surprise": 3831,
      "compared": 3832,
      "designer": 3833,
      "closed": 3834,
      "capable": 3835,
      "commercial": 3836,
      "dia": 3837,
      "caught": 3838,
      "grass": 3839,
      "partment": 3840,
      "restaur": 3841,
      "shouldn": 3842,
      "setting": 3843,
      "typical": 3844,
      "adults": 3845,
      "Green": 3846,
      "eli": 3847,
      "gay": 3848,
      "sac": 3849,
      "theater": 3850,
      "install": 3851,
      "wake": 3852,
      "equal": 3853,
      "engineers": 3854,
      "origin": 3855,
      "strategy": 3856,
      "British": 3857,
      "advantage": 3858,
      "Francis": 3859,
      "Fin": 3860,
      "Mart": 3861,
      "incent": 3862,
      "ulous": 3863,
      "unte": 3864,
      "izes": 3865,
      "leads": 3866,
      "names": 3867,
      "steps": 3868,
      "promise": 3869,
      "professional": 3870,
      "dimensional": 3871,
      "Michael": 3872,
      "metaphor": 3873,
      "Washing": 3874,
      "bly": 3875,
      "nur": 3876,
      "independent": 3877,
      "forced": 3878,
      "waves": 3879,
      "angle": 3880,
      "leaving": 3881,
      "operating": 3882,
      "weapons": 3883,
      "Bu": 3884,
      "llect": 3885,
      "acqu": 3886,
      "motor": 3887,
      "fell": 3888,
      "offer": 3889,
      "cycl": 3890,
      "ibilities": 3891,
      "prior": 3892,
      "relev": 3893,
      "crowd": 3894,
      "Big": 3895,
      "hate": 3896,
      "argue": 3897,
      "bles": 3898,
      "president": 3899,
      "planning": 3900,
      "particles": 3901,
      "keeping": 3902,
      "Does": 3903,
      "trained": 3904,
      "appeared": 3905,
      "majority": 3906,
      "alternative": 3907,
      "Cl": 3908,
      "irt": 3909,
      "mov": 3910,
      "implic": 3911,
      "extin": 3912,
      "noise": 3913,
      "novel": 3914,
      "agers": 3915,
      "subst": 3916,
      "convinc": 3917,
      "believed": 3918,
      "homes": 3919,
      "migr": 3920,
      "Washington": 3921,
      "Ple": 3922,
      "cod": 3923,
      "pun": 3924,
      "rational": 3925,
      "sume": 3926,
      "intellect": 3927,
      "clock": 3928,
      "warm": 3929,
      "custom": 3930,
      "volunte": 3931,
      "sister": 3932,
      "slowly": 3933,
      "mathematics": 3934,
      "pros": 3935,
      "paint": 3936,
      "institution": 3937,
      "multiple": 3938,
      "Val": 3939,
      "unfortunately": 3940,
      "crack": 3941,
      "asks": 3942,
      "photos": 3943,
      "factory": 3944,
      "continent": 3945,
      "principles": 3946,
      "99": 3947,
      "Very": 3948,
      "gri": 3949,
      "iev": 3950,
      "aling": 3951,
      "arms": 3952,
      "seat": 3953,
      "artific": 3954,
      "married": 3955,
      "solved": 3956,
      "breath": 3957,
      "wave": 3958,
      "begins": 3959,
      "scen": 3960,
      "operate": 3961,
      "therapy": 3962,
      "wisdom": 3963,
      "75": 3964,
      "Coun": 3965,
      "RI": 3966,
      "Red": 3967,
      "ubl": 3968,
      "wing": 3969,
      "wearing": 3970,
      "dol": 3971,
      "plus": 3972,
      "grab": 3973,
      "obsess": 3974,
      "highest": 3975,
      "businesses": 3976,
      "fields": 3977,
      "strateg": 3978,
      "Israel": 3979,
      "James": 3980,
      "Sun": 3981,
      "replace": 3982,
      "spring": 3983,
      "gather": 3984,
      "farmers": 3985,
      "opening": 3986,
      "seriously": 3987,
      "concerned": 3988,
      "35": 3989,
      "King": 3990,
      "rely": 3991,
      "reward": 3992,
      "urally": 3993,
      "ulated": 3994,
      "disaster": 3995,
      "attach": 3996,
      "generate": 3997,
      "skill": 3998,
      "organic": 3999,
      "organized": 4000,
      "driven": 4001,
      "watched": 4002,
      "followed": 4003,
      "Everybody": 4004,
      "separate": 4005,
      "houses": 4006,
      "magazine": 4007,
      "Bang": 4008,
      "Park": 4009,
      "rat": 4010,
      "vic": 4011,
      "bee": 4012,
      "oted": 4013,
      "opin": 4014,
      "exe": 4015,
      "thinks": 4016,
      "desert": 4017,
      "interface": 4018,
      "interaction": 4019,
      "appropri": 4020,
      "sequence": 4021,
      "constantly": 4022,
      "soldiers": 4023,
      "Fellow": 4024,
      "agriculture": 4025,
      "kilometers": 4026,
      "Tom": 4027,
      "itute": 4028,
      "stim": 4029,
      "lid": 4030,
      "libr": 4031,
      "blow": 4032,
      "gency": 4033,
      "circu": 4034,
      "consumption": 4035,
      "described": 4036,
      "location": 4037,
      "Audience": 4038,
      "py": 4039,
      "tox": 4040,
      "ister": 4041,
      "otherwise": 4042,
      "empt": 4043,
      "managed": 4044,
      "crash": 4045,
      "compare": 4046,
      "invited": 4047,
      "safety": 4048,
      "layer": 4049,
      "construction": 4050,
      "protein": 4051,
      "Bro": 4052,
      "Could": 4053,
      "az": 4054,
      "bow": 4055,
      "gin": 4056,
      "foss": 4057,
      "trip": 4058,
      "hip": 4059,
      "Everything": 4060,
      "shoes": 4061,
      "investig": 4062,
      "drawing": 4063,
      "feedback": 4064,
      "clinical": 4065,
      "graduate": 4066,
      "civilization": 4067,
      "battle": 4068,
      "dry": 4069,
      "lu": 4070,
      "stone": 4071,
      "section": 4072,
      "fellow": 4073,
      "terday": 4074,
      "teles": 4075,
      "magn": 4076,
      "advert": 4077,
      "coal": 4078,
      "udd": 4079,
      "precise": 4080,
      "versus": 4081,
      "ships": 4082,
      "hypo": 4083,
      "cule": 4084,
      "harm": 4085,
      "survival": 4086,
      "motion": 4087,
      "suggests": 4088,
      "intelligent": 4089,
      "70s": 4090,
      "consequences": 4091,
      "Mexico": 4092,
      "nic": 4093,
      "eral": 4094,
      "Three": 4095,
      "illness": 4096,
      "harder": 4097,
      "warming": 4098,
      "scene": 4099,
      "classroom": 4100,
      "eleph": 4101,
      "perfectly": 4102,
      "brief": 4103,
      "folks": 4104,
      "normally": 4105,
      "MIT": 4106,
      "PM": 4107,
      "dinner": 4108,
      "ns": 4109,
      "pages": 4110,
      "rend": 4111,
      "weather": 4112,
      "whom": 4113,
      "meat": 4114,
      "chest": 4115,
      "ops": 4116,
      "hasn": 4117,
      "mistry": 4118,
      "signals": 4119,
      "chain": 4120,
      "paying": 4121,
      "existence": 4122,
      "bomb": 4123,
      "Kore": 4124,
      "Ser": 4125,
      "thesis": 4126,
      "stup": 4127,
      "belong": 4128,
      "desire": 4129,
      "healthcare": 4130,
      "males": 4131,
      "equip": 4132,
      "engineer": 4133,
      "circle": 4134,
      "emplo": 4135,
      "launched": 4136,
      "switch": 4137,
      "Australia": 4138,
      "Each": 4139,
      "eper": 4140,
      "ike": 4141,
      "rac": 4142,
      "spl": 4143,
      "yl": 4144,
      "toward": 4145,
      "ison": 4146,
      "keys": 4147,
      "peak": 4148,
      "unk": 4149,
      "acts": 4150,
      "tric": 4151,
      "calling": 4152,
      "marke": 4153,
      "marriage": 4154,
      "conduct": 4155,
      "Child": 4156,
      "cared": 4157,
      "testing": 4158,
      "treated": 4159,
      "80s": 4160,
      "currently": 4161,
      "issions": 4162,
      "galaxies": 4163,
      "exploration": 4164,
      "corruption": 4165,
      "cate": 4166,
      "mile": 4167,
      "ume": 4168,
      "vous": 4169,
      "conside": 4170,
      "shif": 4171,
      "evil": 4172,
      "symp": 4173,
      "chemistry": 4174,
      "limit": 4175,
      "element": 4176,
      "frag": 4177,
      "surprised": 4178,
      "90s": 4179,
      "received": 4180,
      "universal": 4181,
      "considered": 4182,
      "Min": 4183,
      "Open": 4184,
      "Sim": 4185,
      "aria": 4186,
      "soil": 4187,
      "define": 4188,
      "exists": 4189,
      "igno": 4190,
      "shut": 4191,
      "powered": 4192,
      "ela": 4193,
      "identify": 4194,
      "productive": 4195,
      "daily": 4196,
      "increasingly": 4197,
      "mentioned": 4198,
      "GDP": 4199,
      "ave": 4200,
      "ein": 4201,
      "lation": 4202,
      "sla": 4203,
      "review": 4204,
      "aran": 4205,
      "ays": 4206,
      "worried": 4207,
      "mad": 4208,
      "unless": 4209,
      "exhibit": 4210,
      "quiet": 4211,
      "movements": 4212,
      "graphic": 4213,
      "connections": 4214,
      "equival": 4215,
      "associated": 4216,
      "inj": 4217,
      "actor": 4218,
      "expression": 4219,
      "article": 4220,
      "lessons": 4221,
      "flat": 4222,
      "driver": 4223,
      "researchers": 4224,
      "hopefully": 4225,
      "cards": 4226,
      "struggle": 4227,
      "equipment": 4228,
      "bust": 4229,
      "south": 4230,
      "tly": 4231,
      "thri": 4232,
      "toms": 4233,
      "Their": 4234,
      "emissions": 4235,
      "trill": 4236,
      "20th": 4237,
      "generations": 4238,
      "England": 4239,
      "analysis": 4240,
      "Robert": 4241,
      "symme": 4242,
      "holes": 4243,
      "quantum": 4244,
      "Darwin": 4245,
      "stupid": 4246,
      "Bas": 4247,
      "Pal": 4248,
      "cow": 4249,
      "iat": 4250,
      "reaction": 4251,
      "encies": 4252,
      "lege": 4253,
      "bear": 4254,
      "prop": 4255,
      "ques": 4256,
      "portion": 4257,
      "finish": 4258,
      "polic": 4259,
      "promis": 4260,
      "molecule": 4261,
      "debate": 4262,
      "El": 4263,
      "iber": 4264,
      "Anderson": 4265,
      "lock": 4266,
      "user": 4267,
      "ulf": 4268,
      "bran": 4269,
      "nervous": 4270,
      "cultures": 4271,
      "languages": 4272,
      "resource": 4273,
      "experienced": 4274,
      "galaxy": 4275,
      "artificial": 4276,
      "Em": 4277,
      "Einst": 4278,
      "replic": 4279,
      "station": 4280,
      "according": 4281,
      "kelet": 4282,
      "destr": 4283,
      "gram": 4284,
      "stood": 4285,
      "importance": 4286,
      "shapes": 4287,
      "controlled": 4288,
      "dealing": 4289,
      "unex": 4290,
      "forests": 4291,
      "arrived": 4292,
      "sports": 4293,
      "Come": 4294,
      "US": 4295,
      "iver": 4296,
      "pian": 4297,
      "ald": 4298,
      "ara": 4299,
      "acade": 4300,
      "emb": 4301,
      "iving": 4302,
      "display": 4303,
      "diet": 4304,
      "player": 4305,
      "transformation": 4306,
      "fuge": 4307,
      "cutting": 4308,
      "voices": 4309,
      "sustainability": 4310,
      "instrument": 4311,
      "Times": 4312,
      "movies": 4313,
      "dolph": 4314,
      "App": 4315,
      "CE": 4316,
      "acle": 4317,
      "prove": 4318,
      "ensity": 4319,
      "letters": 4320,
      "facts": 4321,
      "experts": 4322,
      "fourth": 4323,
      "ification": 4324,
      "osity": 4325,
      "airplane": 4326,
      "collection": 4327,
      "astronom": 4328,
      "principle": 4329,
      "21st": 4330,
      "Charles": 4331,
      "technical": 4332,
      "epidemic": 4333,
      "Ama": 4334,
      "dress": 4335,
      "fal": 4336,
      "flex": 4337,
      "mur": 4338,
      "rural": 4339,
      "tall": 4340,
      "eness": 4341,
      "ales": 4342,
      "neath": 4343,
      "users": 4344,
      "estic": 4345,
      "estab": 4346,
      "empath": 4347,
      "former": 4348,
      "aff": 4349,
      "served": 4350,
      "farm": 4351,
      "processes": 4352,
      "consist": 4353,
      "messages": 4354,
      "microbes": 4355,
      "picked": 4356,
      "circum": 4357,
      "Cong": 4358,
      "Hu": 4359,
      "lin": 4360,
      "nest": 4361,
      "argu": 4362,
      "rig": 4363,
      "caused": 4364,
      "perce": 4365,
      "amin": 4366,
      "saved": 4367,
      "players": 4368,
      "privi": 4369,
      "autism": 4370,
      "details": 4371,
      "terrorism": 4372,
      "equivalent": 4373,
      "Qu": 4374,
      "gall": 4375,
      "iam": 4376,
      "kick": 4377,
      "lor": 4378,
      "vention": 4379,
      "oman": 4380,
      "losing": 4381,
      "frustr": 4382,
      "hadn": 4383,
      "phr": 4384,
      "factors": 4385,
      "60s": 4386,
      "distribution": 4387,
      "CO2": 4388,
      "Einstein": 4389,
      "Glo": 4390,
      "Other": 4391,
      "School": 4392,
      "cil": 4393,
      "nations": 4394,
      "inary": 4395,
      "island": 4396,
      "esome": 4397,
      "trials": 4398,
      "pected": 4399,
      "producing": 4400,
      "Japanese": 4401,
      "Germany": 4402,
      "vehicle": 4403,
      "platform": 4404,
      "heavy": 4405,
      "II": 4406,
      "Sil": 4407,
      "dot": 4408,
      "tomor": 4409,
      "berg": 4410,
      "videos": 4411,
      "facing": 4412,
      "expected": 4413,
      "cameras": 4414,
      "property": 4415,
      "satellite": 4416,
      "relevant": 4417,
      "Sat": 4418,
      "Scot": 4419,
      "Women": 4420,
      "pow": 4421,
      "pil": 4422,
      "vac": 4423,
      "vote": 4424,
      "acters": 4425,
      "raw": 4426,
      "ctions": 4427,
      "acting": 4428,
      "achiev": 4429,
      "observ": 4430,
      "designing": 4431,
      "colon": 4432,
      "Stre": 4433,
      "characters": 4434,
      "leaves": 4435,
      "killing": 4436,
      "spectrum": 4437,
      "dynamic": 4438,
      "budget": 4439,
      "employe": 4440,
      "tomorrow": 4441,
      "Cor": 4442,
      "dam": 4443,
      "iest": 4444,
      "mult": 4445,
      "og": 4446,
      "script": 4447,
      "init": 4448,
      "itals": 4449,
      "liked": 4450,
      "chimp": 4451,
      "abstr": 4452,
      "ads": 4453,
      "cipl": 4454,
      "goti": 4455,
      "parad": 4456,
      "coral": 4457,
      "honor": 4458,
      "sophistic": 4459,
      "spoke": 4460,
      "damage": 4461,
      ".'": 4462,
      "Pak": 4463,
      "apo": 4464,
      "san": 4465,
      "refuge": 4466,
      "tories": 4467,
      "alle": 4468,
      "explan": 4469,
      "lifetime": 4470,
      "underneath": 4471,
      "storytelling": 4472,
      "muscle": 4473,
      "yesterday": 4474,
      "occup": 4475,
      "lawy": 4476,
      "sentence": 4477,
      "maker": 4478,
      "Kenya": 4479,
      "mortality": 4480,
      "Pakistan": 4481,
      "President": 4482,
      "scar": 4483,
      "zone": 4484,
      "anze": 4485,
      "itude": 4486,
      "selling": 4487,
      "veget": 4488,
      "negoti": 4489,
      "umber": 4490,
      "quit": 4491,
      "spin": 4492,
      "thoughts": 4493,
      "NASA": 4494,
      "consumer": 4495,
      "release": 4496,
      "radical": 4497,
      "dimensions": 4498,
      "variety": 4499,
      "electrical": 4500,
      "Please": 4501,
      "Street": 4502,
      "hur": 4503,
      "lic": 4504,
      "leng": 4505,
      "rhy": 4506,
      "infin": 4507,
      "orbit": 4508,
      "worldwide": 4509,
      "manip": 4510,
      "viruses": 4511,
      "north": 4512,
      "advent": 4513,
      "photography": 4514,
      "professor": 4515,
      "properties": 4516,
      "Britain": 4517,
      "battery": 4518,
      "announ": 4519,
      "victims": 4520,
      "Center": 4521,
      "Gree": 4522,
      "eld": 4523,
      "las": 4524,
      "rates": 4525,
      "stor": 4526,
      "edia": 4527,
      "maps": 4528,
      "tian": 4529,
      "broke": 4530,
      "violent": 4531,
      "Frank": 4532,
      "specifically": 4533,
      "management": 4534,
      "concentr": 4535,
      "empty": 4536,
      "Sch": 4537,
      "Sci": 4538,
      "sees": 4539,
      "lift": 4540,
      "rage": 4541,
      "essential": 4542,
      "logic": 4543,
      "vessel": 4544,
      "monitor": 4545,
      "2008": 4546,
      "Ange": 4547,
      "director": 4548,
      "shoot": 4549,
      "passionate": 4550,
      "introduce": 4551,
      "transportation": 4552,
      "rapidly": 4553,
      "exercise": 4554,
      "Francisco": 4555,
      "Pat": 4556,
      "snow": 4557,
      "sides": 4558,
      "vation": 4559,
      "vard": 4560,
      "Thom": 4561,
      "feelings": 4562,
      "cortex": 4563,
      "awful": 4564,
      "fishing": 4565,
      "hyper": 4566,
      "pengu": 4567,
      "grandmother": 4568,
      "emerging": 4569,
      "strength": 4570,
      "convinced": 4571,
      "Jan": 4572,
      "PS": 4573,
      "dots": 4574,
      "hurt": 4575,
      "ride": 4576,
      "toi": 4577,
      "goals": 4578,
      "unit": 4579,
      "exchange": 4580,
      "agre": 4581,
      "interpret": 4582,
      "smile": 4583,
      "carefully": 4584,
      "cyber": 4585,
      "signs": 4586,
      "wondering": 4587,
      "iency": 4588,
      "practical": 4589,
      "convention": 4590,
      "released": 4591,
      "Steve": 4592,
      "makers": 4593,
      "Ah": 4594,
      "Tur": 4595,
      "Yet": 4596,
      "scr": 4597,
      "itarian": 4598,
      "height": 4599,
      "quid": 4600,
      "grid": 4601,
      "cents": 4602,
      "possibilities": 4603,
      "malaria": 4604,
      "effectively": 4605,
      "protected": 4606,
      "sources": 4607,
      "curious": 4608,
      "techniques": 4609,
      "600": 4610,
      "pin": 4611,
      "pure": 4612,
      "tes": 4613,
      "tur": 4614,
      "isol": 4615,
      "solid": 4616,
      "iron": 4617,
      "irty": 4618,
      "contract": 4619,
      "ideal": 4620,
      "discipl": 4621,
      "reef": 4622,
      "pregn": 4623,
      "command": 4624,
      "aked": 4625,
      "titude": 4626,
      "risks": 4627,
      "awareness": 4628,
      "Nigeria": 4629,
      "Global": 4630,
      "2000": 4631,
      "Alex": 4632,
      "Swed": 4633,
      "represents": 4634,
      "plate": 4635,
      "metal": 4636,
      "maintain": 4637,
      "requires": 4638,
      "mathematical": 4639,
      "relatively": 4640,
      "valuable": 4641,
      "Ari": 4642,
      "Lat": 4643,
      "Sm": 4644,
      "Wik": 4645,
      "uit": 4646,
      "via": 4647,
      "perman": 4648,
      "aming": 4649,
      "whenever": 4650,
      "owner": 4651,
      "crete": 4652,
      "stock": 4653,
      "solving": 4654,
      "funding": 4655,
      "magnet": 4656,
      "Peter": 4657,
      "advanced": 4658,
      "scope": 4659,
      "lady": 4660,
      "Congress": 4661,
      "La": 4662,
      "ius": 4663,
      "ission": 4664,
      "imm": 4665,
      "unusual": 4666,
      "boo": 4667,
      "Chica": 4668,
      "transition": 4669,
      "autonom": 4670,
      "Art": 4671,
      "Canada": 4672,
      "sensitive": 4673,
      "medium": 4674,
      "molecular": 4675,
      "required": 4676,
      "pollution": 4677,
      "philosophy": 4678,
      "Chicago": 4679,
      "Fo": 4680,
      "Lad": 4681,
      "Mac": 4682,
      "Vo": 4683,
      "bors": 4684,
      "cking": 4685,
      "hide": 4686,
      "shad": 4687,
      "thal": 4688,
      "actors": 4689,
      "teeth": 4690,
      "extract": 4691,
      "myth": 4692,
      "inequality": 4693,
      "pray": 4694,
      "buying": 4695,
      "desk": 4696,
      "definitely": 4697,
      "satis": 4698,
      "roughly": 4699,
      "Adam": 4700,
      "gentlemen": 4701,
      "credit": 4702,
      "cartoon": 4703,
      "prepared": 4704,
      "trillion": 4705,
      "chimpanze": 4706,
      "Ac": 4707,
      "Day": 4708,
      "Gi": 4709,
      "Pol": 4710,
      "bath": 4711,
      "pul": 4712,
      "secure": 4713,
      "icing": 4714,
      "musical": 4715,
      "gling": 4716,
      "steel": 4717,
      "photographs": 4718,
      "status": 4719,
      "clip": 4720,
      "Harvard": 4721,
      "criminal": 4722,
      "Last": 4723,
      "Sa": 4724,
      "Tube": 4725,
      "cue": 4726,
      "encourage": 4727,
      "stair": 4728,
      "youth": 4729,
      "ented": 4730,
      "deeper": 4731,
      "elly": 4732,
      "bottle": 4733,
      "breathe": 4734,
      "occas": 4735,
      "depends": 4736,
      "evolutionary": 4737,
      "profession": 4738,
      "affected": 4739,
      "adopt": 4740,
      "chemicals": 4741,
      "carrying": 4742,
      "discussion": 4743,
      "Muslim": 4744,
      "vaccine": 4745,
      "doub": 4746,
      "intellectual": 4747,
      "marketing": 4748,
      "Bl": 4749,
      "gift": 4750,
      "nav": 4751,
      "rub": 4752,
      "winter": 4753,
      "encoura": 4754,
      "chron": 4755,
      "mosqu": 4756,
      "cave": 4757,
      "notes": 4758,
      "pool": 4759,
      "YouTube": 4760,
      "engaged": 4761,
      "2010": 4762,
      "visible": 4763,
      "fewer": 4764,
      "awesome": 4765,
      "environments": 4766,
      "hospitals": 4767,
      "mountains": 4768,
      "ecosystem": 4769,
      "reveal": 4770,
      "vulnerable": 4771,
      "rs": 4772,
      "tro": 4773,
      "severe": 4774,
      "odd": 4775,
      "inevit": 4776,
      "assist": 4777,
      "graphy": 4778,
      "explains": 4779,
      "recorded": 4780,
      "witness": 4781,
      "defined": 4782,
      "attacks": 4783,
      "ropy": 4784,
      "Phone": 4785,
      "soul": 4786,
      "manufacturing": 4787,
      "bubble": 4788,
      "appropriate": 4789,
      "circumst": 4790,
      "Mil": 4791,
      "Par": 4792,
      "dat": 4793,
      "ka": 4794,
      "kitch": 4795,
      "skelet": 4796,
      "instruct": 4797,
      "toy": 4798,
      "ulating": 4799,
      "grant": 4800,
      "breaking": 4801,
      "walks": 4802,
      "politicians": 4803,
      "blocks": 4804,
      "Atl": 4805,
      "convince": 4806,
      "printing": 4807,
      "sending": 4808,
      "Anyway": 4809,
      "symptoms": 4810,
      "sophisticated": 4811,
      "Since": 4812,
      "jail": 4813,
      "initi": 4814,
      "reven": 4815,
      "stic": 4816,
      "liquid": 4817,
      "noon": 4818,
      "writer": 4819,
      "minim": 4820,
      "runs": 4821,
      "regard": 4822,
      "clever": 4823,
      "factor": 4824,
      "digit": 4825,
      "protection": 4826,
      "include": 4827,
      "sugar": 4828,
      "reached": 4829,
      "Boston": 4830,
      "radiation": 4831,
      "employ": 4832,
      "Institute": 4833,
      "mirror": 4834,
      "organs": 4835,
      "Thomas": 4836,
      "Law": 4837,
      "ba": 4838,
      "fan": 4839,
      "fiction": 4840,
      "lit": 4841,
      "beach": 4842,
      "lla": 4843,
      "nose": 4844,
      "While": 4845,
      "biom": 4846,
      "196": 4847,
      "electro": 4848,
      "equality": 4849,
      "confidence": 4850,
      "introduced": 4851,
      "narrative": 4852,
      "primary": 4853,
      "piano": 4854,
      "Bet": 4855,
      "Che": 4856,
      "Los": 4857,
      "Wow": 4858,
      "bare": 4859,
      "bum": 4860,
      "sque": 4861,
      "za": 4862,
      "style": 4863,
      "icated": 4864,
      "weigh": 4865,
      "proof": 4866,
      "coordin": 4867,
      "worlds": 4868,
      "centers": 4869,
      "thanks": 4870,
      "ignor": 4871,
      "however": 4872,
      "singing": 4873,
      "pointed": 4874,
      "generally": 4875,
      "processing": 4876,
      "innovative": 4877,
      "appears": 4878,
      "behaviors": 4879,
      "potentially": 4880,
      "performing": 4881,
      "situations": 4882,
      "raising": 4883,
      "infected": 4884,
      "season": 4885,
      "inspiration": 4886,
      "algorithms": 4887,
      "Amazon": 4888,
      "22": 4889,
      "Cent": 4890,
      "Four": 4891,
      "Pac": 4892,
      "Rep": 4893,
      "Sep": 4894,
      "cto": 4895,
      "whel": 4896,
      "accompl": 4897,
      "feature": 4898,
      "ades": 4899,
      "mented": 4900,
      "prefer": 4901,
      "2007": 4902,
      "protest": 4903,
      "existing": 4904,
      "roads": 4905,
      "traveling": 4906,
      "firm": 4907,
      "conservation": 4908,
      "pleasure": 4909,
      "components": 4910,
      "restaurant": 4911,
      "unexpected": 4912,
      "wat": 4913,
      "west": 4914,
      "ato": 4915,
      "error": 4916,
      "ita": 4917,
      "heren": 4918,
      "plom": 4919,
      "phan": 4920,
      "ints": 4921,
      "gravity": 4922,
      "pulled": 4923,
      "topic": 4924,
      "ternal": 4925,
      "horse": 4926,
      "neighbors": 4927,
      "participate": 4928,
      "sample": 4929,
      "temporary": 4930,
      "previous": 4931,
      "rhyth": 4932,
      "Get": 4933,
      "Jon": 4934,
      "fied": 4935,
      "gate": 4936,
      "pill": 4937,
      "tank": 4938,
      "zer": 4939,
      "repair": 4940,
      "ingred": 4941,
      "stro": 4942,
      "otics": 4943,
      "church": 4944,
      "usive": 4945,
      "shall": 4946,
      "ief": 4947,
      "overwhel": 4948,
      "goods": 4949,
      "interests": 4950,
      "foundation": 4951,
      "mistake": 4952,
      "advice": 4953,
      "typically": 4954,
      "combination": 4955,
      "antibi": 4956,
      "intuitive": 4957,
      "newspaper": 4958,
      "fossil": 4959,
      "Mal": 4960,
      "ari": 4961,
      "staff": 4962,
      "abled": 4963,
      "unknown": 4964,
      "estim": 4965,
      "nology": 4966,
      "phil": 4967,
      "assign": 4968,
      "club": 4969,
      "personally": 4970,
      "197": 4971,
      "milk": 4972,
      "amounts": 4973,
      "efficiency": 4974,
      "Project": 4975,
      "hydrogen": 4976,
      "Ca": 4977,
      "yn": 4978,
      "ria": 4979,
      "conver": 4980,
      "upper": 4981,
      "poo": 4982,
      "cock": 4983,
      "strict": 4984,
      "presence": 4985,
      "vibr": 4986,
      "flower": 4987,
      "shame": 4988,
      "computing": 4989,
      "added": 4990,
      "boring": 4991,
      "regions": 4992,
      "keeps": 4993,
      "figures": 4994,
      "presentation": 4995,
      "literature": 4996,
      "activities": 4997,
      "discuss": 4998,
      "Perhaps": 4999,
      "atoms": 5000,
      "dinosaurs": 5001,
      "garden": 5002,
      "empathy": 5003,
      "navig": 5004,
      "kitchen": 5005,
      "Jim": 5006,
      "ey": 5007,
      "tu": 5008,
      "uries": 5009,
      "yo": 5010,
      "renew": 5011,
      "refer": 5012,
      "llo": 5013,
      "perception": 5014,
      "spok": 5015,
      "boom": 5016,
      "technological": 5017,
      "physically": 5018,
      "applied": 5019,
      "drag": 5020,
      "horiz": 5021,
      "stronger": 5022,
      "fundamentally": 5023,
      "conversations": 5024,
      "housing": 5025,
      "employees": 5026,
      "length": 5027,
      "Bay": 5028,
      "Os": 5029,
      "pas": 5030,
      "pace": 5031,
      "rocket": 5032,
      "dogs": 5033,
      "features": 5034,
      "illusion": 5035,
      "aston": 5036,
      "ension": 5037,
      "ultimate": 5038,
      "simpl": 5039,
      "naturally": 5040,
      "organism": 5041,
      "harvest": 5042,
      "puzzle": 5043,
      "eggs": 5044,
      "Valley": 5045,
      "Dis": 5046,
      "lens": 5047,
      "sole": 5048,
      "comed": 5049,
      "tape": 5050,
      "gras": 5051,
      "desper": 5052,
      "studio": 5053,
      "memor": 5054,
      "memories": 5055,
      "mistakes": 5056,
      "drives": 5057,
      "joke": 5058,
      "increased": 5059,
      "silence": 5060,
      "combine": 5061,
      "tracking": 5062,
      "susp": 5063,
      "vehicles": 5064,
      "Prize": 5065,
      "Tech": 5066,
      "fla": 5067,
      "ki": 5068,
      "thin": 5069,
      "ision": 5070,
      "enced": 5071,
      "icide": 5072,
      "abs": 5073,
      "eval": 5074,
      "gang": 5075,
      "poses": 5076,
      "Stan": 5077,
      "Nobody": 5078,
      "tests": 5079,
      "chap": 5080,
      "senses": 5081,
      "zoom": 5082,
      "library": 5083,
      "Septem": 5084,
      "Air": 5085,
      "Bank": 5086,
      "Hi": 5087,
      "du": 5088,
      "iPhone": 5089,
      "tack": 5090,
      "wars": 5091,
      "theme": 5092,
      "anx": 5093,
      "liver": 5094,
      "doors": 5095,
      "oph": 5096,
      "tie": 5097,
      "Health": 5098,
      "shell": 5099,
      "string": 5100,
      "angers": 5101,
      "dramatic": 5102,
      "France": 5103,
      "ancestors": 5104,
      "meaningful": 5105,
      "tumor": 5106,
      "accurate": 5107,
      "chicken": 5108,
      "opinion": 5109,
      "mosquito": 5110,
      "September": 5111,
      "ffe": 5112,
      "hits": 5113,
      "pit": 5114,
      "si": 5115,
      "thus": 5116,
      "inform": 5117,
      "lio": 5118,
      "ching": 5119,
      "option": 5120,
      "illegal": 5121,
      "ambit": 5122,
      "ipedia": 5123,
      "planes": 5124,
      "prime": 5125,
      "50s": 5126,
      "functions": 5127,
      "allowing": 5128,
      "stret": 5129,
      "collected": 5130,
      "democratic": 5131,
      "privacy": 5132,
      "surrounded": 5133,
      "Russia": 5134,
      "Egypt": 5135,
      "false": 5136,
      "paradig": 5137,
      "Five": 5138,
      "Found": 5139,
      "Gh": 5140,
      "fif": 5141,
      "rema": 5142,
      "reverse": 5143,
      "utter": 5144,
      "adminis": 5145,
      "posing": 5146,
      "centuries": 5147,
      "marine": 5148,
      "relate": 5149,
      "mechanism": 5150,
      "quarter": 5151,
      "corporate": 5152,
      "fabric": 5153,
      "ollywood": 5154,
      "destruction": 5155,
      "23": 5156,
      "Gal": 5157,
      "Gold": 5158,
      "Gener": 5159,
      "Jane": 5160,
      "Mark": 5161,
      "cute": 5162,
      "fying": 5163,
      "kno": 5164,
      "determ": 5165,
      "conven": 5166,
      "ums": 5167,
      "button": 5168,
      "empower": 5169,
      "embed": 5170,
      "bold": 5171,
      "dish": 5172,
      "intense": 5173,
      "ballo": 5174,
      "election": 5175,
      "joined": 5176,
      "Only": 5177,
      "volume": 5178,
      "critic": 5179,
      "score": 5180,
      "occurred": 5181,
      "sweet": 5182,
      "hoping": 5183,
      "framework": 5184,
      "Martin": 5185,
      "determine": 5186,
      "Part": 5187,
      "mate": 5188,
      "xim": 5189,
      "item": 5190,
      "arrest": 5191,
      "ideo": 5192,
      "akes": 5193,
      "afternoon": 5194,
      "shaped": 5195,
      "handle": 5196,
      "clothes": 5197,
      "paralle": 5198,
      "Also": 5199,
      "dropped": 5200,
      "axis": 5201,
      "combined": 5202,
      "constant": 5203,
      "providing": 5204,
      "challenging": 5205,
      "authority": 5206,
      "conclusion": 5207,
      "wireless": 5208,
      "applications": 5209,
      "sharks": 5210,
      "Science": 5211,
      "Bon": 5212,
      "Jack": 5213,
      "Phi": 5214,
      "Paris": 5215,
      "gg": 5216,
      "nger": 5217,
      "bell": 5218,
      "femin": 5219,
      "concrete": 5220,
      "tire": 5221,
      "internal": 5222,
      "designs": 5223,
      "percentage": 5224,
      "curve": 5225,
      "limits": 5226,
      "tested": 5227,
      "films": 5228,
      "deploy": 5229,
      "sensors": 5230,
      "pursu": 5231,
      "records": 5232,
      "journalist": 5233,
      "survey": 5234,
      "phrase": 5235,
      "doubt": 5236,
      "remains": 5237,
      "GPS": 5238,
      "wine": 5239,
      "angry": 5240,
      "remove": 5241,
      "accoun": 5242,
      "acles": 5243,
      "chart": 5244,
      "roots": 5245,
      "confront": 5246,
      "extend": 5247,
      "frank": 5248,
      "plot": 5249,
      "tired": 5250,
      "covery": 5251,
      "worker": 5252,
      "State": 5253,
      "parking": 5254,
      "generated": 5255,
      "apparen": 5256,
      "glam": 5257,
      "largely": 5258,
      "arrass": 5259,
      "boxes": 5260,
      "fingers": 5261,
      "laptop": 5262,
      "Juli": 5263,
      "William": 5264,
      "surgeon": 5265,
      "implications": 5266,
      "circumstances": 5267,
      "65": 5268,
      "DA": 5269,
      "Jer": 5270,
      "Nat": 5271,
      "athing": 5272,
      "bond": 5273,
      "dict": 5274,
      "gic": 5275,
      "gro": 5276,
      "reject": 5277,
      "recycl": 5278,
      "nowhere": 5279,
      "partners": 5280,
      "guide": 5281,
      "biod": 5282,
      "transfer": 5283,
      "otech": 5284,
      "holds": 5285,
      "falling": 5286,
      "flowers": 5287,
      "laughter": 5288,
      "neuroscience": 5289,
      "electronic": 5290,
      "entrepreneurs": 5291,
      "complain": 5292,
      "circuit": 5293,
      "agreed": 5294,
      "Pacific": 5295,
      "Bab": 5296,
      "Cal": 5297,
      "bicy": 5298,
      "ckets": 5299,
      "gence": 5300,
      "ij": 5301,
      "mitted": 5302,
      "pitch": 5303,
      "scared": 5304,
      "ani": 5305,
      "enable": 5306,
      "stable": 5307,
      "younger": 5308,
      "aret": 5309,
      "nets": 5310,
      "ours": 5311,
      "illustr": 5312,
      "underwater": 5313,
      "diplom": 5314,
      "serving": 5315,
      "olds": 5316,
      "polar": 5317,
      "Unfortunately": 5318,
      "suppose": 5319,
      "equally": 5320,
      "statement": 5321,
      "explained": 5322,
      "falls": 5323,
      "sunlight": 5324,
      "songs": 5325,
      "functional": 5326,
      "Human": 5327,
      "embarrass": 5328,
      "Wikipedia": 5329,
      "Mor": 5330,
      "Mary": 5331,
      "Never": 5332,
      "athan": 5333,
      "bones": 5334,
      "border": 5335,
      "ja": 5336,
      "oth": 5337,
      "rush": 5338,
      "reform": 5339,
      "lyn": 5340,
      "chose": 5341,
      "geograph": 5342,
      "peer": 5343,
      "poet": 5344,
      "resili": 5345,
      "astro": 5346,
      "monkey": 5347,
      "creature": 5348,
      "Before": 5349,
      "faced": 5350,
      "Something": 5351,
      "floating": 5352,
      "feeding": 5353,
      "silk": 5354,
      "linked": 5355,
      "citizen": 5356,
      "German": 5357,
      "lifest": 5358,
      "heroes": 5359,
      "toxic": 5360,
      "advertis": 5361,
      "Latin": 5362,
      "27": 5363,
      "Museum": 5364,
      "ears": 5365,
      "pump": 5366,
      "vag": 5367,
      "absor": 5368,
      "commod": 5369,
      "reser": 5370,
      "struck": 5371,
      "preced": 5372,
      "download": 5373,
      "insur": 5374,
      "finance": 5375,
      "curren": 5376,
      "19th": 5377,
      "connecting": 5378,
      "Congo": 5379,
      "closely": 5380,
      "greenhouse": 5381,
      "grandfather": 5382,
      "stayed": 5383,
      "fortunate": 5384,
      "mathematic": 5385,
      "ridic": 5386,
      "mechanical": 5387,
      "Micro": 5388,
      "inspiring": 5389,
      "spiritual": 5390,
      "swimming": 5391,
      "flew": 5392,
      "horrible": 5393,
      "execut": 5394,
      "abstract": 5395,
      "explanation": 5396,
      "gut": 5397,
      "iel": 5398,
      "mice": 5399,
      "nit": 5400,
      "tical": 5401,
      "taste": 5402,
      "wid": 5403,
      "resolution": 5404,
      "conce": 5405,
      "plans": 5406,
      "disrup": 5407,
      "pressing": 5408,
      "fake": 5409,
      "bike": 5410,
      "deaths": 5411,
      "aneously": 5412,
      "fixed": 5413,
      "ladies": 5414,
      "burning": 5415,
      "technique": 5416,
      "Design": 5417,
      "Obama": 5418,
      "options": 5419,
      "collapse": 5420,
      "House": 5421,
      "PA": 5422,
      "Sam": 5423,
      "cers": 5424,
      "fare": 5425,
      "furn": 5426,
      "loud": 5427,
      "thick": 5428,
      "sters": 5429,
      "outcome": 5430,
      "locked": 5431,
      "plent": 5432,
      "somewhat": 5433,
      "clust": 5434,
      "hook": 5435,
      "grain": 5436,
      "title": 5437,
      "2009": 5438,
      "Demo": 5439,
      "Remember": 5440,
      "architects": 5441,
      "behavioral": 5442,
      "psychological": 5443,
      "subjects": 5444,
      "transformed": 5445,
      "proteins": 5446,
      "selection": 5447,
      "appreciate": 5448,
      "diabet": 5449,
      "philanth": 5450,
      "spoken": 5451,
      "Gen": 5452,
      "MA": 5453,
      "Mu": 5454,
      "Ra": 5455,
      "Sah": 5456,
      "gment": 5457,
      "regre": 5458,
      "iture": 5459,
      "orient": 5460,
      "dozen": 5461,
      "imple": 5462,
      "causing": 5463,
      "admit": 5464,
      "comment": 5465,
      "truck": 5466,
      "grat": 5467,
      "overall": 5468,
      "obes": 5469,
      "globe": 5470,
      "publish": 5471,
      "treating": 5472,
      "classes": 5473,
      "climb": 5474,
      "teams": 5475,
      "recording": 5476,
      "barri": 5477,
      "hotel": 5478,
      "oxide": 5479,
      "pushing": 5480,
      "suffer": 5481,
      "instruments": 5482,
      "resistance": 5483,
      "decline": 5484,
      "Angeles": 5485,
      "conventional": 5486,
      "biodiversity": 5487,
      "250": 5488,
      "Black": 5489,
      "Fort": 5490,
      "Number": 5491,
      "Tit": 5492,
      "dense": 5493,
      "whales": 5494,
      "outcomes": 5495,
      "loop": 5496,
      "ifying": 5497,
      "ula": 5498,
      "plain": 5499,
      "tration": 5500,
      "ateful": 5501,
      "tage": 5502,
      "owned": 5503,
      "evening": 5504,
      "engaging": 5505,
      "cription": 5506,
      "missed": 5507,
      "busy": 5508,
      "limb": 5509,
      "Antar": 5510,
      "robotic": 5511,
      "Everyone": 5512,
      "wondered": 5513,
      "flood": 5514,
      "birthday": 5515,
      "contrast": 5516,
      "Apple": 5517,
      "Scott": 5518,
      "Republ": 5519,
      "Antarct": 5520,
      "Del": 5521,
      "Port": 5522,
      "Spe": 5523,
      "Sud": 5524,
      "mm": 5525,
      "mates": 5526,
      "rors": 5527,
      "thi": 5528,
      "leap": 5529,
      "whist": 5530,
      "neut": 5531,
      "unlike": 5532,
      "anta": 5533,
      "pled": 5534,
      "White": 5535,
      "wherever": 5536,
      "disappear": 5537,
      "mune": 5538,
      "stands": 5539,
      "offers": 5540,
      "shoulder": 5541,
      "economists": 5542,
      "expon": 5543,
      "rising": 5544,
      "educational": 5545,
      "populations": 5546,
      "measured": 5547,
      "slides": 5548,
      "continued": 5549,
      "About": 5550,
      "obsessed": 5551,
      "Korea": 5552,
      "split": 5553,
      "powers": 5554,
      "Fre": 5555,
      "Moun": 5556,
      "Next": 5557,
      "dign": 5558,
      "diction": 5559,
      "mode": 5560,
      "god": 5561,
      "decre": 5562,
      "tee": 5563,
      "cosmo": 5564,
      "organize": 5565,
      "productivity": 5566,
      "measuring": 5567,
      "ferti": 5568,
      "footprint": 5569,
      "dancing": 5570,
      "emergency": 5571,
      "villages": 5572,
      "anticip": 5573,
      "Christmas": 5574,
      "motivation": 5575,
      "embrace": 5576,
      "policies": 5577,
      "datab": 5578,
      "obesity": 5579,
      "Eve": 5580,
      "Grand": 5581,
      "Lin": 5582,
      "Mad": 5583,
      "NG": 5584,
      "Sal": 5585,
      "Up": 5586,
      "oo": 5587,
      "pha": 5588,
      "anony": 5589,
      "enh": 5590,
      "vey": 5591,
      "opy": 5592,
      "thered": 5593,
      "shi": 5594,
      "phase": 5595,
      "logically": 5596,
      "intention": 5597,
      "plays": 5598,
      "breathing": 5599,
      "identical": 5600,
      "plicity": 5601,
      "funded": 5602,
      "mystery": 5603,
      "Basically": 5604,
      "poorest": 5605,
      "paradigm": 5606,
      "CD": 5607,
      "DH": 5608,
      "High": 5609,
      "Six": 5610,
      "Tor": 5611,
      "pup": 5612,
      "inson": 5613,
      "eries": 5614,
      "andon": 5615,
      "acular": 5616,
      "plug": 5617,
      "seek": 5618,
      "pharm": 5619,
      "ucks": 5620,
      "translate": 5621,
      "Translation": 5622,
      "mush": 5623,
      "breed": 5624,
      "authen": 5625,
      "presented": 5626,
      "classic": 5627,
      "advance": 5628,
      "tonight": 5629,
      "communications": 5630,
      "existed": 5631,
      "domestic": 5632,
      "accessible": 5633,
      "represented": 5634,
      "laboratory": 5635,
      "distributed": 5636,
      "latest": 5637,
      "application": 5638,
      "privilege": 5639,
      "frankly": 5640,
      "26": 5641,
      "Jef": 5642,
      "MS": 5643,
      "Pho": 5644,
      "Tex": 5645,
      "cart": 5646,
      "honey": 5647,
      "lung": 5648,
      "vital": 5649,
      "inject": 5650,
      "infl": 5651,
      "react": 5652,
      "assume": 5653,
      "lean": 5654,
      "ota": 5655,
      "chief": 5656,
      "abol": 5657,
      "geo": 5658,
      "rail": 5659,
      "excl": 5660,
      "taint": 5661,
      "agend": 5662,
      "distr": 5663,
      "portra": 5664,
      "ucing": 5665,
      "carried": 5666,
      "flash": 5667,
      "monkeys": 5668,
      "shake": 5669,
      "grows": 5670,
      "Union": 5671,
      "signed": 5672,
      "Arch": 5673,
      "distinct": 5674,
      "papers": 5675,
      "spreading": 5676,
      "provided": 5677,
      "receive": 5678,
      "standards": 5679,
      "banks": 5680,
      "offered": 5681,
      "samples": 5682,
      "Space": 5683,
      "telescope": 5684,
      "Foundation": 5685,
      "June": 5686,
      "Mom": 5687,
      "bally": 5688,
      "lun": 5689,
      "army": 5690,
      "asy": 5691,
      "stack": 5692,
      "heim": 5693,
      "forts": 5694,
      "root": 5695,
      "proced": 5696,
      "ila": 5697,
      "tip": 5698,
      "disorder": 5699,
      "obst": 5700,
      "traged": 5701,
      "court": 5702,
      "careful": 5703,
      "instinct": 5704,
      "devast": 5705,
      "shock": 5706,
      "windows": 5707,
      "recognition": 5708,
      "reported": 5709,
      "clinic": 5710,
      "savings": 5711,
      "cooking": 5712,
      "celebrate": 5713,
      "exploring": 5714,
      "curiosity": 5715,
      "aspects": 5716,
      "destroyed": 5717,
      "Fellows": 5718,
      "Sing": 5719,
      "Sar": 5720,
      "cence": 5721,
      "fright": 5722,
      "yard": 5723,
      "inations": 5724,
      "ena": 5725,
      "ester": 5726,
      "ardo": 5727,
      "omed": 5728,
      "lymp": 5729,
      "abuse": 5730,
      "wired": 5731,
      "immune": 5732,
      "poly": 5733,
      "pocket": 5734,
      "grateful": 5735,
      "overcome": 5736,
      "herself": 5737,
      "preci": 5738,
      "fault": 5739,
      "positions": 5740,
      "imagined": 5741,
      "correspond": 5742,
      "economies": 5743,
      "friendly": 5744,
      "legis": 5745,
      "ctors": 5746,
      "Island": 5747,
      "microscope": 5748,
      "reaching": 5749,
      "interactive": 5750,
      "consumers": 5751,
      "pollen": 5752,
      "earthqu": 5753,
      "automatically": 5754,
      "mamm": 5755,
      "component": 5756,
      "January": 5757,
      "occasion": 5758,
      "Ghana": 5759,
      "Hy": 5760,
      "Olymp": 5761,
      "Ros": 5762,
      "Ver": 5763,
      "cend": 5764,
      "dies": 5765,
      "gust": 5766,
      "iP": 5767,
      "sne": 5768,
      "till": 5769,
      "ws": 5770,
      "input": 5771,
      "reference": 5772,
      "icious": 5773,
      "whale": 5774,
      "mob": 5775,
      "brow": 5776,
      "lessly": 5777,
      "Stud": 5778,
      "corn": 5779,
      "graphics": 5780,
      "controlling": 5781,
      "Sebas": 5782,
      "advoc": 5783,
      "traveled": 5784,
      "activism": 5785,
      "extent": 5786,
      "hunger": 5787,
      "arguments": 5788,
      "pipe": 5789,
      "evolve": 5790,
      "elimin": 5791,
      "Finally": 5792,
      "academic": 5793,
      "adventure": 5794,
      "authentic": 5795,
      "BM": 5796,
      "Cha": 5797,
      "Res": 5798,
      "hill": 5799,
      "tube": 5800,
      "recovery": 5801,
      "ida": 5802,
      "units": 5803,
      "proportion": 5804,
      "olar": 5805,
      "cooperation": 5806,
      "spinal": 5807,
      "writ": 5808,
      "transplant": 5809,
      "Nothing": 5810,
      "2005": 5811,
      "hearts": 5812,
      "scary": 5813,
      "increases": 5814,
      "printed": 5815,
      "divide": 5816,
      "inspire": 5817,
      "tasks": 5818,
      "achieved": 5819,
      "infinite": 5820,
      "pregnant": 5821,
      "Lar": 5822,
      "Ox": 5823,
      "Sur": 5824,
      "Ty": 5825,
      "bage": 5826,
      "dust": 5827,
      "density": 5828,
      "flip": 5829,
      "kne": 5830,
      "lone": 5831,
      "pound": 5832,
      "rition": 5833,
      "wand": 5834,
      "tore": 5835,
      "itution": 5836,
      "iders": 5837,
      "neither": 5838,
      "gol": 5839,
      "department": 5840,
      "impress": 5841,
      "persu": 5842,
      "iled": 5843,
      "shark": 5844,
      "gray": 5845,
      "channel": 5846,
      "inven": 5847,
      "colate": 5848,
      "colum": 5849,
      "bott": 5850,
      "awk": 5851,
      "equation": 5852,
      "champ": 5853,
      "collecting": 5854,
      "Really": 5855,
      "bombs": 5856,
      "candid": 5857,
      "strategies": 5858,
      "lifestyle": 5859,
      "Gulf": 5860,
      "hat": 5861,
      "ias": 5862,
      "mim": 5863,
      "wich": 5864,
      "geome": 5865,
      "ramid": 5866,
      "fruit": 5867,
      "rescue": 5868,
      "suicide": 5869,
      "udes": 5870,
      "disorders": 5871,
      "genius": 5872,
      "prepar": 5873,
      "efforts": 5874,
      "simplicity": 5875,
      "mony": 5876,
      "educated": 5877,
      "drawn": 5878,
      "Leon": 5879,
      "interactions": 5880,
      "telephone": 5881,
      "Pole": 5882,
      "smoke": 5883,
      "judge": 5884,
      "romantic": 5885,
      "prototype": 5886,
      "involves": 5887,
      "attached": 5888,
      "Central": 5889,
      "embedded": 5890,
      "Democr": 5891,
      "Sou": 5892,
      "Whe": 5893,
      "Ze": 5894,
      "borders": 5895,
      "behave": 5896,
      "cere": 5897,
      "shr": 5898,
      "Star": 5899,
      "attan": 5900,
      "subs": 5901,
      "addict": 5902,
      "views": 5903,
      "distant": 5904,
      "practices": 5905,
      "neighborhoods": 5906,
      "clouds": 5907,
      "paintings": 5908,
      "brothers": 5909,
      "algorithm": 5910,
      "elephant": 5911,
      "license": 5912,
      "antibiotics": 5913,
      "astonishing": 5914,
      "advertising": 5915,
      "Sebastian": 5916,
      "Budd": 5917,
      "Gates": 5918,
      "Narr": 5919,
      "Woman": 5920,
      "fli": 5921,
      "gam": 5922,
      "hattan": 5923,
      "pion": 5924,
      "ua": 5925,
      "inf": 5926,
      "erad": 5927,
      "toler": 5928,
      "entered": 5929,
      "ropo": 5930,
      "nels": 5931,
      "extr": 5932,
      "odes": 5933,
      "tap": 5934,
      "needle": 5935,
      "genom": 5936,
      "diverse": 5937,
      "bias": 5938,
      "lovely": 5939,
      "muscles": 5940,
      "parency": 5941,
      "filter": 5942,
      "mainly": 5943,
      "meetings": 5944,
      "dependence": 5945,
      "produces": 5946,
      "enemy": 5947,
      "Manhattan": 5948,
      "accepted": 5949,
      "fascinated": 5950,
      "vaccines": 5951,
      "nutrition": 5952,
      "laughing": 5953,
      "drinking": 5954,
      "Islamic": 5955,
      "sacri": 5956,
      "precisely": 5957,
      "penguins": 5958,
      "Sweden": 5959,
      "plenty": 5960,
      "800": 5961,
      "Ba": 5962,
      "Bush": 5963,
      "Ethi": 5964,
      "wart": 5965,
      "iny": 5966,
      "theless": 5967,
      "recomm": 5968,
      "ende": 5969,
      "astern": 5970,
      "omin": 5971,
      "wet": 5972,
      "abandon": 5973,
      "umin": 5974,
      "polio": 5975,
      "tight": 5976,
      "spider": 5977,
      "emph": 5978,
      "printer": 5979,
      "prices": 5980,
      "putation": 5981,
      "bug": 5982,
      "intended": 5983,
      "brush": 5984,
      "preser": 5985,
      "oldest": 5986,
      "relations": 5987,
      "linear": 5988,
      "hardware": 5989,
      "dramatically": 5990,
      "spectacular": 5991,
      "accum": 5992,
      "darkness": 5993,
      "interacting": 5994,
      "beliefs": 5995,
      "methods": 5996,
      "commitment": 5997,
      "exhibition": 5998,
      "toilet": 5999,
      "balloon": 6000,
      "parallel": 6001,
      "Ethiop": 6002,
      "Bur": 6003,
      "Ko": 6004,
      "Ru": 6005,
      "SE": 6006,
      "Sup": 6007,
      "Vir": 6008,
      "pour": 6009,
      "sket": 6010,
      "escape": 6011,
      "asive": 6012,
      "cher": 6013,
      "implant": 6014,
      "tea": 6015,
      "illance": 6016,
      "wanting": 6017,
      "thrown": 6018,
      "crying": 6019,
      "labe": 6020,
      "certaint": 6021,
      "personality": 6022,
      "2011": 6023,
      "painful": 6024,
      "drove": 6025,
      "expectations": 6026,
      "competit": 6027,
      "recognized": 6028,
      "describes": 6029,
      "concepts": 6030,
      "vessels": 6031,
      "permanent": 6032,
      "diabetes": 6033,
      "dignity": 6034,
      "mammals": 6035,
      "certainty": 6036,
      "Bob": 6037,
      "Give": 6038,
      "Hans": 6039,
      "Mag": 6040,
      "Rio": 6041,
      "bby": 6042,
      "bia": 6043,
      "lon": 6044,
      "wound": 6045,
      "removed": 6046,
      "alien": 6047,
      "stations": 6048,
      "idi": 6049,
      "degrad": 6050,
      "tied": 6051,
      "ferences": 6052,
      "sheep": 6053,
      "globally": 6054,
      "animation": 6055,
      "elsewhere": 6056,
      "glac": 6057,
      "domain": 6058,
      "balls": 6059,
      "directions": 6060,
      "covering": 6061,
      "apartment": 6062,
      "colleague": 6063,
      "habitat": 6064,
      "suspect": 6065,
      "physicist": 6066,
      "official": 6067,
      "manufacture": 6068,
      "incentives": 6069,
      "extinct": 6070,
      "volunteers": 6071,
      "scratch": 6072,
      "Voice": 6073,
      "Microsoft": 6074,
      "Jeff": 6075,
      "Texas": 6076,
      "agenda": 6077,
      "Eric": 6078,
      "Tal": 6079,
      "eed": 6080,
      "pse": 6081,
      "pile": 6082,
      "yield": 6083,
      "rek": 6084,
      "andem": 6085,
      "stal": 6086,
      "lig": 6087,
      "shri": 6088,
      "quad": 6089,
      "Intern": 6090,
      "sheet": 6091,
      "underground": 6092,
      "minor": 6093,
      "aks": 6094,
      "lighting": 6095,
      "cheaper": 6096,
      "headed": 6097,
      "aircraft": 6098,
      "asteroid": 6099,
      "protecting": 6100,
      "elev": 6101,
      "pushed": 6102,
      "constructed": 6103,
      "sales": 6104,
      "vertical": 6105,
      "hungry": 6106,
      "dedicated": 6107,
      "narrow": 6108,
      "optimistic": 6109,
      "route": 6110,
      "seeds": 6111,
      "psychiat": 6112,
      "gonna": 6113,
      "laser": 6114,
      "Stanford": 6115,
      "furniture": 6116,
      "29": 6117,
      "32": 6118,
      "BI": 6119,
      "Net": 6120,
      "Revolution": 6121,
      "[\"": 6122,
      "ek": 6123,
      "rab": 6124,
      "request": 6125,
      "alga": 6126,
      "ingly": 6127,
      "lem": 6128,
      "hai": 6129,
      "abund": 6130,
      "mold": 6131,
      "delight": 6132,
      "unclear": 6133,
      "unbeliev": 6134,
      "ody": 6135,
      "pox": 6136,
      "agger": 6137,
      "agency": 6138,
      "evin": 6139,
      "disgust": 6140,
      "guaran": 6141,
      "lecture": 6142,
      "transparent": 6143,
      "particle": 6144,
      "Indeed": 6145,
      "passing": 6146,
      "purch": 6147,
      "layers": 6148,
      "properly": 6149,
      "divided": 6150,
      "discoveries": 6151,
      "engagement": 6152,
      "Christian": 6153,
      "diagnosed": 6154,
      "weapon": 6155,
      "repeat": 6156,
      "captured": 6157,
      "Tell": 6158,
      "sculpture": 6159,
      "customers": 6160,
      "ignore": 6161,
      "magnetic": 6162,
      "Blue": 6163,
      "International": 6164,
      "700": 6165,
      "AB": 6166,
      "Girl": 6167,
      "Jes": 6168,
      "Que": 6169,
      "tops": 6170,
      "aside": 6171,
      "stun": 6172,
      "icop": 6173,
      "likes": 6174,
      "neural": 6175,
      "agencies": 6176,
      "whereas": 6177,
      "committed": 6178,
      "hire": 6179,
      "lax": 6180,
      "laid": 6181,
      "paras": 6182,
      "searching": 6183,
      "drill": 6184,
      "subtle": 6185,
      "capita": 6186,
      "surely": 6187,
      "controls": 6188,
      "shooting": 6189,
      "depending": 6190,
      "breaks": 6191,
      "confident": 6192,
      "Boy": 6193,
      "tricks": 6194,
      "jec": 6195,
      "talent": 6196,
      "pyramid": 6197,
      "categor": 6198,
      "Palest": 6199,
      "Atlantic": 6200,
      "95": 6201,
      "BG": 6202,
      "Ice": 6203,
      "Tra": 6204,
      "Ug": 6205,
      "dys": 6206,
      "dirty": 6207,
      "gig": 6208,
      "rome": 6209,
      "twe": 6210,
      "til": 6211,
      "zens": 6212,
      "informed": 6213,
      "omo": 6214,
      "ache": 6215,
      "rocks": 6216,
      "delive": 6217,
      "opposed": 6218,
      "aggress": 6219,
      "strand": 6220,
      "brown": 6221,
      "invite": 6222,
      "ubes": 6223,
      "ugly": 6224,
      "drivers": 6225,
      "identified": 6226,
      "probability": 6227,
      "Sea": 6228,
      "scales": 6229,
      "stere": 6230,
      "photographer": 6231,
      "fluid": 6232,
      "football": 6233,
      "touched": 6234,
      "provides": 6235,
      "concern": 6236,
      "Carol": 6237,
      "diagram": 6238,
      "sandwich": 6239,
      "defense": 6240,
      "contribute": 6241,
      "surveillance": 6242,
      "barely": 6243,
      "fifth": 6244,
      "Narrator": 6245,
      "delivered": 6246,
      "Nations": 6247,
      "Rese": 6248,
      "Ten": 6249,
      "Wa": 6250,
      "cin": 6251,
      "cous": 6252,
      "cats": 6253,
      "eleg": 6254,
      "itors": 6255,
      "pti": 6256,
      "zes": 6257,
      "tho": 6258,
      "toys": 6259,
      "sey": 6260,
      "beer": 6261,
      "usions": 6262,
      "adjust": 6263,
      "poster": 6264,
      "rence": 6265,
      "reduction": 6266,
      "disappeared": 6267,
      "chocolate": 6268,
      "colony": 6269,
      "Africans": 6270,
      "supp": 6271,
      "incident": 6272,
      "programming": 6273,
      "genetics": 6274,
      "sticks": 6275,
      "genesis": 6276,
      "conflicts": 6277,
      "virtually": 6278,
      "Joe": 6279,
      "demonstrate": 6280,
      "crucial": 6281,
      "dynamics": 6282,
      "electronics": 6283,
      "lux": 6284,
      "dolphins": 6285,
      "rhythm": 6286,
      "evalu": 6287,
      "Research": 6288,
      "Hollywood": 6289,
      "Lab": 6290,
      "Long": 6291,
      "Mand": 6292,
      "MRI": 6293,
      "Str": 6294,
      "Turn": 6295,
      "Time": 6296,
      "Was": 6297,
      "Wall": 6298,
      "voc": 6299,
      "tori": 6300,
      "aspir": 6301,
      "acing": 6302,
      "otion": 6303,
      "modif": 6304,
      "tears": 6305,
      "Through": 6306,
      "umps": 6307,
      "estimate": 6308,
      "agon": 6309,
      "fool": 6310,
      "bucks": 6311,
      "dial": 6312,
      "finds": 6313,
      "wenty": 6314,
      "195": 6315,
      "legit": 6316,
      "2006": 6317,
      "charity": 6318,
      "killer": 6319,
      "neuron": 6320,
      "smoking": 6321,
      "links": 6322,
      "affordable": 6323,
      "integrated": 6324,
      "historical": 6325,
      "establish": 6326,
      "Smith": 6327,
      "shadow": 6328,
      "ingredients": 6329,
      "algae": 6330,
      "RS": 6331,
      "cash": 6332,
      "picking": 6333,
      "rating": 6334,
      "trop": 6335,
      "uous": 6336,
      "wra": 6337,
      "inch": 6338,
      "inves": 6339,
      "attribut": 6340,
      "lims": 6341,
      "oty": 6342,
      "contains": 6343,
      "unlikely": 6344,
      "excell": 6345,
      "exposed": 6346,
      "external": 6347,
      "shor": 6348,
      "shirt": 6349,
      "ptions": 6350,
      "backwards": 6351,
      "bless": 6352,
      "ishment": 6353,
      "stores": 6354,
      "stops": 6355,
      "earning": 6356,
      "paraly": 6357,
      "prize": 6358,
      "ski": 6359,
      "adding": 6360,
      "custo": 6361,
      "facial": 6362,
      "audi": 6363,
      "innovations": 6364,
      "winning": 6365,
      "surviv": 6366,
      "silent": 6367,
      "dimension": 6368,
      "fuels": 6369,
      "surprisingly": 6370,
      "boundaries": 6371,
      "washing": 6372,
      "hanging": 6373,
      "frequency": 6374,
      "injury": 6375,
      "apparently": 6376,
      "earthquake": 6377,
      "Ble": 6378,
      "Bio": 6379,
      "Gab": 6380,
      "Hel": 6381,
      "None": 6382,
      "aes": 6383,
      "eu": 6384,
      "han": 6385,
      "rus": 6386,
      "tone": 6387,
      "uri": 6388,
      "retire": 6389,
      "otes": 6390,
      "chrom": 6391,
      "Andrew": 6392,
      "fron": 6393,
      "ups": 6394,
      "boss": 6395,
      "intent": 6396,
      "dioxide": 6397,
      "letting": 6398,
      "visited": 6399,
      "founded": 6400,
      "patent": 6401,
      "skull": 6402,
      "legacy": 6403,
      "airport": 6404,
      "capes": 6405,
      "speaker": 6406,
      "footage": 6407,
      "origami": 6408,
      "emerge": 6409,
      "ethical": 6410,
      "reports": 6411,
      "synthetic": 6412,
      "improvement": 6413,
      "Muslims": 6414,
      "frozen": 6415,
      "trends": 6416,
      "determined": 6417,
      "sculpt": 6418,
      "symmetry": 6419,
      "flexible": 6420,
      "Antarctica": 6421,
      "heimer": 6422,
      "tragedy": 6423,
      "pione": 6424,
      "28": 6425,
      "Da": 6426,
      "Lou": 6427,
      "Mat": 6428,
      "Mer": 6429,
      "Mill": 6430,
      "Pan": 6431,
      "ivers": 6432,
      "ji": 6433,
      "mi": 6434,
      "pink": 6435,
      "pandem": 6436,
      "rey": 6437,
      "recru": 6438,
      "ario": 6439,
      "veter": 6440,
      "bered": 6441,
      "hab": 6442,
      "maxim": 6443,
      "shine": 6444,
      "spots": 6445,
      "deser": 6446,
      "chosen": 6447,
      "dialo": 6448,
      "mining": 6449,
      "helicop": 6450,
      "transparency": 6451,
      "hardly": 6452,
      "athlet": 6453,
      "governance": 6454,
      "borrow": 6455,
      "2003": 6456,
      "2004": 6457,
      "northern": 6458,
      "30s": 6459,
      "treatments": 6460,
      "continues": 6461,
      "worthy": 6462,
      "located": 6463,
      "ecosystems": 6464,
      "terrorists": 6465,
      "documents": 6466,
      "universities": 6467,
      "senior": 6468,
      "federal": 6469,
      "prosper": 6470,
      "elder": 6471,
      "autonomous": 6472,
      "emphas": 6473,
      "Hal": 6474,
      "LG": 6475,
      "List": 6476,
      "Nature": 6477,
      "Oce": 6478,
      "Sor": 6479,
      "fiber": 6480,
      "naked": 6481,
      "ini": 6482,
      "anes": 6483,
      "orange": 6484,
      "armed": 6485,
      "meal": 6486,
      "opens": 6487,
      "Sovi": 6488,
      "spark": 6489,
      "izar": 6490,
      "Inte": 6491,
      "trig": 6492,
      "marter": 6493,
      "capability": 6494,
      "chaos": 6495,
      "Department": 6496,
      "Brown": 6497,
      "impacts": 6498,
      "amongst": 6499,
      "folding": 6500,
      "burst": 6501,
      "capitalism": 6502,
      "imeter": 6503,
      "calculate": 6504,
      "session": 6505,
      "campus": 6506,
      "mammo": 6507,
      "crops": 6508,
      "ignorance": 6509,
      "district": 6510,
      "lungs": 6511,
      "Den": 6512,
      "Eastern": 6513,
      "Hig": 6514,
      "Jose": 6515,
      "Octo": 6516,
      "abe": 6517,
      "boun": 6518,
      "gers": 6519,
      "rice": 6520,
      "rang": 6521,
      "zheimer": 6522,
      "theories": 6523,
      "lium": 6524,
      "neat": 6525,
      "Things": 6526,
      "essence": 6527,
      "poison": 6528,
      "parties": 6529,
      "assess": 6530,
      "intri": 6531,
      "ensus": 6532,
      "strangers": 6533,
      "manif": 6534,
      "marry": 6535,
      "aker": 6536,
      "archy": 6537,
      "uba": 6538,
      "instant": 6539,
      "earn": 6540,
      "musicians": 6541,
      "researcher": 6542,
      "biologists": 6543,
      "Alzheimer": 6544,
      "sensory": 6545,
      "breakthrough": 6546,
      "compelling": 6547,
      "predictable": 6548,
      "predictions": 6549,
      "Haiti": 6550,
      "characteristics": 6551,
      "quarters": 6552,
      "anthropo": 6553,
      "Brook": 6554,
      "General": 6555,
      "bicycle": 6556,
      "Leonardo": 6557,
      "shrimp": 6558,
      "Uganda": 6559,
      "October": 6560,
      "Back": 6561,
      "SS": 6562,
      "bin": 6563,
      "bars": 6564,
      "fusion": 6565,
      "iety": 6566,
      "tics": 6567,
      "relax": 6568,
      "tock": 6569,
      "enger": 6570,
      "encounter": 6571,
      "icate": 6572,
      "lli": 6573,
      "ller": 6574,
      "mel": 6575,
      "lored": 6576,
      "defe": 6577,
      "uncomfortable": 6578,
      "sage": 6579,
      "ansion": 6580,
      "coach": 6581,
      "forming": 6582,
      "clar": 6583,
      "apor": 6584,
      "ultra": 6585,
      "fulfill": 6586,
      "exped": 6587,
      "elections": 6588,
      "profits": 6589,
      "glad": 6590,
      "painted": 6591,
      "distur": 6592,
      "depth": 6593,
      "keyboard": 6594,
      "speakers": 6595,
      "accidents": 6596,
      "grandchildren": 6597,
      "richer": 6598,
      "salt": 6599,
      "variation": 6600,
      "glasses": 6601,
      "baseball": 6602,
      "criminals": 6603,
      "Arabic": 6604,
      "hackers": 6605,
      "rarely": 6606,
      "nurses": 6607,
      "Virgin": 6608,
      "85": 6609,
      "Bre": 6610,
      "Rw": 6611,
      "dive": 6612,
      "mone": 6613,
      "punch": 6614,
      "sna": 6615,
      "uel": 6616,
      "stages": 6617,
      "melt": 6618,
      "ghters": 6619,
      "uration": 6620,
      "Italy": 6621,
      "TEDTalk": 6622,
      "surfaces": 6623,
      "trajec": 6624,
      "comparis": 6625,
      "landed": 6626,
      "tooth": 6627,
      "morality": 6628,
      "relief": 6629,
      "static": 6630,
      "promote": 6631,
      "combat": 6632,
      "Steven": 6633,
      "activist": 6634,
      "Should": 6635,
      "adoles": 6636,
      "smooth": 6637,
      "terrorist": 6638,
      "participants": 6639,
      "Josh": 6640,
      "Daniel": 6641,
      "debt": 6642,
      "focusing": 6643,
      "teenagers": 6644,
      "nutri": 6645,
      "tension": 6646,
      "expanding": 6647,
      "satellites": 6648,
      "heaven": 6649,
      "initial": 6650,
      "announced": 6651,
      "chimpanzees": 6652,
      "granted": 6653,
      "Whether": 6654,
      "Higgs": 6655,
      "33": 6656,
      "Fer": 6657,
      "Gra": 6658,
      "SP": 6659,
      "Viet": 6660,
      "Watch": 6661,
      "jet": 6662,
      "lished": 6663,
      "smarter": 6664,
      "seats": 6665,
      "robust": 6666,
      "dozens": 6667,
      "soap": 6668,
      "ceiling": 6669,
      "consume": 6670,
      "shots": 6671,
      "reson": 6672,
      "yours": 6673,
      "Hello": 6674,
      "underlying": 6675,
      "diver": 6676,
      "basket": 6677,
      "afterwards": 6678,
      "viral": 6679,
      "Nobel": 6680,
      "warning": 6681,
      "globalization": 6682,
      "array": 6683,
      "circles": 6684,
      "Stephen": 6685,
      "confir": 6686,
      "mechanics": 6687,
      "threats": 6688,
      "shopping": 6689,
      "bola": 6690,
      "Prof": 6691,
      "struggling": 6692,
      "wheelchair": 6693,
      "welcome": 6694,
      "consequence": 6695,
      "Super": 6696,
      "bags": 6697,
      "Children": 6698,
      "chapter": 6699,
      "anxiety": 6700,
      "regret": 6701,
      "database": 6702,
      "Ocean": 6703,
      "120": 6704,
      "Cy": 6705,
      "Cap": 6706,
      "Chi": 6707,
      "Flor": 6708,
      "Gl": 6709,
      "Gand": 6710,
      "LA": 6711,
      "Walk": 6712,
      "sits": 6713,
      "uity": 6714,
      "inheren": 6715,
      "rebuild": 6716,
      "returned": 6717,
      "reputation": 6718,
      "edges": 6719,
      "utch": 6720,
      "idge": 6721,
      "outs": 6722,
      "neck": 6723,
      "depressed": 6724,
      "iment": 6725,
      "teries": 6726,
      "pla": 6727,
      "cohol": 6728,
      "reduced": 6729,
      "emen": 6730,
      "happier": 6731,
      "blame": 6732,
      "rains": 6733,
      "rained": 6734,
      "bial": 6735,
      "imagery": 6736,
      "1990s": 6737,
      "settle": 6738,
      "drones": 6739,
      "begun": 6740,
      "consult": 6741,
      "2001": 6742,
      "magical": 6743,
      "supported": 6744,
      "includes": 6745,
      "cliff": 6746,
      "collaborative": 6747,
      "daughters": 6748,
      "Jewish": 6749,
      "minister": 6750,
      "frog": 6751,
      "symbols": 6752,
      "qualities": 6753,
      "lawyer": 6754,
      "stairs": 6755,
      "fertiliz": 6756,
      "Vietnam": 6757,
      "\"]": 6758,
      "Bible": 6759,
      "MT": 6760,
      "Make": 6761,
      "Put": 6762,
      "Ron": 6763,
      "River": 6764,
      "Squ": 6765,
      "dent": 6766,
      "dump": 6767,
      "east": 6768,
      "gases": 6769,
      "jelly": 6770,
      "mun": 6771,
      "mant": 6772,
      "thre": 6773,
      "attitude": 6774,
      "eda": 6775,
      "merely": 6776,
      "lihood": 6777,
      "dear": 6778,
      "cade": 6779,
      "permission": 6780,
      "shed": 6781,
      "upset": 6782,
      "ressing": 6783,
      "answered": 6784,
      "disability": 6785,
      "herit": 6786,
      "genoc": 6787,
      "intervention": 6788,
      "flour": 6789,
      "figuring": 6790,
      "facility": 6791,
      "Move": 6792,
      "metabol": 6793,
      "objective": 6794,
      "measures": 6795,
      "failing": 6796,
      "experimental": 6797,
      "diving": 6798,
      "mechanisms": 6799,
      "prisoners": 6800,
      "adox": 6801,
      "shops": 6802,
      "throwing": 6803,
      "analyze": 6804,
      "agricultural": 6805,
      "assumptions": 6806,
      "repeated": 6807,
      "shelter": 6808,
      "sharp": 6809,
      "insights": 6810,
      "chips": 6811,
      "briefly": 6812,
      "consistent": 6813,
      "pilot": 6814,
      "refugee": 6815,
      "insurance": 6816,
      "Oxford": 6817,
      "Kevin": 6818,
      "bass": 6819,
      "fought": 6820,
      "gory": 6821,
      "hh": 6822,
      "jac": 6823,
      "wings": 6824,
      "thumb": 6825,
      "anz": 6826,
      "reck": 6827,
      "itar": 6828,
      "orous": 6829,
      "het": 6830,
      "heal": 6831,
      "beet": 6832,
      "rolling": 6833,
      "rape": 6834,
      "fract": 6835,
      "artistic": 6836,
      "tips": 6837,
      "tort": 6838,
      "choo": 6839,
      "caring": 6840,
      "biotech": 6841,
      "pulling": 6842,
      "farmer": 6843,
      "angles": 6844,
      "passwords": 6845,
      "awn": 6846,
      "Isn": 6847,
      "thirds": 6848,
      "Derek": 6849,
      "Lee": 6850,
      "suggested": 6851,
      "persist": 6852,
      "resistant": 6853,
      "tuna": 6854,
      "Lugo": 6855,
      "dominant": 6856,
      "chestra": 6857,
      "shifting": 6858,
      "fragile": 6859,
      "Ariana": 6860,
      "ridiculous": 6861,
      "golf": 6862,
      "Ethiopia": 6863,
      "Bleau": 6864,
      "intrigu": 6865,
      "47": 6866,
      "Jones": 6867,
      "Pl": 6868,
      "Sw": 6869,
      "Sure": 6870,
      "Wil": 6871,
      "cab": 6872,
      "tong": 6873,
      "inhabit": 6874,
      "revol": 6875,
      "alcohol": 6876,
      "ingu": 6877,
      "leep": 6878,
      "lethal": 6879,
      "opath": 6880,
      "ulum": 6881,
      "Third": 6882,
      "articles": 6883,
      "nois": 6884,
      "phos": 6885,
      "iveness": 6886,
      "unde": 6887,
      "chances": 6888,
      "buried": 6889,
      "realm": 6890,
      "viously": 6891,
      "lake": 6892,
      "cert": 6893,
      "helpful": 6894,
      "imaging": 6895,
      "cycles": 6896,
      "smallpox": 6897,
      "primar": 6898,
      "organizing": 6899,
      "viewer": 6900,
      "apple": 6901,
      "Moore": 6902,
      "climbing": 6903,
      "audio": 6904,
      "investing": 6905,
      "volcan": 6906,
      "sisters": 6907,
      "forestation": 6908,
      "targets": 6909,
      "ethnic": 6910,
      "radically": 6911,
      "sleeping": 6912,
      "participation": 6913,
      "agreement": 6914,
      "separated": 6915,
      "mixed": 6916,
      "translated": 6917,
      "routine": 6918,
      "mysterious": 6919,
      "historic": 6920,
      "originally": 6921,
      "hypothesis": 6922,
      "storm": 6923,
      "dialogue": 6924,
      "Florida": 6925,
      "48": 6926,
      "Rome": 6927,
      "Span": 6928,
      "Und": 6929,
      "Video": 6930,
      "ker": 6931,
      "rings": 6932,
      "rats": 6933,
      "sink": 6934,
      "tent": 6935,
      "threw": 6936,
      "theore": 6937,
      "reme": 6938,
      "refri": 6939,
      "recover": 6940,
      "encing": 6941,
      "icting": 6942,
      "weed": 6943,
      "utical": 6944,
      "rivers": 6945,
      "mood": 6946,
      "usal": 6947,
      "ctic": 6948,
      "urge": 6949,
      "butter": 6950,
      "guard": 6951,
      "uces": 6952,
      "uctor": 6953,
      "marks": 6954,
      "handed": 6955,
      "healthier": 6956,
      "physio": 6957,
      "capabilities": 6958,
      "interestingly": 6959,
      "operations": 6960,
      "mingly": 6961,
      "shore": 6962,
      "industries": 6963,
      "typing": 6964,
      "fraud": 6965,
      "Love": 6966,
      "suggesting": 6967,
      "tracks": 6968,
      "flows": 6969,
      "Within": 6970,
      "extended": 6971,
      "nucle": 6972,
      "crossing": 6973,
      "Prince": 6974,
      "southern": 6975,
      "physician": 6976,
      "reminded": 6977,
      "prepare": 6978,
      "schiz": 6979,
      "sacred": 6980,
      "scenario": 6981,
      "gathering": 6982,
      "elephants": 6983,
      "Saturn": 6984,
      "vacu": 6985,
      "reefs": 6986,
      "inevitable": 6987,
      "stroke": 6988,
      "Soviet": 6989,
      "abeth": 6990,
      "thresh": 6991,
      "refriger": 6992,
      "Mother": 6993,
      "Out": 6994,
      "Ven": 6995,
      "Wal": 6996,
      "Wol": 6997,
      "bizar": 6998,
      "jam": 6999,
      "ko": 7000,
      "skept": 7001,
      "intr": 7002,
      "tocin": 7003,
      "enabled": 7004,
      "enthus": 7005,
      "arrange": 7006,
      "hey": 7007,
      "acid": 7008,
      "forgotten": 7009,
      "rogen": 7010,
      "kee": 7011,
      "output": 7012,
      "perm": 7013,
      "fraction": 7014,
      "proposed": 7015,
      "civic": 7016,
      "aceutical": 7017,
      "thane": 7018,
      "trail": 7019,
      "simult": 7020,
      "Beij": 7021,
      "1970s": 7022,
      "1980s": 7023,
      "nerve": 7024,
      "elected": 7025,
      "excite": 7026,
      "copes": 7027,
      "emerged": 7028,
      "believes": 7029,
      "conclude": 7030,
      "guns": 7031,
      "copyright": 7032,
      "extinction": 7033,
      "CEO": 7034,
      "immense": 7035,
      "revenue": 7036,
      "comedy": 7037,
      "Titan": 7038,
      "writers": 7039,
      "Rwanda": 7040,
      "BF": 7041,
      "Cour": 7042,
      "Gr": 7043,
      "Hen": 7044,
      "Hill": 7045,
      "KB": 7046,
      "Ray": 7047,
      "Tel": 7048,
      "bang": 7049,
      "dut": 7050,
      "fib": 7051,
      "glow": 7052,
      "tast": 7053,
      "ano": 7054,
      "leaf": 7055,
      "stab": 7056,
      "whis": 7057,
      "liament": 7058,
      "chat": 7059,
      "rog": 7060,
      "rix": 7061,
      "iff": 7062,
      "mapping": 7063,
      "caps": 7064,
      "pling": 7065,
      "trou": 7066,
      "trash": 7067,
      "trucks": 7068,
      "restore": 7069,
      "partly": 7070,
      "differenti": 7071,
      "crew": 7072,
      "hier": 7073,
      "sciences": 7074,
      "versions": 7075,
      "pointing": 7076,
      "curric": 7077,
      "Howard": 7078,
      "regime": 7079,
      "reasonable": 7080,
      "ocking": 7081,
      "biologist": 7082,
      "scop": 7083,
      "reliable": 7084,
      "sensor": 7085,
      "predicted": 7086,
      "consciously": 7087,
      "soldier": 7088,
      "clients": 7089,
      "exception": 7090,
      "pairs": 7091,
      "reveals": 7092,
      "liberal": 7093,
      "bubbles": 7094,
      "involve": 7095,
      "Obviously": 7096,
      "demonstration": 7097,
      "egg": 7098,
      "colonies": 7099,
      "navigate": 7100,
      "philanthropy": 7101,
      "unbelievable": 7102,
      "investors": 7103,
      "Aug": 7104,
      "Ebola": 7105,
      "Fif": 7106,
      "FBI": 7107,
      "Mike": 7108,
      "Power": 7109,
      "aqu": 7110,
      "fts": 7111,
      "nurt": 7112,
      "sche": 7113,
      "yan": 7114,
      "thur": 7115,
      "inches": 7116,
      "recon": 7117,
      "leverage": 7118,
      "adm": 7119,
      "ilit": 7120,
      "essor": 7121,
      "shit": 7122,
      "seeking": 7123,
      "etro": 7124,
      "spray": 7125,
      "ardino": 7126,
      "eline": 7127,
      "elite": 7128,
      "disap": 7129,
      "ensure": 7130,
      "brut": 7131,
      "tribe": 7132,
      "tribes": 7133,
      "simulation": 7134,
      "closing": 7135,
      "generating": 7136,
      "sett": 7137,
      "farming": 7138,
      "openness": 7139,
      "autom": 7140,
      "controvers": 7141,
      "Arthur": 7142,
      "millen": 7143,
      "invested": 7144,
      "explaining": 7145,
      "architectural": 7146,
      "Norway": 7147,
      "improving": 7148,
      "improvis": 7149,
      "survived": 7150,
      "fastest": 7151,
      "statist": 7152,
      "silly": 7153,
      "twist": 7154,
      "immediate": 7155,
      "significantly": 7156,
      "arrive": 7157,
      "texts": 7158,
      "attractive": 7159,
      "fabulous": 7160,
      "assembly": 7161,
      "Build": 7162,
      "established": 7163,
      "observation": 7164,
      "professionals": 7165,
      "adopted": 7166,
      "skeleton": 7167,
      "convenient": 7168,
      "pursue": 7169,
      "primarily": 7170,
      "Under": 7171,
      "bizarre": 7172,
      "BC": 7173,
      "Brian": 7174,
      "LED": 7175,
      "Mach": 7176,
      "Sand": 7177,
      "Sund": 7178,
      "Ti": 7179,
      "dating": 7180,
      "glim": 7181,
      "hitting": 7182,
      "iri": 7183,
      "tick": 7184,
      "remem": 7185,
      "ician": 7186,
      "icient": 7187,
      "opard": 7188,
      "cake": 7189,
      "caves": 7190,
      "percept": 7191,
      "igen": 7192,
      "shocking": 7193,
      "Ital": 7194,
      "pole": 7195,
      "reducing": 7196,
      "spill": 7197,
      "bored": 7198,
      "transmit": 7199,
      "Gore": 7200,
      "Somebody": 7201,
      "Organ": 7202,
      "successfully": 7203,
      "boards": 7204,
      "barrel": 7205,
      "constra": 7206,
      "infection": 7207,
      "miracle": 7208,
      "Russian": 7209,
      "Cambridge": 7210,
      "slavery": 7211,
      "lawyers": 7212,
      "ophren": 7213,
      "competitive": 7214,
      "paralyzed": 7215,
      "manifest": 7216,
      "42": 7217,
      "Gis": 7218,
      "Im": 7219,
      "Jud": 7220,
      "Mas": 7221,
      "Plan": 7222,
      "Sir": 7223,
      "aer": 7224,
      "cig": 7225,
      "cable": 7226,
      "pra": 7227,
      "tissues": 7228,
      "reminds": 7229,
      "entering": 7230,
      "outer": 7231,
      "soever": 7232,
      "cember": 7233,
      "ifer": 7234,
      "whatsoever": 7235,
      "prope": 7236,
      "odds": 7237,
      "upside": 7238,
      "safer": 7239,
      "agent": 7240,
      "span": 7241,
      "clay": 7242,
      "stranger": 7243,
      "prem": 7244,
      "transmission": 7245,
      "posal": 7246,
      "miser": 7247,
      "heading": 7248,
      "paradox": 7249,
      "economist": 7250,
      "expansion": 7251,
      "labs": 7252,
      "shocked": 7253,
      "December": 7254,
      "expectancy": 7255,
      "microbial": 7256,
      "photographed": 7257,
      "gradually": 7258,
      "panel": 7259,
      "affects": 7260,
      "Coll": 7261,
      "widely": 7262,
      "detailed": 7263,
      "chairs": 7264,
      "brave": 7265,
      "diagnosis": 7266,
      "profoundly": 7267,
      "shelf": 7268,
      "vulnerability": 7269,
      "category": 7270,
      "dolphin": 7271,
      "astronomy": 7272,
      "frustrated": 7273,
      "Giardino": 7274,
      "instructions": 7275,
      "tackle": 7276,
      "precedented": 7277,
      "pharmaceutical": 7278,
      "omeday": 7279,
      "elderly": 7280,
      "Square": 7281,
      "schizophren": 7282,
      "vacuum": 7283,
      "Gisela": 7284,
      "Bi": 7285,
      "Bel": 7286,
      "Brain": 7287,
      "Far": 7288,
      "IM": 7289,
      "Wat": 7290,
      "file": 7291,
      "fires": 7292,
      "mac": 7293,
      "mud": 7294,
      "nie": 7295,
      "enforce": 7296,
      "ingen": 7297,
      "asha": 7298,
      "sta": 7299,
      "seal": 7300,
      "ication": 7301,
      "habits": 7302,
      "aby": 7303,
      "females": 7304,
      "Social": 7305,
      "advis": 7306,
      "uncle": 7307,
      "unprecedented": 7308,
      "umes": 7309,
      "cosm": 7310,
      "channels": 7311,
      "discrimin": 7312,
      "deserve": 7313,
      "enses": 7314,
      "counting": 7315,
      "interrup": 7316,
      "mines": 7317,
      "server": 7318,
      "instantly": 7319,
      "homeless": 7320,
      "structural": 7321,
      "fortune": 7322,
      "glu": 7323,
      "innocent": 7324,
      "dropping": 7325,
      "difficulty": 7326,
      "drawings": 7327,
      "traditions": 7328,
      "compete": 7329,
      "analo": 7330,
      "ticket": 7331,
      "included": 7332,
      "experiencing": 7333,
      "Johnson": 7334,
      "threatened": 7335,
      "deliber": 7336,
      "ville": 7337,
      "civili": 7338,
      "oxytocin": 7339,
      "journalism": 7340,
      "atomic": 7341,
      "ographic": 7342,
      "broadcast": 7343,
      "garage": 7344,
      "pleasant": 7345,
      "additional": 7346,
      "scholar": 7347,
      "expertise": 7348,
      "Greek": 7349,
      "Turkey": 7350,
      "ownership": 7351,
      "Technology": 7352,
      "resilience": 7353,
      "currency": 7354,
      "recommend": 7355,
      "choosing": 7356,
      "Au": 7357,
      "Amy": 7358,
      "Gor": 7359,
      "Gover": 7360,
      "Nick": 7361,
      "PC": 7362,
      "Rose": 7363,
      "Sus": 7364,
      "Tes": 7365,
      "pam": 7366,
      "tat": 7367,
      "vy": 7368,
      "wider": 7369,
      "bears": 7370,
      "loves": 7371,
      "loving": 7372,
      "iring": 7373,
      "unable": 7374,
      "ods": 7375,
      "shout": 7376,
      "spont": 7377,
      "pride": 7378,
      "description": 7379,
      "bruary": 7380,
      "preserve": 7381,
      "selfish": 7382,
      "tragic": 7383,
      "mature": 7384,
      "imagin": 7385,
      "clos": 7386,
      "mentor": 7387,
      "greg": 7388,
      "charges": 7389,
      "kills": 7390,
      "Bron": 7391,
      "Lego": 7392,
      "medication": 7393,
      "staying": 7394,
      "strongly": 7395,
      "convict": 7396,
      "panels": 7397,
      "compassionate": 7398,
      "February": 7399,
      "detection": 7400,
      "strugg": 7401,
      "interviewed": 7402,
      "corporations": 7403,
      "conservative": 7404,
      "nurse": 7405,
      "perceive": 7406,
      "perceived": 7407,
      "isolated": 7408,
      "discipline": 7409,
      "Sarah": 7410,
      "shrink": 7411,
      "pandemic": 7412,
      "Sorry": 7413,
      "genocide": 7414,
      "curriculum": 7415,
      "August": 7416,
      "Had": 7417,
      "Less": 7418,
      "Play": 7419,
      "RB": 7420,
      "].": 7421,
      "aa": 7422,
      "bure": 7423,
      "binary": 7424,
      "hut": 7425,
      "sin": 7426,
      "ubi": 7427,
      "vice": 7428,
      "enables": 7429,
      "alpha": 7430,
      "ora": 7431,
      "aced": 7432,
      "haust": 7433,
      "liar": 7434,
      "chol": 7435,
      "loan": 7436,
      "imit": 7437,
      "adays": 7438,
      "exhaust": 7439,
      "ola": 7440,
      "covers": 7441,
      "suck": 7442,
      "suffe": 7443,
      "aint": 7444,
      "gotta": 7445,
      "spell": 7446,
      "crush": 7447,
      "condom": 7448,
      "mato": 7449,
      "cheese": 7450,
      "clothing": 7451,
      "computation": 7452,
      "drone": 7453,
      "musician": 7454,
      "facilities": 7455,
      "factories": 7456,
      "arrow": 7457,
      "supporting": 7458,
      "Northern": 7459,
      "sentences": 7460,
      "improved": 7461,
      "approaches": 7462,
      "confused": 7463,
      "scores": 7464,
      "authorities": 7465,
      "packed": 7466,
      "primitive": 7467,
      "wealthy": 7468,
      "airo": 7469,
      "officer": 7470,
      "claims": 7471,
      "translation": 7472,
      "gentleman": 7473,
      "pige": 7474,
      "institutional": 7475,
      "telescopes": 7476,
      "promised": 7477,
      "replicate": 7478,
      "initially": 7479,
      "Philip": 7480,
      "Saharan": 7481,
      "neutral": 7482,
      "exponential": 7483,
      "anonymous": 7484,
      "obstacles": 7485,
      "Spanish": 7486,
      "Beijing": 7487,
      "suffered": 7488,
      "Men": 7489,
      "Same": 7490,
      "Van": 7491,
      "avi": 7492,
      "bye": 7493,
      "cub": 7494,
      "fits": 7495,
      "jamin": 7496,
      "tune": 7497,
      "tale": 7498,
      "ancing": 7499,
      "rer": 7500,
      "esign": 7501,
      "acies": 7502,
      "fears": 7503,
      "aded": 7504,
      "unity": 7505,
      "artic": 7506,
      "tray": 7507,
      "trace": 7508,
      "coin": 7509,
      "phony": 7510,
      "observed": 7511,
      "tsun": 7512,
      "socially": 7513,
      "possess": 7514,
      "Trust": 7515,
      "Until": 7516,
      "angible": 7517,
      "connects": 7518,
      "badly": 7519,
      "robotics": 7520,
      "craw": 7521,
      "mploy": 7522,
      "iences": 7523,
      "winds": 7524,
      "harness": 7525,
      "nearby": 7526,
      "prediction": 7527,
      "silver": 7528,
      "flowing": 7529,
      "Without": 7530,
      "challenged": 7531,
      "loaded": 7532,
      "sufficient": 7533,
      "philosopher": 7534,
      "demands": 7535,
      "placing": 7536,
      "remained": 7537,
      "Benjamin": 7538,
      "Media": 7539,
      "snap": 7540,
      "poems": 7541,
      "Silicon": 7542,
      "refugees": 7543,
      "squee": 7544,
      "items": 7545,
      "implement": 7546,
      "Jesus": 7547,
      "trajectory": 7548,
      "threshold": 7549,
      "remembered": 7550,
      "Dad": 7551,
      "During": 7552,
      "Kar": 7553,
      "Mont": 7554,
      "Nel": 7555,
      "Sky": 7556,
      "Tri": 7557,
      "UN": 7558,
      "fice": 7559,
      "hes": 7560,
      "jun": 7561,
      "jug": 7562,
      "len": 7563,
      "pond": 7564,
      "sized": 7565,
      "tact": 7566,
      "restrict": 7567,
      "rehab": 7568,
      "iso": 7569,
      "islands": 7570,
      "acou": 7571,
      "methane": 7572,
      "dose": 7573,
      "contemporary": 7574,
      "ador": 7575,
      "ustrate": 7576,
      "ateur": 7577,
      "ague": 7578,
      "tier": 7579,
      "redesign": 7580,
      "bull": 7581,
      "formal": 7582,
      "comet": 7583,
      "sheets": 7584,
      "insist": 7585,
      "humanitarian": 7586,
      "crimes": 7587,
      "courses": 7588,
      "transcend": 7589,
      "landing": 7590,
      "agos": 7591,
      "natives": 7592,
      "generous": 7593,
      "homework": 7594,
      "pretend": 7595,
      "valid": 7596,
      "Indust": 7597,
      "educate": 7598,
      "profile": 7599,
      "Newton": 7600,
      "Arctic": 7601,
      "frontal": 7602,
      "engineered": 7603,
      "Peace": 7604,
      "sexy": 7605,
      "steal": 7606,
      "raped": 7607,
      "besides": 7608,
      "pedest": 7609,
      "pollut": 7610,
      "representation": 7611,
      "burned": 7612,
      "jumped": 7613,
      "epidem": 7614,
      "cartoons": 7615,
      "tumors": 7616,
      "golden": 7617,
      "substance": 7618,
      "magnitude": 7619,
      "Alexander": 7620,
      "sacrifice": 7621,
      "Professor": 7622,
      "Chile": 7623,
      "Henry": 7624,
      "cosmic": 7625,
      "Nelson": 7626,
      "Dutch": 7627,
      "March": 7628,
      "Mos": 7629,
      "hiding": 7630,
      "kin": 7631,
      "sca": 7632,
      "yal": 7633,
      "reactions": 7634,
      "ongoing": 7635,
      "onaut": 7636,
      "stake": 7637,
      "beating": 7638,
      "rope": 7639,
      "geous": 7640,
      "gods": 7641,
      "deck": 7642,
      "deforestation": 7643,
      "immers": 7644,
      "immigr": 7645,
      "rams": 7646,
      "convert": 7647,
      "convey": 7648,
      "expos": 7649,
      "sail": 7650,
      "agents": 7651,
      "brick": 7652,
      "realizing": 7653,
      "contrad": 7654,
      "builds": 7655,
      "chemo": 7656,
      "Stone": 7657,
      "applying": 7658,
      "leather": 7659,
      "distingu": 7660,
      "classical": 7661,
      "funds": 7662,
      "performed": 7663,
      "ordinarily": 7664,
      "nonprofit": 7665,
      "explosion": 7666,
      "bene": 7667,
      "grandparents": 7668,
      "analog": 7669,
      "tower": 7670,
      "responses": 7671,
      "origins": 7672,
      "terrifying": 7673,
      "recep": 7674,
      "genetically": 7675,
      "delivery": 7676,
      "burden": 7677,
      "bulb": 7678,
      "camps": 7679,
      "occurs": 7680,
      "influenced": 7681,
      "lifes": 7682,
      "judgment": 7683,
      "defend": 7684,
      "optimism": 7685,
      "beaten": 7686,
      "rays": 7687,
      "gaps": 7688,
      "strategic": 7689,
      "dressed": 7690,
      "renewable": 7691,
      "arrested": 7692,
      "jazz": 7693,
      "column": 7694,
      "bottles": 7695,
      "Southern": 7696,
      "comparison": 7697,
      "tongue": 7698,
      "AI": 7699,
      "EC": 7700,
      "Econom": 7701,
      "Kor": 7702,
      "Les": 7703,
      "MM": 7704,
      "Mur": 7705,
      "Mah": 7706,
      "Ram": 7707,
      "Som": 7708,
      "Spain": 7709,
      "Tas": 7710,
      "Tony": 7711,
      "Wo": 7712,
      "apers": 7713,
      "hunt": 7714,
      "iac": 7715,
      "jok": 7716,
      "sive": 7717,
      "someday": 7718,
      "uine": 7719,
      "wrap": 7720,
      "reinvent": 7721,
      "atically": 7722,
      "semin": 7723,
      "forgot": 7724,
      "ares": 7725,
      "uncertainty": 7726,
      "export": 7727,
      "proven": 7728,
      "inder": 7729,
      "boats": 7730,
      "blown": 7731,
      "obs": 7732,
      "preh": 7733,
      "realistic": 7734,
      "sons": 7735,
      "offering": 7736,
      "vial": 7737,
      "bian": 7738,
      "fined": 7739,
      "2012": 7740,
      "Although": 7741,
      "opera": 7742,
      "beautifully": 7743,
      "appearing": 7744,
      "pursuit": 7745,
      "tends": 7746,
      "nife": 7747,
      "activists": 7748,
      "lamp": 7749,
      "extension": 7750,
      "secrets": 7751,
      "burgh": 7752,
      "hunting": 7753,
      "strike": 7754,
      "striking": 7755,
      "wildlife": 7756,
      "sweat": 7757,
      "nuts": 7758,
      "physicists": 7759,
      "juven": 7760,
      "cotton": 7761,
      "garbage": 7762,
      "intuition": 7763,
      "pigs": 7764,
      "substant": 7765,
      "volunteer": 7766,
      "hypothe": 7767,
      "ignored": 7768,
      "damn": 7769,
      "interpretation": 7770,
      "Jonathan": 7771,
      "ambitious": 7772,
      "wandering": 7773,
      "champion": 7774,
      "nutrients": 7775,
      "excitement": 7776,
      "Court": 7777,
      "analogy": 7778,
      "burea": 7779,
      "beneath": 7780,
      "Bal": 7781,
      "Cur": 7782,
      "Penn": 7783,
      "Ter": 7784,
      "bie": 7785,
      "bats": 7786,
      "fancy": 7787,
      "pon": 7788,
      "vary": 7789,
      "thy": 7790,
      "iner": 7791,
      "incar": 7792,
      "onic": 7793,
      "encry": 7794,
      "altru": 7795,
      "altitude": 7796,
      "chim": 7797,
      "impression": 7798,
      "canopy": 7799,
      "urable": 7800,
      "proved": 7801,
      "pless": 7802,
      "ambig": 7803,
      "amateur": 7804,
      "atever": 7805,
      "ests": 7806,
      "residents": 7807,
      "suits": 7808,
      "Whatever": 7809,
      "blank": 7810,
      "intim": 7811,
      "commission": 7812,
      "cric": 7813,
      "hired": 7814,
      "mayor": 7815,
      "interconnected": 7816,
      "engines": 7817,
      "completed": 7818,
      "attend": 7819,
      "iban": 7820,
      "hardest": 7821,
      "subway": 7822,
      "foods": 7823,
      "connectivity": 7824,
      "charged": 7825,
      "nights": 7826,
      "Almost": 7827,
      "appeal": 7828,
      "speaks": 7829,
      "listened": 7830,
      "purposes": 7831,
      "summar": 7832,
      "landscapes": 7833,
      "Donald": 7834,
      "client": 7835,
      "concert": 7836,
      "slums": 7837,
      "burg": 7838,
      "discovering": 7839,
      "continuous": 7840,
      "achievement": 7841,
      "hopes": 7842,
      "newspapers": 7843,
      "previously": 7844,
      "conducted": 7845,
      "limitations": 7846,
      "Minister": 7847,
      "Photo": 7848,
      "awkward": 7849,
      "helicopter": 7850,
      "simultaneously": 7851,
      "cigaret": 7852,
      "Bronx": 7853,
      "36": 7854,
      "Brun": 7855,
      "Hall": 7856,
      "Home": 7857,
      "Little": 7858,
      "Mid": 7859,
      "Sen": 7860,
      "Saudi": 7861,
      "fate": 7862,
      "hilar": 7863,
      "lions": 7864,
      "nap": 7865,
      "ule": 7866,
      "anni": 7867,
      "atar": 7868,
      "aland": 7869,
      "assets": 7870,
      "logo": 7871,
      "loans": 7872,
      "neys": 7873,
      "compreh": 7874,
      "plates": 7875,
      "ilty": 7876,
      "amed": 7877,
      "estate": 7878,
      "illustrate": 7879,
      "coca": 7880,
      "mentally": 7881,
      "workforce": 7882,
      "blah": 7883,
      "kingdom": 7884,
      "observe": 7885,
      "genuine": 7886,
      "uctive": 7887,
      "offices": 7888,
      "dilem": 7889,
      "gathered": 7890,
      "2050": 7891,
      "titudes": 7892,
      "headlines": 7893,
      "parach": 7894,
      "corals": 7895,
      "leged": 7896,
      "passive": 7897,
      "Argent": 7898,
      "crap": 7899,
      "demographic": 7900,
      "fathers": 7901,
      "Yorker": 7902,
      "Liber": 7903,
      "hormon": 7904,
      "hormone": 7905,
      "safely": 7906,
      "tendency": 7907,
      "angered": 7908,
      "activate": 7909,
      "continuing": 7910,
      "teenager": 7911,
      "motivated": 7912,
      "adapted": 7913,
      "remaining": 7914,
      "Secondly": 7915,
      "thesia": 7916,
      "halluc": 7917,
      "circuits": 7918,
      "horizon": 7919,
      "accounts": 7920,
      "glamorous": 7921,
      "shipping": 7922,
      "precious": 7923,
      "customer": 7924,
      "Listen": 7925,
      "controversial": 7926,
      "Italian": 7927,
      "tattoo": 7928,
      "55": 7929,
      "Cra": 7930,
      "Cons": 7931,
      "Has": 7932,
      "Lead": 7933,
      "Rand": 7934,
      "Scient": 7935,
      "Tun": 7936,
      "Way": 7937,
      "cree": 7938,
      "fired": 7939,
      "jaw": 7940,
      "knife": 7941,
      "mild": 7942,
      "oven": 7943,
      "slo": 7944,
      "voting": 7945,
      "ania": 7946,
      "resem": 7947,
      "errors": 7948,
      "align": 7949,
      "itz": 7950,
      "orn": 7951,
      "lever": 7952,
      "arest": 7953,
      "pets": 7954,
      "deaf": 7955,
      "imper": 7956,
      "mainst": 7957,
      "cafe": 7958,
      "explic": 7959,
      "coat": 7960,
      "aches": 7961,
      "despair": 7962,
      "synd": 7963,
      "diam": 7964,
      "socio": 7965,
      "Church": 7966,
      "simp": 7967,
      "Being": 7968,
      "numer": 7969,
      "mindset": 7970,
      "lowest": 7971,
      "addiction": 7972,
      "Asian": 7973,
      "Islands": 7974,
      "2002": 7975,
      "collectively": 7976,
      "Develo": 7977,
      "expecting": 7978,
      "Frid": 7979,
      "specialized": 7980,
      "approaching": 7981,
      "aneous": 7982,
      "psychologist": 7983,
      "peaceful": 7984,
      "Whereas": 7985,
      "concerns": 7986,
      "synchron": 7987,
      "infectious": 7988,
      "straightforward": 7989,
      "scanner": 7990,
      "surrounding": 7991,
      "Medic": 7992,
      "rituals": 7993,
      "restaurants": 7994,
      "incentive": 7995,
      "branch": 7996,
      "sanitation": 7997,
      "chimpanzee": 7998,
      "bathroom": 7999,
      "encouraged": 8000,
      "waters": 8001,
      "desperately": 8002,
      "mathematicians": 8003,
      "categories": 8004,
      "Palestin": 8005,
      "aggressive": 8006,
      "Wait": 8007,
      "closest": 8008,
      "ubiquit": 8009,
      "tsunami": 8010,
      "37": 8011,
      "AL": 8012,
      "Aris": 8013,
      "BA": 8014,
      "Def": 8015,
      "EM": 8016,
      "Ham": 8017,
      "Homo": 8018,
      "Ja": 8019,
      "Kat": 8020,
      "Lord": 8021,
      "Rom": 8022,
      "bend": 8023,
      "dung": 8024,
      "fest": 8025,
      "hors": 8026,
      "ooh": 8027,
      "piz": 8028,
      "tubes": 8029,
      "wan": 8030,
      "zones": 8031,
      "recess": 8032,
      "reactor": 8033,
      "enjo": 8034,
      "vet": 8035,
      "bean": 8036,
      "acre": 8037,
      "mega": 8038,
      "rob": 8039,
      "rose": 8040,
      "excess": 8041,
      "sauce": 8042,
      "pockets": 8043,
      "colored": 8044,
      "eman": 8045,
      "uded": 8046,
      "intensive": 8047,
      "ulture": 8048,
      "preval": 8049,
      "stopping": 8050,
      "label": 8051,
      "pause": 8052,
      "highway": 8053,
      "highlight": 8054,
      "matrix": 8055,
      "20s": 8056,
      "1960": 8057,
      "decor": 8058,
      "airplanes": 8059,
      "passenger": 8060,
      "signature": 8061,
      "classrooms": 8062,
      "continents": 8063,
      "cuts": 8064,
      "freely": 8065,
      "impul": 8066,
      "audiences": 8067,
      "queen": 8068,
      "trains": 8069,
      "defining": 8070,
      "unemploy": 8071,
      "Stewart": 8072,
      "gorgeous": 8073,
      "Point": 8074,
      "ecological": 8075,
      "acceptable": 8076,
      "package": 8077,
      "blindness": 8078,
      "recipe": 8079,
      "graduated": 8080,
      "July": 8081,
      "mammal": 8082,
      "assumption": 8083,
      "blogs": 8084,
      "flags": 8085,
      "succeeded": 8086,
      "Clint": 8087,
      "Parkinson": 8088,
      "Brother": 8089,
      "manipulate": 8090,
      "Ladies": 8091,
      "administration": 8092,
      "disrupt": 8093,
      "dictionary": 8094,
      "decrease": 8095,
      "portrait": 8096,
      "procedure": 8097,
      "devastating": 8098,
      "legislation": 8099,
      "occasionally": 8100,
      "impressive": 8101,
      "geometry": 8102,
      "Taliban": 8103,
      "elegant": 8104,
      "luxury": 8105,
      "expedition": 8106,
      "Swiss": 8107,
      "miserable": 8108,
      "bureauc": 8109,
      "diamond": 8110,
      "ubiquitous": 8111,
      "Abra": 8112,
      "Acade": 8113,
      "Di": 8114,
      "Eliz": 8115,
      "Fl": 8116,
      "Ford": 8117,
      "Gar": 8118,
      "Isa": 8119,
      "Kim": 8120,
      "Seven": 8121,
      "Santa": 8122,
      "],": 8123,
      "aug": 8124,
      "bid": 8125,
      "dough": 8126,
      "drew": 8127,
      "hug": 8128,
      "kn": 8129,
      "ores": 8130,
      "uma": 8131,
      "vin": 8132,
      "erg": 8133,
      "toes": 8134,
      "toss": 8135,
      "torian": 8136,
      "orchestra": 8137,
      "assa": 8138,
      "rolled": 8139,
      "los": 8140,
      "gee": 8141,
      "defic": 8142,
      "terrain": 8143,
      "propose": 8144,
      "artif": 8145,
      "olas": 8146,
      "umines": 8147,
      "spat": 8148,
      "empowered": 8149,
      "woke": 8150,
      "backs": 8151,
      "prev": 8152,
      "downtown": 8153,
      "insane": 8154,
      "stomach": 8155,
      "compli": 8156,
      "interven": 8157,
      "visions": 8158,
      "cellular": 8159,
      "runk": 8160,
      "adder": 8161,
      "regulation": 8162,
      "password": 8163,
      "eady": 8164,
      "dragon": 8165,
      "Army": 8166,
      "sixth": 8167,
      "advances": 8168,
      "approved": 8169,
      "stepped": 8170,
      "microscop": 8171,
      "banking": 8172,
      "breakfast": 8173,
      "failures": 8174,
      "personalized": 8175,
      "eaten": 8176,
      "terribly": 8177,
      "panic": 8178,
      "transforming": 8179,
      "Shang": 8180,
      "loads": 8181,
      "clinics": 8182,
      "lades": 8183,
      "earliest": 8184,
      "annual": 8185,
      "cision": 8186,
      "Brazili": 8187,
      "puzzles": 8188,
      "exercis": 8189,
      "heavi": 8190,
      "Council": 8191,
      "Banglades": 8192,
      "magnific": 8193,
      "encouraging": 8194,
      "Betti": 8195,
      "cosmos": 8196,
      "NGOs": 8197,
      "sneak": 8198,
      "preparing": 8199,
      "Queen": 8200,
      "stereoty": 8201,
      "Carolina": 8202,
      "Mandela": 8203,
      "prosperity": 8204,
      "trigger": 8205,
      "phosphor": 8206,
      "exposure": 8207,
      "AT": 8208,
      "Ire": 8209,
      "Show": 8210,
      "Spr": 8211,
      "Twenty": 8212,
      "UC": 8213,
      "Yemen": 8214,
      "bam": 8215,
      "bind": 8216,
      "bite": 8217,
      "dumb": 8218,
      "ego": 8219,
      "inth": 8220,
      "inated": 8221,
      "infant": 8222,
      "theast": 8223,
      "rethink": 8224,
      "reproduce": 8225,
      "onstage": 8226,
      "sty": 8227,
      "acknowledge": 8228,
      "meme": 8229,
      "gear": 8230,
      "unting": 8231,
      "prose": 8232,
      "endangered": 8233,
      "yourselves": 8234,
      "embod": 8235,
      "wore": 8236,
      "guitar": 8237,
      "gravit": 8238,
      "manner": 8239,
      "marg": 8240,
      "marvel": 8241,
      "marath": 8242,
      "stored": 8243,
      "traits": 8244,
      "memes": 8245,
      "ugal": 8246,
      "smallest": 8247,
      "Nove": 8248,
      "fung": 8249,
      "ashed": 8250,
      "planetary": 8251,
      "household": 8252,
      "hybrid": 8253,
      "follows": 8254,
      "potent": 8255,
      "extraordinarily": 8256,
      "religions": 8257,
      "Both": 8258,
      "locations": 8259,
      "1998": 8260,
      "phenomena": 8261,
      "soup": 8262,
      "catching": 8263,
      "reflection": 8264,
      "journalists": 8265,
      "physicians": 8266,
      "surgeons": 8267,
      "ratio": 8268,
      "rubber": 8269,
      "initiative": 8270,
      "accomplish": 8271,
      "estimates": 8272,
      "horizont": 8273,
      "stretch": 8274,
      "Delhi": 8275,
      "mobility": 8276,
      "supplies": 8277,
      "excellent": 8278,
      "Joseph": 8279,
      "Gandhi": 8280,
      "Sunday": 8281,
      "constraints": 8282,
      "Bruno": 8283,
      "mainstream": 8284,
      "\"?": 8285,
      "AM": 8286,
      "Age": 8287,
      "Hong": 8288,
      "Jord": 8289,
      "Mass": 8290,
      "Nine": 8291,
      "Nico": 8292,
      "Pop": 8293,
      "Stop": 8294,
      "Using": 8295,
      "Vic": 8296,
      "aver": 8297,
      "award": 8298,
      "crop": 8299,
      "mously": 8300,
      "pad": 8301,
      "phere": 8302,
      "uk": 8303,
      "ura": 8304,
      "vas": 8305,
      "thread": 8306,
      "anno": 8307,
      "replaced": 8308,
      "atter": 8309,
      "ala": 8310,
      "stones": 8311,
      "stability": 8312,
      "beam": 8313,
      "entropy": 8314,
      "peop": 8315,
      "dopam": 8316,
      "cel": 8317,
      "worms": 8318,
      "prostate": 8319,
      "tras": 8320,
      "trical": 8321,
      "indigen": 8322,
      "asty": 8323,
      "disagree": 8324,
      "guilty": 8325,
      "fulness": 8326,
      "prevention": 8327,
      "rainforest": 8328,
      "icked": 8329,
      "managers": 8330,
      "diarr": 8331,
      "contamin": 8332,
      "wrist": 8333,
      "compound": 8334,
      "1960s": 8335,
      "parks": 8336,
      "hometown": 8337,
      "warri": 8338,
      "Neander": 8339,
      "subur": 8340,
      "regis": 8341,
      "parenting": 8342,
      "sensation": 8343,
      "fallen": 8344,
      "bench": 8345,
      "venture": 8346,
      "Hawa": 8347,
      "gained": 8348,
      "affecting": 8349,
      "smartphone": 8350,
      "destiny": 8351,
      "variations": 8352,
      "Except": 8353,
      "College": 8354,
      "alternatives": 8355,
      "teenage": 8356,
      "contributed": 8357,
      "honestly": 8358,
      "Monte": 8359,
      "Israeli": 8360,
      "missions": 8361,
      "collapsed": 8362,
      "dominated": 8363,
      "scenes": 8364,
      "County": 8365,
      "blowing": 8366,
      "branches": 8367,
      ".'\"": 8368,
      "concentration": 8369,
      "monitoring": 8370,
      "assistance": 8371,
      "electrodes": 8372,
      "vagina": 8373,
      "barrier": 8374,
      "mushroom": 8375,
      "Gabby": 8376,
      "jellyfish": 8377,
      "glimpse": 8378,
      "Shanghai": 8379,
      "peoples": 8380,
      "dopamine": 8381,
      "indigenous": 8382,
      "IN": 8383,
      "JA": 8384,
      "Mod": 8385,
      "Map": 8386,
      "Rad": 8387,
      "Rick": 8388,
      "Sher": 8389,
      "Shar": 8390,
      "Try": 8391,
      "dated": 8392,
      "ii": 8393,
      "junk": 8394,
      "tables": 8395,
      "infer": 8396,
      "arc": 8397,
      "asion": 8398,
      "sew": 8399,
      "healing": 8400,
      "metric": 8401,
      "wires": 8402,
      "cement": 8403,
      "deter": 8404,
      "imal": 8405,
      "tear": 8406,
      "worm": 8407,
      "Soci": 8408,
      "comments": 8409,
      "prost": 8410,
      "olic": 8411,
      "quis": 8412,
      "distract": 8413,
      "blink": 8414,
      "clue": 8415,
      "grades": 8416,
      "obese": 8417,
      "genic": 8418,
      "manager": 8419,
      "trivial": 8420,
      "storage": 8421,
      "traum": 8422,
      "findings": 8423,
      "mini": 8424,
      "paired": 8425,
      "calm": 8426,
      "cares": 8427,
      "1950s": 8428,
      "farms": 8429,
      "spacecraft": 8430,
      "Indones": 8431,
      "momentum": 8432,
      "News": 8433,
      "metic": 8434,
      "bedroom": 8435,
      "devil": 8436,
      "marketplace": 8437,
      "pene": 8438,
      "competing": 8439,
      "measurements": 8440,
      "territory": 8441,
      "terrified": 8442,
      "slime": 8443,
      "posted": 8444,
      "locally": 8445,
      "divor": 8446,
      "Comp": 8447,
      "folded": 8448,
      "sections": 8449,
      "Anybody": 8450,
      "infections": 8451,
      "interviews": 8452,
      "selected": 8453,
      "wheels": 8454,
      "System": 8455,
      "correctly": 8456,
      "Keep": 8457,
      "frequently": 8458,
      "evolving": 8459,
      "psychopath": 8460,
      "propag": 8461,
      "vegetables": 8462,
      "troops": 8463,
      "minimum": 8464,
      "watts": 8465,
      "phantom": 8466,
      "grasp": 8467,
      "absence": 8468,
      "Sudden": 8469,
      "whistle": 8470,
      "Zealand": 8471,
      "legitimate": 8472,
      "retirement": 8473,
      "enforcement": 8474,
      "Govern": 8475,
      "Koran": 8476,
      "cocaine": 8477,
      "Friday": 8478,
      "DV": 8479,
      "MR": 8480,
      "Mel": 8481,
      "Sel": 8482,
      "TI": 8483,
      "Tam": 8484,
      "Tanz": 8485,
      "Zero": 8486,
      "batt": 8487,
      "echo": 8488,
      "gical": 8489,
      "kins": 8490,
      "lists": 8491,
      "pale": 8492,
      "sched": 8493,
      "wrest": 8494,
      "western": 8495,
      "thetics": 8496,
      "rein": 8497,
      "enem": 8498,
      "encoun": 8499,
      "asters": 8500,
      "chop": 8501,
      "abul": 8502,
      "lobby": 8503,
      "rill": 8504,
      "plank": 8505,
      "traction": 8506,
      "rescu": 8507,
      "cooperate": 8508,
      "workplace": 8509,
      "donor": 8510,
      "grace": 8511,
      "overnight": 8512,
      "sheer": 8513,
      "readers": 8514,
      "march": 8515,
      "trapped": 8516,
      "compar": 8517,
      "interior": 8518,
      "minus": 8519,
      "fled": 8520,
      "nett": 8521,
      "imagining": 8522,
      "1990": 8523,
      "cyl": 8524,
      "cloped": 8525,
      "limbs": 8526,
      "nerves": 8527,
      "organiz": 8528,
      "wheat": 8529,
      "apps": 8530,
      "glor": 8531,
      "Moz": 8532,
      "distances": 8533,
      "Rock": 8534,
      "slip": 8535,
      "deadly": 8536,
      "receiving": 8537,
      "Comput": 8538,
      "ecology": 8539,
      "folds": 8540,
      "temperatures": 8541,
      "scanning": 8542,
      "taxes": 8543,
      "fatal": 8544,
      "partnership": 8545,
      "assemble": 8546,
      "ritual": 8547,
      "diameter": 8548,
      "installation": 8549,
      "elementary": 8550,
      "Simon": 8551,
      "apolog": 8552,
      "lifted": 8553,
      "regardless": 8554,
      "estimated": 8555,
      "barriers": 8556,
      "mimic": 8557,
      "abandoned": 8558,
      "guarantee": 8559,
      "jihad": 8560,
      "Half": 8561,
      "Teles": 8562,
      "fibers": 8563,
      "horses": 8564,
      "pizza": 8565,
      "Elizabeth": 8566,
      "phosphorus": 8567,
      "Ireland": 8568,
      "Cer": 8569,
      "Civ": 8570,
      "Eight": 8571,
      "Ku": 8572,
      "Mis": 8573,
      "OL": 8574,
      "Rather": 8575,
      "divid": 8576,
      "dawn": 8577,
      "gif": 8578,
      "gments": 8579,
      "kis": 8580,
      "liness": 8581,
      "lined": 8582,
      "nes": 8583,
      "nodes": 8584,
      "oy": 8585,
      "pants": 8586,
      "revers": 8587,
      "resolve": 8588,
      "attitudes": 8589,
      "isa": 8590,
      "alty": 8591,
      "itative": 8592,
      "orphan": 8593,
      "stad": 8594,
      "entry": 8595,
      "verbal": 8596,
      "loose": 8597,
      "gel": 8598,
      "gho": 8599,
      "deals": 8600,
      "cancers": 8601,
      "unconscious": 8602,
      "shy": 8603,
      "seemingly": 8604,
      "phy": 8605,
      "phic": 8606,
      "kindness": 8607,
      "grave": 8608,
      "manual": 8609,
      "coln": 8610,
      "planned": 8611,
      "uniform": 8612,
      "drum": 8613,
      "gesture": 8614,
      "valley": 8615,
      "fisher": 8616,
      "messy": 8617,
      "potato": 8618,
      "communicating": 8619,
      "patho": 8620,
      "division": 8621,
      "believing": 8622,
      "Anyone": 8623,
      "strip": 8624,
      "sweep": 8625,
      "appearance": 8626,
      "narratives": 8627,
      "cruel": 8628,
      "wedding": 8629,
      "hacking": 8630,
      "destroying": 8631,
      "technically": 8632,
      "installed": 8633,
      "shifts": 8634,
      "spinning": 8635,
      "concentrated": 8636,
      "inevitably": 8637,
      "protests": 8638,
      "overwhelming": 8639,
      "assignment": 8640,
      "Lincoln": 8641,
      "lonely": 8642,
      "tropical": 8643,
      "Joshua": 8644,
      "keepers": 8645,
      "duty": 8646,
      "hormones": 8647,
      "explicit": 8648,
      "Academy": 8649,
      "November": 8650,
      "Suddenly": 8651,
      "38": 8652,
      "350": 8653,
      "Du": 8654,
      "Detro": 8655,
      "Elect": 8656,
      "Jour": 8657,
      "Mich": 8658,
      "Pre": 8659,
      "Pot": 8660,
      "cution": 8661,
      "gt": 8662,
      "nu": 8663,
      "pills": 8664,
      "rof": 8665,
      "sale": 8666,
      "anatom": 8667,
      "remix": 8668,
      "enna": 8669,
      "album": 8670,
      "staring": 8671,
      "achel": 8672,
      "hail": 8673,
      "oton": 8674,
      "chill": 8675,
      "soc": 8676,
      "motors": 8677,
      "congest": 8678,
      "Sol": 8679,
      "ulin": 8680,
      "comic": 8681,
      "proceed": 8682,
      "Its": 8683,
      "tiv": 8684,
      "Young": 8685,
      "intimate": 8686,
      "biol": 8687,
      "irect": 8688,
      "visually": 8689,
      "founder": 8690,
      "delay": 8691,
      "publishing": 8692,
      "equations": 8693,
      "metro": 8694,
      "amazingly": 8695,
      "denial": 8696,
      "drops": 8697,
      "winner": 8698,
      "medicines": 8699,
      "stays": 8700,
      "describing": 8701,
      "astronaut": 8702,
      "constit": 8703,
      "Coke": 8704,
      "responded": 8705,
      "multiply": 8706,
      "websites": 8707,
      "bullet": 8708,
      "remarkably": 8709,
      "contribution": 8710,
      "expressions": 8711,
      "worrying": 8712,
      "officials": 8713,
      "juries": 8714,
      "Berlin": 8715,
      "palm": 8716,
      "contrary": 8717,
      "murder": 8718,
      "arguing": 8719,
      "chronic": 8720,
      "utterly": 8721,
      "recycling": 8722,
      "mathematician": 8723,
      "Larry": 8724,
      "knee": 8725,
      "wrapped": 8726,
      "aesthetic": 8727,
      "athletes": 8728,
      "Brooklyn": 8729,
      "intrins": 8730,
      "stabili": 8731,
      "schizophrenia": 8732,
      "Industrial": 8733,
      "cricket": 8734,
      "syndrome": 8735,
      "enemies": 8736,
      "Telescope": 8737,
      "Brad": 8738,
      "Dy": 8739,
      "Lind": 8740,
      "Lau": 8741,
      "MK": 8742,
      "Miss": 8743,
      "NSA": 8744,
      "Nike": 8745,
      "Off": 8746,
      "Qa": 8747,
      "Snow": 8748,
      "Stage": 8749,
      "Ted": 8750,
      "Teach": 8751,
      "USA": 8752,
      "bother": 8753,
      "bills": 8754,
      "cens": 8755,
      "duck": 8756,
      "fi": 8757,
      "hated": 8758,
      "ipped": 8759,
      "jan": 8760,
      "mall": 8761,
      "paste": 8762,
      "rank": 8763,
      "sir": 8764,
      "wal": 8765,
      "ised": 8766,
      "asleep": 8767,
      "stum": 8768,
      "hemis": 8769,
      "behalf": 8770,
      "meals": 8771,
      "lia": 8772,
      "lith": 8773,
      "roles": 8774,
      "kel": 8775,
      "outrage": 8776,
      "locom": 8777,
      "solo": 8778,
      "capt": 8779,
      "unhappy": 8780,
      "thermal": 8781,
      "actively": 8782,
      "useless": 8783,
      "restor": 8784,
      "astics": 8785,
      "elabor": 8786,
      "disabled": 8787,
      "format": 8788,
      "guards": 8789,
      "epi": 8790,
      "internet": 8791,
      "miner": 8792,
      "mono": 8793,
      "storytell": 8794,
      "2015": 8795,
      "foundations": 8796,
      "relatives": 8797,
      "corners": 8798,
      "graphs": 8799,
      "topics": 8800,
      "couples": 8801,
      "naive": 8802,
      "passes": 8803,
      "Force": 8804,
      "politically": 8805,
      "charming": 8806,
      "Moon": 8807,
      "Someone": 8808,
      "shoe": 8809,
      "predators": 8810,
      "purple": 8811,
      "screaming": 8812,
      "approached": 8813,
      "risky": 8814,
      "consumed": 8815,
      "cardio": 8816,
      "visualization": 8817,
      "wishes": 8818,
      "pollin": 8819,
      "Hope": 8820,
      "Feyn": 8821,
      "introduction": 8822,
      "bridges": 8823,
      "batteries": 8824,
      "Music": 8825,
      "belly": 8826,
      "crystal": 8827,
      "broader": 8828,
      "civilizations": 8829,
      "boundary": 8830,
      "documentary": 8831,
      "doubled": 8832,
      "iconic": 8833,
      "Redwood": 8834,
      "stimul": 8835,
      "PMS": 8836,
      "injured": 8837,
      "academ": 8838,
      "observations": 8839,
      "penguin": 8840,
      "toilets": 8841,
      "Turk": 8842,
      "pulse": 8843,
      "simplest": 8844,
      "width": 8845,
      "breeding": 8846,
      "genomes": 8847,
      "Watson": 8848,
      "parachute": 8849,
      "enjoying": 8850,
      "magnificent": 8851,
      "Detroit": 8852,
      "Qaeda": 8853,
      "Feynman": 8854,
      "Bus": 8855,
      "Creat": 8856,
      "Cath": 8857,
      "Dra": 8858,
      "Fred": 8859,
      "Publ": 8860,
      "SW": 8861,
      "Si": 8862,
      "rick": 8863,
      "rican": 8864,
      "sizes": 8865,
      "sperm": 8866,
      "tary": 8867,
      "tiles": 8868,
      "toll": 8869,
      "envelo": 8870,
      "lete": 8871,
      "idal": 8872,
      "rol": 8873,
      "peare": 8874,
      "dece": 8875,
      "depart": 8876,
      "depos": 8877,
      "cose": 8878,
      "00s": 8879,
      "evapor": 8880,
      "humili": 8881,
      "pread": 8882,
      "counsel": 8883,
      "cribe": 8884,
      "stolen": 8885,
      "faction": 8886,
      "conductor": 8887,
      "calories": 8888,
      "kespeare": 8889,
      "2020": 8890,
      "curves": 8891,
      "buses": 8892,
      "amazed": 8893,
      "lanes": 8894,
      "halfway": 8895,
      "glue": 8896,
      "Alice": 8897,
      "Security": 8898,
      "masses": 8899,
      "steam": 8900,
      "deepest": 8901,
      "40s": 8902,
      "float": 8903,
      "exploit": 8904,
      "pencil": 8905,
      "Leban": 8906,
      "supermarket": 8907,
      "trading": 8908,
      "screens": 8909,
      "sends": 8910,
      "ventions": 8911,
      "visualize": 8912,
      "psychologists": 8913,
      "wooden": 8914,
      "attacked": 8915,
      "Christo": 8916,
      "Carl": 8917,
      "crossed": 8918,
      "slower": 8919,
      "bulbs": 8920,
      "Mean": 8921,
      "calculated": 8922,
      "calculations": 8923,
      "texting": 8924,
      "integration": 8925,
      "welfare": 8926,
      "emails": 8927,
      "sectors": 8928,
      "candy": 8929,
      "Shakespeare": 8930,
      "priority": 8931,
      "punishment": 8932,
      "deployed": 8933,
      "glamour": 8934,
      "enhance": 8935,
      "inventor": 8936,
      "subsid": 8937,
      "sketch": 8938,
      "glacier": 8939,
      "Virginia": 8940,
      "underest": 8941,
      "theoretical": 8942,
      "pigeon": 8943,
      "Tasman": 8944,
      "incarcer": 8945,
      "Clinton": 8946,
      "Bangladesh": 8947,
      "bamboo": 8948,
      ",'": 8949,
      "98": 8950,
      "Cho": 8951,
      "DR": 8952,
      "Dou": 8953,
      "FO": 8954,
      "Fed": 8955,
      "Got": 8956,
      "Jay": 8957,
      "Know": 8958,
      "Lake": 8959,
      "Na": 8960,
      "Pas": 8961,
      "Pra": 8962,
      "Swit": 8963,
      "Wind": 8964,
      "bump": 8965,
      "jack": 8966,
      "kilo": 8967,
      "nom": 8968,
      "odo": 8969,
      "vasc": 8970,
      "intric": 8971,
      "retail": 8972,
      "alarm": 8973,
      "arians": 8974,
      "stig": 8975,
      "belt": 8976,
      "llen": 8977,
      "verb": 8978,
      "lize": 8979,
      "wives": 8980,
      "peers": 8981,
      "irts": 8982,
      "raine": 8983,
      "nowadays": 8984,
      "composition": 8985,
      "compromise": 8986,
      "plastics": 8987,
      "likelihood": 8988,
      "sake": 8989,
      "owning": 8990,
      "owners": 8991,
      "distor": 8992,
      "berry": 8993,
      "bris": 8994,
      "obtain": 8995,
      "prey": 8996,
      "counts": 8997,
      "insulin": 8998,
      "trauma": 8999,
      "interventions": 9000,
      "versary": 9001,
      "smiling": 9002,
      "ubble": 9003,
      "bably": 9004,
      "bush": 9005,
      "teaches": 9006,
      "regul": 9007,
      "rane": 9008,
      "joint": 9009,
      "norms": 9010,
      "biosphere": 9011,
      "publicly": 9012,
      "Seattle": 9013,
      "approx": 9014,
      "climbed": 9015,
      "Bruce": 9016,
      "violin": 9017,
      "microphone": 9018,
      "Lewis": 9019,
      "marker": 9020,
      "statistic": 9021,
      "touching": 9022,
      "Coast": 9023,
      "reporting": 9024,
      "Geographic": 9025,
      "transformative": 9026,
      "raises": 9027,
      "catastro": 9028,
      "laptops": 9029,
      "automobile": 9030,
      "integrate": 9031,
      "therapies": 9032,
      "mesh": 9033,
      "Educ": 9034,
      "trafficking": 9035,
      "platforms": 9036,
      "historically": 9037,
      "accuracy": 9038,
      "harmful": 9039,
      "Cape": 9040,
      "cockro": 9041,
      "suspended": 9042,
      "Bono": 9043,
      "feminist": 9044,
      "dictator": 9045,
      "frightening": 9046,
      "candidate": 9047,
      "labeled": 9048,
      "Iceland": 9049,
      "tweet": 9050,
      "convicted": 9051,
      "Brazilian": 9052,
      "Indonesia": 9053,
      "biolumines": 9054,
      "vascular": 9055,
      "31": 9056,
      "72": 9057,
      "AA": 9058,
      "Ash": 9059,
      "Greg": 9060,
      "Hor": 9061,
      "Happ": 9062,
      "Jen": 9063,
      "Ky": 9064,
      "Kids": 9065,
      "Lim": 9066,
      "Pitt": 9067,
      "Wright": 9068,
      "cows": 9069,
      "eigh": 9070,
      "figh": 9071,
      "gia": 9072,
      "ux": 9073,
      "yards": 9074,
      "independence": 9075,
      "returns": 9076,
      "enzy": 9077,
      "pel": 9078,
      "rip": 9079,
      "irony": 9080,
      "conne": 9081,
      "ules": 9082,
      "comics": 9083,
      "proposition": 9084,
      "oked": 9085,
      "tile": 9086,
      "ansas": 9087,
      "coverage": 9088,
      "formula": 9089,
      "backyard": 9090,
      "intact": 9091,
      "intensity": 9092,
      "kings": 9093,
      "realities": 9094,
      "realization": 9095,
      "maneu": 9096,
      "intersection": 9097,
      "understands": 9098,
      "computational": 9099,
      "iously": 9100,
      "projection": 9101,
      "incidence": 9102,
      "Indians": 9103,
      "untary": 9104,
      "nightm": 9105,
      "fisheries": 9106,
      "holders": 9107,
      "innovate": 9108,
      "excuse": 9109,
      "predator": 9110,
      "programmers": 9111,
      "millimeter": 9112,
      "sensing": 9113,
      "sensit": 9114,
      "Together": 9115,
      "democracies": 9116,
      "functioning": 9117,
      "clips": 9118,
      "prisoner": 9119,
      "Phys": 9120,
      "Phila": 9121,
      "cleaning": 9122,
      "synthesis": 9123,
      "Probably": 9124,
      "expressed": 9125,
      "Syria": 9126,
      "switched": 9127,
      "emotionally": 9128,
      "contained": 9129,
      "demonstrated": 9130,
      "determines": 9131,
      "Korean": 9132,
      "revealed": 9133,
      "overwhelmed": 9134,
      "simpler": 9135,
      "grocer": 9136,
      "reserves": 9137,
      "nitrogen": 9138,
      "anticipate": 9139,
      "Singapo": 9140,
      "strands": 9141,
      "cousin": 9142,
      "thood": 9143,
      "survivors": 9144,
      "intriguing": 9145,
      "hierarchy": 9146,
      "glucose": 9147,
      "Argentina": 9148,
      "simplif": 9149,
      "Monterey": 9150,
      "Society": 9151,
      "DVD": 9152,
      "Journal": 9153,
      "Bos": 9154,
      "Cont": 9155,
      "Ev": 9156,
      "Ever": 9157,
      "GG": 9158,
      "JH": 9159,
      "Kam": 9160,
      "Kelly": 9161,
      "Matt": 9162,
      "Nich": 9163,
      "PR": 9164,
      "Pret": 9165,
      "RM": 9166,
      "Vi": 9167,
      "awe": 9168,
      "cattle": 9169,
      "kiss": 9170,
      "nick": 9171,
      "nasty": 9172,
      "ored": 9173,
      "wow": 9174,
      "ativity": 9175,
      "enix": 9176,
      "asth": 9177,
      "icial": 9178,
      "acknowled": 9179,
      "nearest": 9180,
      "modest": 9181,
      "deception": 9182,
      "default": 9183,
      "cathe": 9184,
      "unks": 9185,
      "unseen": 9186,
      "proposal": 9187,
      "coheren": 9188,
      "bleed": 9189,
      "happily": 9190,
      "dispar": 9191,
      "overhead": 9192,
      "clues": 9193,
      "strings": 9194,
      "cream": 9195,
      "precision": 9196,
      "offspring": 9197,
      "biof": 9198,
      "fluct": 9199,
      "venue": 9200,
      "matched": 9201,
      "2030": 9202,
      "chef": 9203,
      "Still": 9204,
      "...\"": 9205,
      "drought": 9206,
      "delicious": 9207,
      "politan": 9208,
      "operative": 9209,
      "girlfriend": 9210,
      "freezing": 9211,
      "harmony": 9212,
      "reaches": 9213,
      "copies": 9214,
      "gains": 9215,
      "collaborate": 9216,
      "bacterial": 9217,
      "threatening": 9218,
      "occurring": 9219,
      "pulls": 9220,
      "philosophical": 9221,
      "streams": 9222,
      "randomly": 9223,
      "documented": 9224,
      "folk": 9225,
      "accelerate": 9226,
      "prosthetic": 9227,
      "promising": 9228,
      "privileged": 9229,
      "Satur": 9230,
      "Greece": 9231,
      "clubs": 9232,
      "discussions": 9233,
      "cluster": 9234,
      "SETI": 9235,
      "pouring": 9236,
      "discrimination": 9237,
      "scaf": 9238,
      "dilemma": 9239,
      "Develop": 9240,
      "Abraham": 9241,
      "diarrhea": 9242,
      "Business": 9243,
      "Catholic": 9244,
      "Singapore": 9245,
      "Pretty": 9246,
      "46": 9247,
      "AK": 9248,
      "CH": 9249,
      "CM": 9250,
      "Cla": 9251,
      "Dick": 9252,
      "ES": 9253,
      "Hind": 9254,
      "Nord": 9255,
      "Nathan": 9256,
      "dates": 9257,
      "fence": 9258,
      "fier": 9259,
      "gad": 9260,
      "kers": 9261,
      "lion": 9262,
      "mn": 9263,
      "pip": 9264,
[...]
