{
  "version": "1.0",
  "truncation": null,
  "padding": null,
  "added_tokens": [
    {
      "id": 0,
      "content": "[PAD]",
      "single_word": false,
      "lstrip": false,
      "rstrip": false,
      "normalized": false,
      "special": true
    },
    {
      "id": 1,
      "content": "[SOS]",
      "single_word": false,
      "lstrip": false,
      "rstrip": false,
      "normalized": false,
      "special": true
    },
    {
      "id": 2,
      "content": "[EOS]",
      "single_word": false,
      "lstrip": false,
      "rstrip": false,
      "normalized": false,
      "special": true
    },
    {
      "id": 3,
      "content": "[UNK]",
      "single_word": false,
      "lstrip": false,
      "rstrip": false,
      "normalized": false,
      "special": true
    }
  ],
  "normalizer": null,
  "pre_tokenizer": {
    "type": "Whitespace"
  },
  "post_processor": {
    "type": "TemplateProcessing",
    "single": [
      {
        "SpecialToken": {
          "id": "[SOS]",
          "type_id": 0
        }
      },
      {
        "Sequence": {
          "id": "A",
          "type_id": 0
        }
      },
      {
        "SpecialToken": {
          "id": "[EOS]",
          "type_id": 0
        }
      }
    ],
    "pair": [
      {
        "Sequence": {
          "id": "A",
          "type_id": 0
        }
      },
      {
        "Sequence": {
          "id": "B",
          "type_id": 1
        }
      }
    ],
    "special_tokens": {
      "[EOS]": {
        "id": "[EOS]",
        "ids": [
          2
        ],
        "tokens": [
          "[EOS]"
        ]
      },
      "[SOS]": {
        "id": "[SOS]",
        "ids": [
          1
        ],
        "tokens": [
          "[SOS]"
        ]
      }
    }
  },
  "decoder": null,
  "model": {
    "type": "BPE",
    "dropout": null,
    "unk_token": "[UNK]",
    "continuing_subword_prefix": null,
    "end_of_word_suffix": null,
    "fuse_unk": false,
    "vocab": {
      "[PAD]": 0,
      "[SOS]": 1,
      "[EOS]": 2,
      "[UNK]": 3,
      "!": 4,
      "\"": 5,
      "#": 6,
      "$": 7,
      "%": 8,
      "&": 9,
      "'": 10,
      "(": 11,
      ")": 12,
      "*": 13,
      "+": 14,
      ",": 15,
      "-": 16,
      ".": 17,
      "/": 18,
      "0": 19,
      "1": 20,
      "2": 21,
      "3": 22,
      "4": 23,
      "5": 24,
      "6": 25,
      "7": 26,
      "8": 27,
      "9": 28,
      ":": 29,
      ";": 30,
      "=": 31,
      "?": 32,
      "@": 33,
      "A": 34,
      "B": 35,
      "C": 36,
      "D": 37,
      "E": 38,
      "F": 39,
      "G": 40,
      "H": 41,
      "I": 42,
      "J": 43,
      "K": 44,
      "L": 45,
      "M": 46,
      "N": 47,
      "O": 48,
      "P": 49,
      "Q": 50,
      "R": 51,
      "S": 52,
      "T": 53,
      "U": 54,
      "V": 55,
      "W": 56,
      "X": 57,
      "Y": 58,
      "Z": 59,
      "[": 60,
      "\\": 61,
      "]": 62,
      "^": 63,
      "_": 64,
      "`": 65,
      "a": 66,
      "b": 67,
      "c": 68,
      "d": 69,
      "e": 70,
      "f": 71,
      "g": 72,
      "h": 73,
      "i": 74,
      "j": 75,
      "k": 76,
      "l": 77,
      "m": 78,
      "n": 79,
      "o": 80,
      "p": 81,
      "q": 82,
      "r": 83,
      "s": 84,
      "t": 85,
      "u": 86,
      "v": 87,
      "w": 88,
      "x": 89,
      "y": 90,
      "z": 91,
      "th": 92,
      "in": 93,
      "the": 94,
      "an": 95,
      "re": 96,
      "at": 97,
      "ou": 98,
      "on": 99,
      "er": 100,
      "is": 101,
      "to": 102,
      "en": 103,
      "al": 104,
      "ing": 105,
      "it": 106,
      "es": 107,
      "or": 108,
      "of": 109,
      "and": 110,
      "ar": 111,
      "as": 112,
      "ed": 113,
      "le": 114,
      "st": 115,
      "se": 116,
      "that": 117,
      "om": 118,
      "ic": 119,
      "he": 120,
      "we": 121,
      "you": 122,
      "ve": 123,
      "ow": 124,
      "be": 125,
      "ly": 126,
      "nd": 127,
      "ac": 128,
      "ion": 129,
      "wh": 130,
      "ha": 131,
      "ll": 132,
      "ent": 133,
      "ld": 134,
      "ut": 135,
      "me": 136,
      "ver": 137,
      "li": 138,
      "ot": 139,
      "ay": 140,
      "And": 141,
      "id": 142,
      "ch": 143,
      "this": 144,
      "ab": 145,
      "for": 146,
      "ro": 147,
      "ke": 148,
      "out": 149,
      "are": 150,
      "lo": 151,
      "ge": 152,
      "wi": 153,
      "gh": 154,
      "pe": 155,
      "all": 156,
      "ne": 157,
      "was": 158,
      "do": 159,
      "ri": 160,
      "go": 161,
      "ir": 162,
      "so": 163,
      "mo": 164,
      "ce": 165,
      "ad": 166,
      "ome": 167,
      "us": 168,
      "ally": 169,
      "im": 170,
      "fe": 171,
      "--": 172,
      "with": 173,
      "one": 174,
      "op": 175,
      "have": 176,
      "ter": 177,
      "ct": 178,
      "can": 179,
      "they": 180,
      "if": 181,
      "te": 182,
      "our": 183,
      "ation": 184,
      "de": 185,
      "The": 186,
      "am": 187,
      "wor": 188,
      "thing": 189,
      "ur": 190,
      "con": 191,
      "ght": 192,
      "what": 193,
      "So": 194,
      "tr": 195,
      "ul": 196,
      "now": 197,
      "very": 198,
      "ther": 199,
      "un": 200,
      "ould": 201,
      "ant": 202,
      "about": 203,
      "fr": 204,
      "ca": 205,
      "com": 206,
      "Th": 207,
      "act": 208,
      "per": 209,
      "not": 210,
      "ex": 211,
      "pro": 212,
      "art": 213,
      "ust": 214,
      "here": 215,
      "pl": 216,
      "il": 217,
      "od": 218,
      "use": 219,
      "some": 220,
      "ol": 221,
      "ain": 222,
      "my": 223,
      "there": 224,
      "ind": 225,
      "ure": 226,
      "We": 227,
      "ess": 228,
      "ig": 229,
      "um": 230,
      "sh": 231,
      "like": 232,
      "ok": 233,
      "up": 234,
      "ople": 235,
      "It": 236,
      "ate": 237,
      "ma": 238,
      "ity": 239,
      "people": 240,
      "from": 241,
      "est": 242,
      "but": 243,
      "ive": 244,
      "no": 245,
      "sa": 246,
      "qu": 247,
      "po": 248,
      "way": 249,
      "ye": 250,
      "ink": 251,
      "know": 252,
      "ci": 253,
      "ag": 254,
      "just": 255,
      "gr": 256,
      "cause": 257,
      "res": 258,
      "get": 259,
      "them": 260,
      "ti": 261,
      "any": 262,
      "ide": 263,
      "ill": 264,
      "ist": 265,
      "see": 266,
      "But": 267,
      "ers": 268,
      "these": 269,
      "think": 270,
      "ap": 271,
      "by": 272,
      "who": 273,
      "ans": 274,
      "alk": 275,
      "ich": 276,
      "ound": 277,
      "co": 278,
      "ren": 279,
      "going": 280,
      "ars": 281,
      "ment": 282,
      "ine": 283,
      "more": 284,
      "other": 285,
      "work": 286,
      "ort": 287,
      "end": 288,
      "when": 289,
      "your": 290,
      "had": 291,
      "et": 292,
      "because": 293,
      "red": 294,
      "su": 295,
      "ack": 296,
      "how": 297,
      "fo": 298,
      "00": 299,
      "Wh": 300,
      "which": 301,
      "sp": 302,
      "look": 303,
      "would": 304,
      "their": 305,
      "want": 306,
      "tor": 307,
      "really": 308,
      "ast": 309,
      "ard": 310,
      "were": 311,
      "ta": 312,
      "ous": 313,
      "ually": 314,
      "ble": 315,
      ".\"": 316,
      "ies": 317,
      "ev": 318,
      "own": 319,
      "time": 320,
      "em": 321,
      "ple": 322,
      "You": 323,
      "reat": 324,
      "age": 325,
      "world": 326,
      "br": 327,
      "has": 328,
      "where": 329,
      "ach": 330,
      "ace": 331,
      "then": 332,
      "day": 333,
      "iv": 334,
      "el": 335,
      "This": 336,
      "ough": 337,
      "don": 338,
      "pp": 339,
      "pr": 340,
      "ence": 341,
      "iz": 342,
      "able": 343,
      "ong": 344,
      "into": 345,
      "say": 346,
      "every": 347,
      "und": 348,
      "actually": 349,
      "ph": 350,
      "will": 351,
      "log": 352,
      "talk": 353,
      "could": 354,
      "ight": 355,
      "ions": 356,
      "cent": 357,
      "In": 358,
      "ild": 359,
      "things": 360,
      "bo": 361,
      "itt": 362,
      "years": 363,
      "Now": 364,
      "did": 365,
      "put": 366,
      "feren": 367,
      "wo": 368,
      "ie": 369,
      "pt": 370,
      "ud": 371,
      "ical": 372,
      "his": 373,
      "ose": 374,
      "right": 375,
      "They": 376,
      "sel": 377,
      "ite": 378,
      "than": 379,
      "new": 380,
      "happ": 381,
      "make": 382,
      "oun": 383,
      "been": 384,
      "dif": 385,
      "bu": 386,
      "ice": 387,
      "chan": 388,
      "dis": 389,
      "part": 390,
      "ree": 391,
      "ign": 392,
      "try": 393,
      "form": 394,
      "over": 395,
      "ass": 396,
      "most": 397,
      "need": 398,
      "start": 399,
      "back": 400,
      "said": 401,
      "He": 402,
      "sy": 403,
      "come": 404,
      "port": 405,
      "irst": 406,
      "got": 407,
      "something": 408,
      "des": 409,
      "str": 410,
      "ia": 411,
      "mu": 412,
      "kind": 413,
      "call": 414,
      "bl": 415,
      "two": 416,
      "ens": 417,
      "gu": 418,
      "much": 419,
      "ves": 420,
      "cl": 421,
      "ater": 422,
      "int": 423,
      "first": 424,
      "ittle": 425,
      "cr": 426,
      "she": 427,
      "king": 428,
      "differen": 429,
      "little": 430,
      "those": 431,
      "ult": 432,
      "ber": 433,
      "spe": 434,
      "life": 435,
      "af": 436,
      "lot": 437,
      "ving": 438,
      "also": 439,
      "ho": 440,
      "bod": 441,
      "That": 442,
      "pos": 443,
      "pre": 444,
      "bet": 445,
      "ish": 446,
      "thr": 447,
      "rest": 448,
      "uc": 449,
      "only": 450,
      "her": 451,
      "hum": 452,
      "gen": 453,
      "ob": 454,
      "ep": 455,
      "tell": 456,
      "cho": 457,
      "What": 458,
      "ful": 459,
      "ated": 460,
      "ty": 461,
      "si": 462,
      "cre": 463,
      "body": 464,
      "even": 465,
      "under": 466,
      "lear": 467,
      "its": 468,
      "ade": 469,
      "ED": 470,
      "many": 471,
      "tory": 472,
      "ect": 473,
      "take": 474,
      "coun": 475,
      "man": 476,
      "down": 477,
      "tech": 478,
      "self": 479,
      "les": 480,
      "real": 481,
      "through": 482,
      "TED": 483,
      "good": 484,
      "pres": 485,
      "ting": 486,
      "ra": 487,
      "different": 488,
      "ick": 489,
      "There": 490,
      "logy": 491,
      "uct": 492,
      "does": 493,
      "show": 494,
      "comm": 495,
      "cont": 496,
      "ict": 497,
      "around": 498,
      "stand": 499,
      "ue": 500,
      "son": 501,
      "ms": 502,
      "off": 503,
      "ase": 504,
      "als": 505,
      "hi": 506,
      "read": 507,
      "sci": 508,
      "ning": 509,
      "ank": 510,
      "vi": 511,
      "ought": 512,
      "let": 513,
      "being": 514,
      "cess": 515,
      "ents": 516,
      "ations": 517,
      "ord": 518,
      "tri": 519,
      "mar": 520,
      "ance": 521,
      "side": 522,
      "stem": 523,
      "wr": 524,
      "proble": 525,
      "fore": 526,
      "sur": 527,
      "happen": 528,
      "lect": 529,
      "ak": 530,
      "same": 531,
      "Well": 532,
      "ps": 533,
      "big": 534,
      "ts": 535,
      "ary": 536,
      "techno": 537,
      "ys": 538,
      "ics": 539,
      "ire": 540,
      "ject": 541,
      "human": 542,
      "urn": 543,
      "may": 544,
      "year": 545,
      "doing": 546,
      "system": 547,
      "ck": 548,
      "cri": 549,
      "great": 550,
      "ef": 551,
      "three": 552,
      "If": 553,
      "med": 554,
      "well": 555,
      "car": 556,
      "ically": 557,
      "build": 558,
      "find": 559,
      "ces": 560,
      "sto": 561,
      "fl": 562,
      "inter": 563,
      "comp": 564,
      "cond": 565,
      "ower": 566,
      "fa": 567,
      "fact": 568,
      "soci": 569,
      "child": 570,
      "design": 571,
      "ask": 572,
      "bit": 573,
      "ways": 574,
      "min": 575,
      "inte": 576,
      "cer": 577,
      "cour": 578,
      "long": 579,
      "percent": 580,
      "ser": 581,
      "called": 582,
      "less": 583,
      "xt": 584,
      "came": 585,
      "inv": 586,
      "la": 587,
      "sol": 588,
      "Ch": 589,
      "quest": 590,
      "ved": 591,
      "bi": 592,
      "light": 593,
      "stud": 594,
      "mer": 595,
      "sim": 596,
      "hel": 597,
      "ating": 598,
      "made": 599,
      "bas": 600,
      "ever": 601,
      "ual": 602,
      "col": 603,
      "again": 604,
      "exper": 605,
      "vers": 606,
      "play": 607,
      "change": 608,
      "old": 609,
      "mon": 610,
      "ip": 611,
      "creat": 612,
      "illion": 613,
      "wom": 614,
      "fin": 615,
      "sm": 616,
      "Be": 617,
      "tim": 618,
      "ave": 619,
      "why": 620,
      "arch": 621,
      "fect": 622,
      "should": 623,
      "brain": 624,
      "turn": 625,
      "ities": 626,
      "after": 627,
      "import": 628,
      "pa": 629,
      "ition": 630,
      "person": 631,
      "ven": 632,
      "ates": 633,
      "ger": 634,
      "ial": 635,
      "used": 636,
      "mean": 637,
      "technology": 638,
      "sha": 639,
      "plan": 640,
      "gan": 641,
      "thought": 642,
      "000": 643,
      "cal": 644,
      "idea": 645,
      "ica": 646,
      "ub": 647,
      "interest": 648,
      "dec": 649,
      "prod": 650,
      "point": 651,
      "sing": 652,
      "ry": 653,
      "alth": 654,
      "ond": 655,
      "feel": 656,
      "didn": 657,
      "today": 658,
      "him": 659,
      "last": 660,
      "story": 661,
      "important": 662,
      "power": 663,
      "went": 664,
      "trans": 665,
      "land": 666,
      "tain": 667,
      "Thank": 668,
      "?\"": 669,
      "high": 670,
      "ise": 671,
      "started": 672,
      "place": 673,
      "hand": 674,
      "water": 675,
      "exam": 676,
      "ize": 677,
      "ese": 678,
      "understand": 679,
      "vir": 680,
      "course": 681,
      "before": 682,
      "ile": 683,
      "ility": 684,
      "eng": 685,
      "beli": 686,
      "give": 687,
      "times": 688,
      "ame": 689,
      "kes": 690,
      "chool": 691,
      "bal": 692,
      "ss": 693,
      "might": 694,
      "pu": 695,
      "mem": 696,
      "bab": 697,
      "better": 698,
      "problem": 699,
      "ons": 700,
      "vis": 701,
      "ular": 702,
      "ists": 703,
      "cur": 704,
      "never": 705,
      "another": 706,
      "found": 707,
      "pol": 708,
      "atter": 709,
      "ution": 710,
      "kid": 711,
      "ago": 712,
      "ff": 713,
      "20": 714,
      "iness": 715,
      "help": 716,
      "care": 717,
      "10": 718,
      "inst": 719,
      "few": 720,
      "nat": 721,
      "ily": 722,
      "net": 723,
      "sort": 724,
      "fam": 725,
      "gether": 726,
      "school": 727,
      "commun": 728,
      "still": 729,
      "next": 730,
      "tit": 731,
      "velo": 732,
      "imag": 733,
      "ward": 734,
      "gy": 735,
      "az": 736,
      "together": 737,
      "19": 738,
      "comple": 739,
      "ense": 740,
      "book": 741,
      "learn": 742,
      "ors": 743,
      "dr": 744,
      "talks": 745,
      "num": 746,
      "How": 747,
      "each": 748,
      "ata": 749,
      "ian": 750,
      "av": 751,
      "che": 752,
      "too": 753,
      "atch": 754,
      "ween": 755,
      "aph": 756,
      "When": 757,
      "Tr": 758,
      "possi": 759,
      "ness": 760,
      "cell": 761,
      "cript": 762,
      "develo": 763,
      "cy": 764,
      "ience": 765,
      "bus": 766,
      ",\"": 767,
      "clo": 768,
      "Amer": 769,
      "love": 770,
      "gl": 771,
      "ited": 772,
      "ures": 773,
      "rel": 774,
      "between": 775,
      "looking": 776,
      "question": 777,
      "comput": 778,
      "women": 779,
      "comes": 780,
      "St": 781,
      "live": 782,
      "att": 783,
      "word": 784,
      "data": 785,
      "di": 786,
      "ear": 787,
      "cor": 788,
      "develop": 789,
      "four": 790,
      "..": 791,
      "grow": 792,
      "small": 793,
      "head": 794,
      "conom": 795,
      "done": 796,
      "ins": 797,
      "uni": 798,
      "Because": 799,
      "room": 800,
      "using": 801,
      "mind": 802,
      "par": 803,
      "move": 804,
      "example": 805,
      "mus": 806,
      "lar": 807,
      "health": 808,
      "vie": 809,
      "children": 810,
      "Talk": 811,
      "pri": 812,
      "partic": 813,
      "mom": 814,
      "line": 815,
      "econom": 816,
      "Afr": 817,
      "bot": 818,
      "ized": 819,
      "gener": 820,
      "ner": 821,
      "science": 822,
      "glo": 823,
      "ug": 824,
      "lim": 825,
      "fri": 826,
      "doesn": 827,
      "second": 828,
      "working": 829,
      "formation": 830,
      "chang": 831,
      "giv": 832,
      "reas": 833,
      "No": 834,
      "wanted": 835,
      "far": 836,
      "selves": 837,
      "ft": 838,
      "whole": 839,
      "ings": 840,
      "aut": 841,
      "set": 842,
      "sk": 843,
      "press": 844,
      "aren": 845,
      "bre": 846,
      "cept": 847,
      "ath": 848,
      "ks": 849,
      "million": 850,
      "ener": 851,
      "eve": 852,
      "ious": 853,
      "hard": 854,
      "led": 855,
      "anim": 856,
      "ific": 857,
      "oney": 858,
      "war": 859,
      "ism": 860,
      "ote": 861,
      "aw": 862,
      "ational": 863,
      "exp": 864,
      "gre": 865,
      "face": 866,
      "away": 867,
      "trying": 868,
      "oft": 869,
      "Trans": 870,
      "always": 871,
      "graph": 872,
      "ird": 873,
      "Un": 874,
      "top": 875,
      "friend": 876,
      "home": 877,
      "titles": 878,
      "ural": 879,
      "ments": 880,
      "Sub": 881,
      "ls": 882,
      "run": 883,
      "open": 884,
      "organ": 885,
      "ah": 886,
      "au": 887,
      "believe": 888,
      "50": 889,
      "mal": 890,
      "ross": 891,
      "Transcript": 892,
      "Subtitles": 893,
      "dri": 894,
      "sup": 895,
      "cult": 896,
      "ative": 897,
      "ters": 898,
      "coming": 899,
      "pict": 900,
      "lead": 901,
      "country": 902,
      "ones": 903,
      "issu": 904,
      "men": 905,
      "pect": 906,
      "mis": 907,
      "ute": 908,
      "fic": 909,
      "ris": 910,
      "space": 911,
      "search": 912,
      "ory": 913,
      "llow": 914,
      "kids": 915,
      "sub": 916,
      "add": 917,
      "business": 918,
      "five": 919,
      "hal": 920,
      "aces": 921,
      "food": 922,
      "doll": 923,
      "low": 924,
      "ket": 925,
      "nect": 926,
      "project": 927,
      "teach": 928,
      "speci": 929,
      "global": 930,
      "Ne": 931,
      "means": 932,
      "fut": 933,
      "fun": 934,
      "thinking": 935,
      "Ind": 936,
      "create": 937,
      "tre": 938,
      "information": 939,
      "ries": 940,
      "ress": 941,
      "gest": 942,
      "walk": 943,
      "took": 944,
      "money": 945,
      "val": 946,
      "maybe": 947,
      "elect": 948,
      "pret": 949,
      "One": 950,
      "making": 951,
      "My": 952,
      "process": 953,
      "ang": 954,
      "future": 955,
      "connect": 956,
      "everything": 957,
      "inc": 958,
      "energy": 959,
      "uff": 960,
      "view": 961,
      "ible": 962,
      "lan": 963,
      "leg": 964,
      "publ": 965,
      "become": 966,
      "social": 967,
      "air": 968,
      "number": 969,
      "product": 970,
      "vide": 971,
      "beg": 972,
      "ident": 973,
      "probab": 974,
      "left": 975,
      "contro": 976,
      "eas": 977,
      "gover": 978,
      "As": 979,
      "sense": 980,
      "enough": 981,
      "quite": 982,
      "struct": 983,
      "These": 984,
      "best": 985,
      "She": 986,
      "interesting": 987,
      "govern": 988,
      "building": 989,
      "getting": 990,
      "ouse": 991,
      "possible": 992,
      "half": 993,
      "ines": 994,
      "ash": 995,
      "ready": 996,
      "says": 997,
      "ship": 998,
      "cons": 999,
      "educ": 1000,
      "tries": 1001,
      "ital": 1002,
      "Is": 1003,
      "pie": 1004,
      "pho": 1005,
      "os": 1006,
      "ability": 1007,
      "allow": 1008,
      "iting": 1009,
      "resp": 1010,
      "viron": 1011,
      "bor": 1012,
      "tra": 1013,
      "ng": 1014,
      "cap": 1015,
      "mode": 1016,
      "Africa": 1017,
      "ican": 1018,
      "reg": 1019,
      "stuff": 1020,
      "ctor": 1021,
      "For": 1022,
      "probably": 1023,
      "fu": 1024,
      "Here": 1025,
      "month": 1026,
      "cle": 1027,
      "happened": 1028,
      "whe": 1029,
      "beaut": 1030,
      "ran": 1031,
      "grou": 1032,
      "talking": 1033,
      "mag": 1034,
      "pop": 1035,
      "mor": 1036,
      "cus": 1037,
      "environ": 1038,
      "200": 1039,
      "answ": 1040,
      "yes": 1041,
      "music": 1042,
      "lives": 1043,
      "planet": 1044,
      "makes": 1045,
      "ric": 1046,
      "Why": 1047,
      "moment": 1048,
      "wee": 1049,
      "gram": 1050,
      "ont": 1051,
      "pat": 1052,
      "keep": 1053,
      "sign": 1054,
      "ices": 1055,
      "oc": 1056,
      "told": 1057,
      "without": 1058,
      "Let": 1059,
      "verse": 1060,
      "An": 1061,
      "else": 1062,
      "ply": 1063,
      "sound": 1064,
      "ark": 1065,
      "met": 1066,
      "photo": 1067,
      "phys": 1068,
      "idd": 1069,
      "job": 1070,
      "scient": 1071,
      "ately": 1072,
      "vel": 1073,
      "prof": 1074,
      "dollars": 1075,
      "bad": 1076,
      "pass": 1077,
      "fig": 1078,
      "reason": 1079,
      "member": 1080,
      "ying": 1081,
      "All": 1082,
      "ering": 1083,
      "anything": 1084,
      "unt": 1085,
      "such": 1086,
      "countries": 1087,
      "hour": 1088,
      "jo": 1089,
      "hope": 1090,
      "bring": 1091,
      "char": 1092,
      "ction": 1093,
      "polit": 1094,
      "pretty": 1095,
      "ince": 1096,
      "ith": 1097,
      "seen": 1098,
      "across": 1099,
      "case": 1100,
      "present": 1101,
      "ants": 1102,
      "ention": 1103,
      "saw": 1104,
      "works": 1105,
      "simple": 1106,
      "wond": 1107,
      "sit": 1108,
      "nor": 1109,
      "paren": 1110,
      "uro": 1111,
      "environment": 1112,
      "goes": 1113,
      "io": 1114,
      "matter": 1115,
      "living": 1116,
      "mother": 1117,
      "plic": 1118,
      "wa": 1119,
      "langu": 1120,
      "30": 1121,
      "experience": 1122,
      "fort": 1123,
      "list": 1124,
      "olution": 1125,
      "ead": 1126,
      "uring": 1127,
      "New": 1128,
      "ality": 1129,
      "mach": 1130,
      "research": 1131,
      "ced": 1132,
      "while": 1133,
      "tom": 1134,
      "having": 1135,
      "ient": 1136,
      "ety": 1137,
      "effect": 1138,
      "particular": 1139,
      "fac": 1140,
      "pain": 1141,
      "happens": 1142,
      "Chin": 1143,
      "cam": 1144,
      "ided": 1145,
      "problems": 1146,
      "computer": 1147,
      "iter": 1148,
      "certain": 1149,
      "asked": 1150,
      "complete": 1151,
      "begin": 1152,
      "six": 1153,
      "Go": 1154,
      "days": 1155,
      "picture": 1156,
      "later": 1157,
      "stre": 1158,
      "ousand": 1159,
      "bio": 1160,
      "family": 1161,
      "Mo": 1162,
      "order": 1163,
      "ference": 1164,
      "Ear": 1165,
      "tem": 1166,
      "Con": 1167,
      "ivity": 1168,
      "thousand": 1169,
      "Se": 1170,
      "Inter": 1171,
      "culture": 1172,
      "cou": 1173,
      "cha": 1174,
      "aster": 1175,
      "city": 1176,
      "young": 1177,
      "single": 1178,
      "history": 1179,
      "Ar": 1180,
      "equ": 1181,
      "ilt": 1182,
      "ili": 1183,
      "inside": 1184,
      "suc": 1185,
      "watch": 1186,
      "main": 1187,
      "iful": 1188,
      "disco": 1189,
      "amaz": 1190,
      "ideas": 1191,
      "bro": 1192,
      "class": 1193,
      "treat": 1194,
      "Some": 1195,
      "basically": 1196,
      "blo": 1197,
      "hear": 1198,
      "sure": 1199,
      "cul": 1200,
      "cord": 1201,
      "test": 1202,
      "uce": 1203,
      "yet": 1204,
      "heart": 1205,
      "ages": 1206,
      "saying": 1207,
      "Earth": 1208,
      "contin": 1209,
      "serv": 1210,
      "public": 1211,
      "once": 1212,
      "fil": 1213,
      "expl": 1214,
      "dist": 1215,
      "billion": 1216,
      "almost": 1217,
      "cost": 1218,
      "state": 1219,
      "oper": 1220,
      "program": 1221,
      "wrong": 1222,
      "acy": 1223,
      "unch": 1224,
      "education": 1225,
      "ously": 1226,
      "guy": 1227,
      "night": 1228,
      "ivid": 1229,
      "looks": 1230,
      "both": 1231,
      "uck": 1232,
      "gn": 1233,
      "bed": 1234,
      "ken": 1235,
      "front": 1236,
      "house": 1237,
      "answer": 1238,
      "Al": 1239,
      "true": 1240,
      "dep": 1241,
      "ib": 1242,
      "beautiful": 1243,
      "mil": 1244,
      "dire": 1245,
      "incred": 1246,
      "wonder": 1247,
      "fish": 1248,
      "kill": 1249,
      "gir": 1250,
      "Do": 1251,
      "within": 1252,
      "looked": 1253,
      "whether": 1254,
      "ury": 1255,
      "100": 1256,
      "ied": 1257,
      "heard": 1258,
      "language": 1259,
      "already": 1260,
      "amazing": 1261,
      "exact": 1262,
      "community": 1263,
      "nothing": 1264,
      "mater": 1265,
      "ground": 1266,
      "pris": 1267,
      "cancer": 1268,
      "someone": 1269,
      "large": 1270,
      "hy": 1271,
      "engine": 1272,
      "often": 1273,
      "den": 1274,
      "remember": 1275,
      "mic": 1276,
      "itive": 1277,
      "ield": 1278,
      "gets": 1279,
      "built": 1280,
      "piece": 1281,
      "action": 1282,
      "robot": 1283,
      "words": 1284,
      "video": 1285,
      "nam": 1286,
      "chall": 1287,
      "oh": 1288,
      "hold": 1289,
      "cells": 1290,
      "figure": 1291,
      "ush": 1292,
      "law": 1293,
      "ator": 1294,
      "ulation": 1295,
      "myself": 1296,
      "imagine": 1297,
      "dev": 1298,
      "hu": 1299,
      "iddle": 1300,
      "cut": 1301,
      "nature": 1302,
      "government": 1303,
      "pay": 1304,
      "adv": 1305,
      "undred": 1306,
      "universe": 1307,
      "free": 1308,
      "control": 1309,
      "species": 1310,
      "ix": 1311,
      "cu": 1312,
      "stories": 1313,
      "Pe": 1314,
      "...": 1315,
      "scal": 1316,
      "appro": 1317,
      "Br": 1318,
      "hundred": 1319,
      "individ": 1320,
      "animals": 1321,
      "inno": 1322,
      "result": 1323,
      "oce": 1324,
      "follow": 1325,
      "prot": 1326,
      "train": 1327,
      "bers": 1328,
      "vo": 1329,
      "United": 1330,
      "months": 1331,
      "couple": 1332,
      "places": 1333,
      "aud": 1334,
      "Or": 1335,
      "ted": 1336,
      "group": 1337,
      "utes": 1338,
      "At": 1339,
      "OK": 1340,
      "imp": 1341,
      "ization": 1342,
      "incre": 1343,
      "taking": 1344,
      "der": 1345,
      "dro": 1346,
      "beha": 1347,
      "Internet": 1348,
      "must": 1349,
      "entire": 1350,
      "que": 1351,
      "tru": 1352,
      "everybody": 1353,
      "clear": 1354,
      "Ok": 1355,
      "fre": 1356,
      "fund": 1357,
      "atic": 1358,
      "though": 1359,
      "India": 1360,
      "model": 1361,
      "issues": 1362,
      "ues": 1363,
      "until": 1364,
      "ail": 1365,
      "tool": 1366,
      "object": 1367,
      "On": 1368,
      "level": 1369,
      "key": 1370,
      "ton": 1371,
      "lab": 1372,
      "isn": 1373,
      "experim": 1374,
      "clim": 1375,
      "won": 1376,
      "fly": 1377,
      "wind": 1378,
      "demo": 1379,
      "wasn": 1380,
      "behavi": 1381,
      "name": 1382,
      "Every": 1383,
      "deal": 1384,
      "quick": 1385,
      "society": 1386,
      "completely": 1387,
      "share": 1388,
      "friends": 1389,
      "success": 1390,
      "game": 1391,
      "igh": 1392,
      "sion": 1393,
      "complex": 1394,
      "third": 1395,
      "God": 1396,
      "ien": 1397,
      "15": 1398,
      "enter": 1399,
      "decided": 1400,
      "itself": 1401,
      "ional": 1402,
      "exactly": 1403,
      "outh": 1404,
      "acter": 1405,
      "stop": 1406,
      "meet": 1407,
      "ped": 1408,
      "arr": 1409,
      "appe": 1410,
      "tors": 1411,
      "systems": 1412,
      "since": 1413,
      "sho": 1414,
      "uses": 1415,
      "raw": 1416,
      "happening": 1417,
      "close": 1418,
      "exc": 1419,
      "cogn": 1420,
      "fully": 1421,
      "Can": 1422,
      "coll": 1423,
      "huge": 1424,
      "spend": 1425,
      "mass": 1426,
      "became": 1427,
      "students": 1428,
      "woman": 1429,
      "market": 1430,
      "learned": 1431,
      "America": 1432,
      "ming": 1433,
      "ourselves": 1434,
      "kinds": 1435,
      "ling": 1436,
      "mess": 1437,
      "themselves": 1438,
      "versity": 1439,
      "Okay": 1440,
      "NA": 1441,
      "States": 1442,
      "minutes": 1443,
      "innov": 1444,
      "turns": 1445,
      "ier": 1446,
      "ste": 1447,
      "phone": 1448,
      "ease": 1449,
      "past": 1450,
      "questions": 1451,
      "study": 1452,
      "national": 1453,
      "company": 1454,
      "American": 1455,
      "relation": 1456,
      "indust": 1457,
      "against": 1458,
      "respon": 1459,
      "rad": 1460,
      "along": 1461,
      "happy": 1462,
      "ze": 1463,
      "ake": 1464,
      "knew": 1465,
      "perform": 1466,
      "rather": 1467,
      "ples": 1468,
      "En": 1469,
      "collect": 1470,
      "somebody": 1471,
      "created": 1472,
      "por": 1473,
      "ots": 1474,
      "field": 1475,
      "paper": 1476,
      "pred": 1477,
      "ats": 1478,
      "portun": 1479,
      "hours": 1480,
      "logical": 1481,
      "opportun": 1482,
      "itting": 1483,
      "disease": 1484,
      "reli": 1485,
      "var": 1486,
      "worked": 1487,
      "ature": 1488,
      "haps": 1489,
      "news": 1490,
      "Oh": 1491,
      "psy": 1492,
      "others": 1493,
      "speak": 1494,
      "fer": 1495,
      "flu": 1496,
      "ork": 1497,
      "Then": 1498,
      "expect": 1499,
      "shows": 1500,
      "team": 1501,
      "step": 1502,
      "century": 1503,
      "lt": 1504,
      "natural": 1505,
      "depend": 1506,
      "guys": 1507,
      "ban": 1508,
      "dom": 1509,
      "tin": 1510,
      "deep": 1511,
      "death": 1512,
      "istic": 1513,
      "cir": 1514,
      "meas": 1515,
      "sometimes": 1516,
      "spect": 1517,
      "based": 1518,
      "vision": 1519,
      "ished": 1520,
      "Euro": 1521,
      "bs": 1522,
      "oil": 1523,
      "explain": 1524,
      "amoun": 1525,
      "To": 1526,
      "couldn": 1527,
      "liter": 1528,
      "pot": 1529,
      "least": 1530,
      "seven": 1531,
      "everyone": 1532,
      "De": 1533,
      "har": 1534,
      "text": 1535,
      "learning": 1536,
      "wards": 1537,
      "dig": 1538,
      "father": 1539,
      "green": 1540,
      "communic": 1541,
      "fall": 1542,
      "sc": 1543,
      "turned": 1544,
      "gave": 1545,
      "trad": 1546,
      "early": 1547,
      "ele": 1548,
      "diffic": 1549,
      "break": 1550,
      "protect": 1551,
      "ared": 1552,
      "known": 1553,
      "itect": 1554,
      "viol": 1555,
      "mill": 1556,
      "neur": 1557,
      "moving": 1558,
      "40": 1559,
      "hor": 1560,
      "pur": 1561,
      "sens": 1562,
      "thousands": 1563,
      "Li": 1564,
      "posed": 1565,
      "hind": 1566,
      "vered": 1567,
      "short": 1568,
      "behavior": 1569,
      "ians": 1570,
      "win": 1571,
      "sex": 1572,
      "non": 1573,
      "tail": 1574,
      "ives": 1575,
      "fail": 1576,
      "Lo": 1577,
      "lots": 1578,
      "ordin": 1579,
      "difficult": 1580,
      "full": 1581,
      "Re": 1582,
      "instead": 1583,
      "machine": 1584,
      "evolution": 1585,
      "ror": 1586,
      "ider": 1587,
      "typ": 1588,
      "jour": 1589,
      "listen": 1590,
      "record": 1591,
      "invest": 1592,
      "changed": 1593,
      "og": 1594,
      "takes": 1595,
      "scale": 1596,
      "Europe": 1597,
      "York": 1598,
      "aring": 1599,
      "ential": 1600,
      "outside": 1601,
      "dre": 1602,
      "patter": 1603,
      "taken": 1604,
      "China": 1605,
      "exist": 1606,
      "difference": 1607,
      "drug": 1608,
      "squ": 1609,
      "sug": 1610,
      "black": 1611,
      "incl": 1612,
      "powerful": 1613,
      "pattern": 1614,
      "ames": 1615,
      "architect": 1616,
      "Af": 1617,
      "ither": 1618,
      "explo": 1619,
      "recent": 1620,
      "ster": 1621,
      "60": 1622,
      "cities": 1623,
      "local": 1624,
      "18": 1625,
      "sour": 1626,
      "Conference": 1627,
      "12": 1628,
      "eyes": 1629,
      "middle": 1630,
      "draw": 1631,
      "foot": 1632,
      "pped": 1633,
      "pract": 1634,
      "given": 1635,
      "week": 1636,
      "flo": 1637,
      "ially": 1638,
      "area": 1639,
      "aged": 1640,
      "personal": 1641,
      "oud": 1642,
      "astic": 1643,
      "tend": 1644,
      "photograph": 1645,
      "ases": 1646,
      "behind": 1647,
      "issue": 1648,
      "parents": 1649,
      "sent": 1650,
      "size": 1651,
      "force": 1652,
      "beginning": 1653,
      "Fr": 1654,
      "ax": 1655,
      "ances": 1656,
      "tot": 1657,
      "super": 1658,
      "media": 1659,
      "street": 1660,
      "wit": 1661,
      "lay": 1662,
      "parts": 1663,
      "common": 1664,
      "compan": 1665,
      "sym": 1666,
      "colle": 1667,
      "wonderful": 1668,
      "ument": 1669,
      "path": 1670,
      "ral": 1671,
      "reach": 1672,
      "yourself": 1673,
      "ocean": 1674,
      "Le": 1675,
      "ben": 1676,
      "sequ": 1677,
      "decis": 1678,
      "olved": 1679,
      "needs": 1680,
      "population": 1681,
      "support": 1682,
      "leave": 1683,
      "era": 1684,
      "soft": 1685,
      "lling": 1686,
      "seeing": 1687,
      "perhaps": 1688,
      "spir": 1689,
      "blue": 1690,
      "obvi": 1691,
      "easy": 1692,
      "jor": 1693,
      "hands": 1694,
      "perfect": 1695,
      "Nor": 1696,
      "terms": 1697,
      "grad": 1698,
      "sum": 1699,
      "acc": 1700,
      "began": 1701,
      "box": 1702,
      "dream": 1703,
      "verage": 1704,
      "grand": 1705,
      "solute": 1706,
      "image": 1707,
      "ude": 1708,
      "eight": 1709,
      "impro": 1710,
      "board": 1711,
      "knowled": 1712,
      "sun": 1713,
      "finally": 1714,
      "economic": 1715,
      "ange": 1716,
      "utions": 1717,
      "pose": 1718,
      "telling": 1719,
      "micro": 1720,
      "Ye": 1721,
      "famili": 1722,
      "dan": 1723,
      "event": 1724,
      "bar": 1725,
      "during": 1726,
      "emot": 1727,
      "extra": 1728,
      "une": 1729,
      "cannot": 1730,
      "tract": 1731,
      "extre": 1732,
      "cial": 1733,
      "needed": 1734,
      "sed": 1735,
      "access": 1736,
      "whatever": 1737,
      "books": 1738,
      "amount": 1739,
      "major": 1740,
      "ients": 1741,
      "idence": 1742,
      "realized": 1743,
      "possib": 1744,
      "doctor": 1745,
      "defin": 1746,
      "dark": 1747,
      "eat": 1748,
      "ired": 1749,
      "mark": 1750,
      "fast": 1751,
      "nal": 1752,
      "wall": 1753,
      "stage": 1754,
      "longer": 1755,
      "vol": 1756,
      "simply": 1757,
      "road": 1758,
      "interested": 1759,
      "People": 1760,
      "Just": 1761,
      "cop": 1762,
      "pick": 1763,
      "compe": 1764,
      "feed": 1765,
      "ribut": 1766,
      "growth": 1767,
      "ather": 1768,
      "row": 1769,
      "ware": 1770,
      "poor": 1771,
      "strong": 1772,
      "companies": 1773,
      "resour": 1774,
      "bon": 1775,
      "pen": 1776,
      "ny": 1777,
      "ron": 1778,
      "ten": 1779,
      "conv": 1780,
      "humans": 1781,
      "gone": 1782,
      "forward": 1783,
      "plant": 1784,
      "buy": 1785,
      "stay": 1786,
      "ties": 1787,
      "ball": 1788,
      "ging": 1789,
      "rate": 1790,
      "absolute": 1791,
      "hood": 1792,
      "scre": 1793,
      "surv": 1794,
      "situ": 1795,
      "experiment": 1796,
      "orig": 1797,
      "born": 1798,
      "lands": 1799,
      "value": 1800,
      "knowledge": 1801,
      "itions": 1802,
      "ney": 1803,
      "rent": 1804,
      "tried": 1805,
      "felt": 1806,
      "film": 1807,
      "Wor": 1808,
      "ilar": 1809,
      "democr": 1810,
      "bri": 1811,
      "quickly": 1812,
      "80": 1813,
      "DNA": 1814,
      "ination": 1815,
      "ides": 1816,
      "ustain": 1817,
      "cool": 1818,
      "ended": 1819,
      "recogn": 1820,
      "app": 1821,
      "tow": 1822,
      "worth": 1823,
      "spent": 1824,
      "reality": 1825,
      "ler": 1826,
      "medi": 1827,
      "send": 1828,
      "ament": 1829,
      "forest": 1830,
      "type": 1831,
      "approach": 1832,
      "solution": 1833,
      "May": 1834,
      "trave": 1835,
      "special": 1836,
      "Right": 1837,
      "fight": 1838,
      "aking": 1839,
      "prom": 1840,
      "technolog": 1841,
      "medic": 1842,
      "consum": 1843,
      "Not": 1844,
      "gs": 1845,
      "feet": 1846,
      "weeks": 1847,
      "ried": 1848,
      "safe": 1849,
      "produc": 1850,
      "rain": 1851,
      "lost": 1852,
      "Chris": 1853,
      "sustain": 1854,
      "opportunity": 1855,
      "sis": 1856,
      "write": 1857,
      "structure": 1858,
      "sil": 1859,
      "cks": 1860,
      "ills": 1861,
      "climate": 1862,
      "flow": 1863,
      "Yeah": 1864,
      "Yes": 1865,
      "aid": 1866,
      "ford": 1867,
      "predict": 1868,
      "sitting": 1869,
      "term": 1870,
      "economy": 1871,
      "ouch": 1872,
      "mot": 1873,
      "slow": 1874,
      "sea": 1875,
      "changes": 1876,
      "giving": 1877,
      "CA": 1878,
      "ane": 1879,
      "sli": 1880,
      "tic": 1881,
      "vent": 1882,
      "anal": 1883,
      "emp": 1884,
      "ni": 1885,
      "ators": 1886,
      "enge": 1887,
      "near": 1888,
      "interact": 1889,
      "lies": 1890,
      "areas": 1891,
      "either": 1892,
      "direct": 1893,
      "girl": 1894,
      "political": 1895,
      "moder": 1896,
      "Ro": 1897,
      "invent": 1898,
      "animal": 1899,
      "measure": 1900,
      "extreme": 1901,
      "fine": 1902,
      "incredible": 1903,
      "impact": 1904,
      "comb": 1905,
      "ively": 1906,
      "attention": 1907,
      "growing": 1908,
      "dden": 1909,
      "World": 1910,
      "surface": 1911,
      "ero": 1912,
      "ery": 1913,
      "quality": 1914,
      "sudden": 1915,
      "bottom": 1916,
      "Mar": 1917,
      "brought": 1918,
      "spec": 1919,
      "profess": 1920,
      "dam": 1921,
      "relig": 1922,
      "ught": 1923,
      "terri": 1924,
      "suggest": 1925,
      "Bo": 1926,
      "rich": 1927,
      "images": 1928,
      "glish": 1929,
      "English": 1930,
      "die": 1931,
      "ined": 1932,
      "wouldn": 1933,
      "blood": 1934,
      "challenge": 1935,
      "mole": 1936,
      "map": 1937,
      "crit": 1938,
      "gives": 1939,
      "nice": 1940,
      "shi": 1941,
      "solve": 1942,
      "meaning": 1943,
      "numbers": 1944,
      "ged": 1945,
      "individual": 1946,
      "ials": 1947,
      "theory": 1948,
      "aging": 1949,
      "surpris": 1950,
      "developed": 1951,
      "scientists": 1952,
      "consci": 1953,
      "realize": 1954,
      "compass": 1955,
      "Ste": 1956,
      "eye": 1957,
      "hot": 1958,
      "ring": 1959,
      "vor": 1960,
      "visual": 1961,
      "gain": 1962,
      "arm": 1963,
      "technologies": 1964,
      "bur": 1965,
      "abor": 1966,
      "print": 1967,
      "tellig": 1968,
      "electric": 1969,
      "material": 1970,
      "izing": 1971,
      "risk": 1972,
      "stat": 1973,
      "lled": 1974,
      "liz": 1975,
      "ump": 1976,
      "understanding": 1977,
      "physical": 1978,
      "audience": 1979,
      "vill": 1980,
      "post": 1981,
      "feeling": 1982,
      "modern": 1983,
      "chem": 1984,
      "average": 1985,
      "card": 1986,
      "ned": 1987,
      "wish": 1988,
      "spread": 1989,
      "wrote": 1990,
      "11": 1991,
      "dim": 1992,
      "emer": 1993,
      "playing": 1994,
      "morning": 1995,
      "innovation": 1996,
      "psycho": 1997,
      "ordinary": 1998,
      "bes": 1999,
      "development": 2000,
      "ene": 2001,
      "white": 2002,
      "entially": 2003,
      "poll": 2004,
      "creating": 2005,
      "fair": 2006,
      "tele": 2007,
      "color": 2008,
      "changing": 2009,
      "din": 2010,
      "produce": 2011,
      "tools": 2012,
      "ox": 2013,
      "astr": 2014,
      "track": 2015,
      "peri": 2016,
      "Our": 2017,
      "With": 2018,
      "fur": 2019,
      "song": 2020,
      "touch": 2021,
      "ony": 2022,
      "dead": 2023,
      "concept": 2024,
      "serious": 2025,
      "instit": 2026,
      "normal": 2027,
      "gress": 2028,
      "rele": 2029,
      "seems": 2030,
      "wood": 2031,
      "starting": 2032,
      "patients": 2033,
      "tradition": 2034,
      "ley": 2035,
      "soon": 2036,
      "descri": 2037,
      "rev": 2038,
      "focus": 2039,
      "position": 2040,
      "running": 2041,
      "Joh": 2042,
      "fill": 2043,
      "intellig": 2044,
      "sphere": 2045,
      "90": 2046,
      "fear": 2047,
      "miles": 2048,
      "anyone": 2049,
      "Co": 2050,
      "Don": 2051,
      "hon": 2052,
      "rul": 2053,
      "soph": 2054,
      "favor": 2055,
      "ibly": 2056,
      "likely": 2057,
      "hosp": 2058,
      "count": 2059,
      "computers": 2060,
      "alone": 2061,
      "conf": 2062,
      "literally": 2063,
      "avail": 2064,
      "bird": 2065,
      "thank": 2066,
      "joy": 2067,
      "includ": 2068,
      "pan": 2069,
      "requ": 2070,
      "similar": 2071,
      "compassion": 2072,
      "ensive": 2073,
      "fire": 2074,
      "center": 2075,
      "discovered": 2076,
      "eth": 2077,
      "loc": 2078,
      "forms": 2079,
      "cars": 2080,
      "ore": 2081,
      "ades": 2082,
      "activ": 2083,
      "cially": 2084,
      "writing": 2085,
      "peace": 2086,
      "rial": 2087,
      "fortun": 2088,
      "round": 2089,
      "represent": 2090,
      "icy": 2091,
      "hundreds": 2092,
      "25": 2093,
      "guess": 2094,
      "Where": 2095,
      "millions": 2096,
      "kets": 2097,
      "proper": 2098,
      "generation": 2099,
      "gas": 2100,
      "asking": 2101,
      "omen": 2102,
      "neigh": 2103,
      "patient": 2104,
      "ches": 2105,
      "moved": 2106,
      "cing": 2107,
      "amp": 2108,
      "pression": 2109,
      "Ge": 2110,
      "uals": 2111,
      "benef": 2112,
      "online": 2113,
      "band": 2114,
      "mathem": 2115,
      "70": 2116,
      "gal": 2117,
      "gor": 2118,
      "ilo": 2119,
      "iant": 2120,
      "affect": 2121,
      "truth": 2122,
      "ilities": 2123,
      "lines": 2124,
      "rod": 2125,
      "dy": 2126,
      "tar": 2127,
      "ref": 2128,
      "movement": 2129,
      "Look": 2130,
      "developing": 2131,
      "function": 2132,
      "late": 2133,
      "asing": 2134,
      "bey": 2135,
      "source": 2136,
      "John": 2137,
      "div": 2138,
      "male": 2139,
      "ale": 2140,
      "prov": 2141,
      "voice": 2142,
      "relationship": 2143,
      "designed": 2144,
      "experien": 2145,
      "curity": 2146,
      "town": 2147,
      "smart": 2148,
      "fundament": 2149,
      "By": 2150,
      "Man": 2151,
      "mul": 2152,
      "trust": 2153,
      "seem": 2154,
      "shape": 2155,
      "responsi": 2156,
      "absolutely": 2157,
      "ses": 2158,
      "onto": 2159,
      "icans": 2160,
      "knows": 2161,
      "ountain": 2162,
      "carbon": 2163,
      "current": 2164,
      "asc": 2165,
      "among": 2166,
      "strate": 2167,
      "showed": 2168,
      "connected": 2169,
      "thor": 2170,
      "rid": 2171,
      "rup": 2172,
      "rop": 2173,
      "available": 2174,
      "door": 2175,
      "tern": 2176,
      "talked": 2177,
      "South": 2178,
      "dest": 2179,
      "sold": 2180,
      "cover": 2181,
      "incredibly": 2182,
      "ences": 2183,
      "priv": 2184,
      "conscious": 2185,
      "dimens": 2186,
      "ouble": 2187,
      "sever": 2188,
      "subject": 2189,
      "industry": 2190,
      "table": 2191,
      "speed": 2192,
      "attack": 2193,
      "drive": 2194,
      "tiny": 2195,
      "recently": 2196,
      "ru": 2197,
      "sat": 2198,
      "ased": 2199,
      "chance": 2200,
      "resources": 2201,
      "nuc": 2202,
      "ali": 2203,
      "medical": 2204,
      "network": 2205,
      "pping": 2206,
      "concer": 2207,
      "situation": 2208,
      "cli": 2209,
      "rece": 2210,
      "convers": 2211,
      "save": 2212,
      "period": 2213,
      "transform": 2214,
      "collabor": 2215,
      "violence": 2216,
      "software": 2217,
      "origin": 2218,
      "beyond": 2219,
      "multi": 2220,
      "push": 2221,
      "solar": 2222,
      "baby": 2223,
      "Sh": 2224,
      "sl": 2225,
      "ugh": 2226,
      "lived": 2227,
      "bigger": 2228,
      "usion": 2229,
      "pictures": 2230,
      "inci": 2231,
      "evidence": 2232,
      "happiness": 2233,
      "revolution": 2234,
      "ows": 2235,
      "putting": 2236,
      "message": 2237,
      "bacter": 2238,
      "ana": 2239,
      "ites": 2240,
      "construct": 2241,
      "genet": 2242,
      "Goog": 2243,
      "becomes": 2244,
      "tells": 2245,
      "iction": 2246,
      "medicine": 2247,
      "Car": 2248,
      "ado": 2249,
      "espe": 2250,
      "reasons": 2251,
      "rules": 2252,
      "especially": 2253,
      "haven": 2254,
      "necess": 2255,
      "eco": 2256,
      "Ho": 2257,
      "link": 2258,
      "Chinese": 2259,
      "challeng": 2260,
      "Google": 2261,
      "phen": 2262,
      "passion": 2263,
      "Com": 2264,
      "Po": 2265,
      "choice": 2266,
      "aware": 2267,
      "biology": 2268,
      "except": 2269,
      "leader": 2270,
      "entertain": 2271,
      "Who": 2272,
      "sounds": 2273,
      "materials": 2274,
      "hit": 2275,
      "girls": 2276,
      "several": 2277,
      "nine": 2278,
      "respond": 2279,
      "Of": 2280,
      "ges": 2281,
      "iss": 2282,
      "load": 2283,
      "pover": 2284,
      "flict": 2285,
      "laugh": 2286,
      "groups": 2287,
      "danger": 2288,
      "gent": 2289,
      "involved": 2290,
      "mp": 2291,
      "mers": 2292,
      "ift": 2293,
      "device": 2294,
      "screen": 2295,
      "died": 2296,
      "general": 2297,
      "scientific": 2298,
      "mechan": 2299,
      "istan": 2300,
      "ival": 2301,
      "Inst": 2302,
      "potential": 2303,
      "oid": 2304,
      "inde": 2305,
      "fold": 2306,
      "syn": 2307,
      "games": 2308,
      "digital": 2309,
      "ships": 2310,
      "fant": 2311,
      "sle": 2312,
      "tur": 2313,
      "sect": 2314,
      "security": 2315,
      "abo": 2316,
      "const": 2317,
      "mission": 2318,
      "fing": 2319,
      "sal": 2320,
      "towards": 2321,
      "effic": 2322,
      "politics": 2323,
      "stick": 2324,
      "plants": 2325,
      "basic": 2326,
      "lex": 2327,
      "ably": 2328,
      "schools": 2329,
      "chemical": 2330,
      "poverty": 2331,
      "believ": 2332,
      "teachers": 2333,
      "suff": 2334,
      "cris": 2335,
      "minute": 2336,
      "First": 2337,
      "mand": 2338,
      "rand": 2339,
      "tion": 2340,
      "ai": 2341,
      "bir": 2342,
      "vert": 2343,
      "kept": 2344,
      "mail": 2345,
      "Maybe": 2346,
      "ech": 2347,
      "smo": 2348,
      "brid": 2349,
      "brains": 2350,
      "projects": 2351,
      "walking": 2352,
      "wide": 2353,
      "deli": 2354,
      "avid": 2355,
      "character": 2356,
      "Fe": 2357,
      "office": 2358,
      "particularly": 2359,
      "IV": 2360,
      "itary": 2361,
      "journey": 2362,
      "ann": 2363,
      "vari": 2364,
      "aim": 2365,
      "secre": 2366,
      "web": 2367,
      "positive": 2368,
      "examples": 2369,
      "Ph": 2370,
      "report": 2371,
      "starts": 2372,
      "rais": 2373,
      "creative": 2374,
      "virt": 2375,
      "memory": 2376,
      "iversity": 2377,
      "threat": 2378,
      "ency": 2379,
      "conflict": 2380,
      "ung": 2381,
      "wants": 2382,
      "creativity": 2383,
      "clean": 2384,
      "Any": 2385,
      "architecture": 2386,
      "After": 2387,
      "further": 2388,
      "detail": 2389,
      "biggest": 2390,
      "lose": 2391,
      "range": 2392,
      "David": 2393,
      "anybody": 2394,
      "carry": 2395,
      "largest": 2396,
      "obviously": 2397,
      "mit": 2398,
      "mine": 2399,
      "terror": 2400,
      "performance": 2401,
      "democracy": 2402,
      "birth": 2403,
      "fix": 2404,
      "sor": 2405,
      "pers": 2406,
      "boy": 2407,
      "introd": 2408,
      "genes": 2409,
      "arts": 2410,
      "camera": 2411,
      "rap": 2412,
      "activity": 2413,
      "princi": 2414,
      "occur": 2415,
      "results": 2416,
      "tle": 2417,
      "moral": 2418,
      "certainly": 2419,
      "Har": 2420,
      "urban": 2421,
      "showing": 2422,
      "leaders": 2423,
      "totally": 2424,
      "mental": 2425,
      "pair": 2426,
      "jobs": 2427,
      "ium": 2428,
      "sell": 2429,
      "accept": 2430,
      "capital": 2431,
      "fuel": 2432,
      "student": 2433,
      "Brit": 2434,
      "tw": 2435,
      "remain": 2436,
      "notice": 2437,
      "trees": 2438,
      "mountain": 2439,
      "pack": 2440,
      "ham": 2441,
      "antic": 2442,
      "complic": 2443,
      "progress": 2444,
      "okay": 2445,
      "ption": 2446,
      "Mic": 2447,
      "lea": 2448,
      "antly": 2449,
      "HIV": 2450,
      "sem": 2451,
      "imate": 2452,
      "skin": 2453,
      "teacher": 2454,
      "exciting": 2455,
      "everywhere": 2456,
      "nuclear": 2457,
      "cit": 2458,
      "da": 2459,
      "ik": 2460,
      "sand": 2461,
      "role": 2462,
      "apan": 2463,
      "blind": 2464,
      "standing": 2465,
      "standard": 2466,
      "African": 2467,
      "author": 2468,
      "Japan": 2469,
      "sess": 2470,
      "zero": 2471,
      "arg": 2472,
      "icle": 2473,
      "neuro": 2474,
      "nobody": 2475,
      "ived": 2476,
      "craz": 2477,
      "North": 2478,
      "comfort": 2479,
      "particip": 2480,
      "sky": 2481,
      "500": 2482,
      "sco": 2483,
      "ina": 2484,
      "perspect": 2485,
      "math": 2486,
      "logist": 2487,
      "allowed": 2488,
      "legal": 2489,
      "discover": 2490,
      "named": 2491,
      "entertainment": 2492,
      "loy": 2493,
      "extremely": 2494,
      "War": 2495,
      "rect": 2496,
      "finding": 2497,
      "physics": 2498,
      "watching": 2499,
      "prison": 2500,
      "village": 2501,
      "meant": 2502,
      "cape": 2503,
      "Most": 2504,
      "zz": 2505,
      "ama": 2506,
      "clin": 2507,
      "products": 2508,
      "consider": 2509,
      "models": 2510,
      "objects": 2511,
      "mathemat": 2512,
      "star": 2513,
      "mobi": 2514,
      "fasc": 2515,
      "waste": 2516,
      "diag": 2517,
      "favorite": 2518,
      "weight": 2519,
      "itten": 2520,
      "calcul": 2521,
      "grew": 2522,
      "Are": 2523,
      "agree": 2524,
      "code": 2525,
      "discus": 2526,
      "version": 2527,
      "improve": 2528,
      "suddenly": 2529,
      "ime": 2530,
      "stri": 2531,
      "points": 2532,
      "earli": 2533,
      "bom": 2534,
      "remark": 2535,
      "movie": 2536,
      "apart": 2537,
      "minds": 2538,
      "neighbor": 2539,
      "citiz": 2540,
      "tens": 2541,
      "buildings": 2542,
      "supposed": 2543,
      "hospital": 2544,
      "fortunately": 2545,
      "Ex": 2546,
      "Even": 2547,
      "West": 2548,
      "mir": 2549,
      "wild": 2550,
      "goal": 2551,
      "response": 2552,
      "bul": 2553,
      "context": 2554,
      "shop": 2555,
      "taught": 2556,
      "launch": 2557,
      "augh": 2558,
      "robots": 2559,
      "individuals": 2560,
      "galax": 2561,
      "crazy": 2562,
      "faster": 2563,
      "onom": 2564,
      "separ": 2565,
      "engineering": 2566,
      "gue": 2567,
      "series": 2568,
      "magic": 2569,
      "crisis": 2570,
      "Pro": 2571,
      "page": 2572,
      "insp": 2573,
      "lif": 2574,
      "allows": 2575,
      "continue": 2576,
      "eventually": 2577,
      "East": 2578,
      "Ger": 2579,
      "doc": 2580,
      "adult": 2581,
      "ify": 2582,
      "higher": 2583,
      "parent": 2584,
      "lam": 2585,
      "extraordinary": 2586,
      ".,": 2587,
      "16": 2588,
      "Me": 2589,
      "ded": 2590,
      "respect": 2591,
      "pture": 2592,
      "traditional": 2593,
      "including": 2594,
      "bank": 2595,
      "useum": 2596,
      "somewhere": 2597,
      "hero": 2598,
      "labor": 2599,
      "square": 2600,
      "Tod": 2601,
      "bill": 2602,
      "task": 2603,
      "immedi": 2604,
      "14": 2605,
      "ered": 2606,
      "wife": 2607,
      "dete": 2608,
      "shot": 2609,
      "humanity": 2610,
      "infect": 2611,
      "estern": 2612,
      "impossible": 2613,
      "communities": 2614,
      "hun": 2615,
      "edom": 2616,
      "worse": 2617,
      "sorts": 2618,
      "earth": 2619,
      "larger": 2620,
      "pieces": 2621,
      "mous": 2622,
      "essentially": 2623,
      "pull": 2624,
      "production": 2625,
      "continu": 2626,
      "appear": 2627,
      "fundamental": 2628,
      "complicated": 2629,
      "17": 2630,
      "His": 2631,
      "cise": 2632,
      "mist": 2633,
      "influ": 2634,
      "shown": 2635,
      "studies": 2636,
      "glass": 2637,
      "wait": 2638,
      "chair": 2639,
      "bacteria": 2640,
      "TV": 2641,
      "site": 2642,
      "ables": 2643,
      "ified": 2644,
      "afford": 2645,
      "plane": 2646,
      "colleag": 2647,
      "decision": 2648,
      "indeed": 2649,
      "bunch": 2650,
      "tree": 2651,
      "wise": 2652,
      "offe": 2653,
      "loved": 2654,
      "cook": 2655,
      "deser": 2656,
      "reading": 2657,
      "training": 2658,
      "drugs": 2659,
      "itch": 2660,
      "prote": 2661,
      "bodies": 2662,
      "TEDx": 2663,
      "univers": 2664,
      "organization": 2665,
      "above": 2666,
      "cases": 2667,
      "swe": 2668,
      "arily": 2669,
      "trick": 2670,
      "signific": 2671,
      "dog": 2672,
      "conditions": 2673,
      "expensive": 2674,
      "temper": 2675,
      "perspective": 2676,
      "SA": 2677,
      "lap": 2678,
      "atory": 2679,
      "Which": 2680,
      "manage": 2681,
      "truly": 2682,
      "specific": 2683,
      "surprising": 2684,
      "Dan": 2685,
      "neg": 2686,
      "stra": 2687,
      "uction": 2688,
      "content": 2689,
      "electricity": 2690,
      "lack": 2691,
      "luck": 2692,
      "iced": 2693,
      "older": 2694,
      "transport": 2695,
      "beauty": 2696,
      "families": 2697,
      "Pr": 2698,
      "rough": 2699,
      "bel": 2700,
      "pet": 2701,
      "ulate": 2702,
      "military": 2703,
      "phenomen": 2704,
      "engage": 2705,
      "types": 2706,
      "oxy": 2707,
      "fascin": 2708,
      "cat": 2709,
      "cked": 2710,
      "distribut": 2711,
      "successful": 2712,
      "daugh": 2713,
      "na": 2714,
      "entre": 2715,
      "choose": 2716,
      "treatment": 2717,
      "Dr": 2718,
      "nia": 2719,
      "sou": 2720,
      "neurons": 2721,
      "Like": 2722,
      "critical": 2723,
      "Jo": 2724,
      "bing": 2725,
      "income": 2726,
      "active": 2727,
      "civi": 2728,
      "lights": 2729,
      "straight": 2730,
      "Act": 2731,
      "somehow": 2732,
      "policy": 2733,
      "seconds": 2734,
      "machines": 2735,
      "killed": 2736,
      "excited": 2737,
      "patterns": 2738,
      "alive": 2739,
      "usually": 2740,
      "cient": 2741,
      "anywhere": 2742,
      "ieve": 2743,
      "written": 2744,
      "international": 2745,
      "finan": 2746,
      "healthy": 2747,
      "increasing": 2748,
      "provide": 2749,
      "mak": 2750,
      "painting": 2751,
      "massive": 2752,
      "sleep": 2753,
      "rise": 2754,
      "Those": 2755,
      "nation": 2756,
      "plastic": 2757,
      "increase": 2758,
      "decisions": 2759,
      "Col": 2760,
      "fit": 2761,
      "upon": 2762,
      "mention": 2763,
      "akes": 2764,
      "store": 2765,
      "famous": 2766,
      "driving": 2767,
      "ires": 2768,
      "wever": 2769,
      "demon": 2770,
      "uments": 2771,
      "Americans": 2772,
      "stream": 2773,
      "entrepre": 2774,
      "hom": 2775,
      "itation": 2776,
      "vels": 2777,
      "foc": 2778,
      "beings": 2779,
      "himself": 2780,
      "smaller": 2781,
      "skills": 2782,
      "college": 2783,
      "familiar": 2784,
      "mobile": 2785,
      "ID": 2786,
      "Ken": 2787,
      "Per": 2788,
      "narr": 2789,
      "rem": 2790,
      "anti": 2791,
      "cold": 2792,
      "cru": 2793,
      "explore": 2794,
      "Imag": 2795,
      "ram": 2796,
      "actual": 2797,
      "achieve": 2798,
      "izations": 2799,
      "philo": 2800,
      "strange": 2801,
      "conversation": 2802,
      "Today": 2803,
      "stars": 2804,
      "habit": 2805,
      "unders": 2806,
      "rights": 2807,
      "199": 2808,
      "base": 2809,
      "cross": 2810,
      "atom": 2811,
      "deb": 2812,
      "service": 2813,
      "reflect": 2814,
      "philosoph": 2815,
      "catch": 2816,
      "slight": 2817,
      "infr": 2818,
      "cele": 2819,
      "region": 2820,
      "faces": 2821,
      "isms": 2822,
      "veh": 2823,
      "freedom": 2824,
      "cup": 2825,
      "jud": 2826,
      "lower": 2827,
      "ners": 2828,
      "surger": 2829,
      "solutions": 2830,
      "recognize": 2831,
      "celebr": 2832,
      "instr": 2833,
      "ounds": 2834,
      "please": 2835,
      "preci": 2836,
      "Char": 2837,
      "effective": 2838,
      "gradu": 2839,
      "nut": 2840,
      "ray": 2841,
      "tex": 2842,
      "def": 2843,
      "anymore": 2844,
      "greater": 2845,
      "unique": 2846,
      "Mc": 2847,
      "cas": 2848,
      "rom": 2849,
      "scan": 2850,
      "enor": 2851,
      "ending": 2852,
      "price": 2853,
      "cles": 2854,
      "listening": 2855,
      "!\"": 2856,
      "Mus": 2857,
      "bits": 2858,
      "lad": 2859,
      "sus": 2860,
      "insect": 2861,
      "weap": 2862,
      "teen": 2863,
      "willing": 2864,
      "intelligence": 2865,
      "13": 2866,
      "bility": 2867,
      "iet": 2868,
      "vil": 2869,
      "becoming": 2870,
      "tian": 2871,
      "raz": 2872,
      "communication": 2873,
      "practice": 2874,
      "travel": 2875,
      "invented": 2876,
      "cis": 2877,
      "cure": 2878,
      "plac": 2879,
      "cloud": 2880,
      "brother": 2881,
      "sn": 2882,
      "stress": 2883,
      "webs": 2884,
      "legs": 2885,
      "Afgh": 2886,
      "Your": 2887,
      "hur": 2888,
      "alter": 2889,
      "saving": 2890,
      "environmental": 2891,
      "Arab": 2892,
      "private": 2893,
      "bol": 2894,
      "cket": 2895,
      "gotten": 2896,
      "ishing": 2897,
      "throw": 2898,
      "direction": 2899,
      "Ano": 2900,
      "drink": 2901,
      "clearly": 2902,
      "dangerous": 2903,
      "hop": 2904,
      "hol": 2905,
      "bees": 2906,
      "iger": 2907,
      "quar": 2908,
      "throughout": 2909,
      "condition": 2910,
      "capac": 2911,
      "fantastic": 2912,
      "secret": 2913,
      "earlier": 2914,
      "Another": 2915,
      "arri": 2916,
      "optim": 2917,
      "istics": 2918,
      "logists": 2919,
      "greatest": 2920,
      "teaching": 2921,
      "funny": 2922,
      "cro": 2923,
      "iling": 2924,
      "integr": 2925,
      "police": 2926,
      "career": 2927,
      "waiting": 2928,
      "explor": 2929,
      "mas": 2930,
      "hair": 2931,
      "tered": 2932,
      "counter": 2933,
      "virus": 2934,
      "babies": 2935,
      "tempt": 2936,
      "motiv": 2937,
      "Ha": 2938,
      "sw": 2939,
      "sam": 2940,
      "contain": 2941,
      "walked": 2942,
      "costs": 2943,
      "remarkable": 2944,
      "ky": 2945,
      "meth": 2946,
      "frame": 2947,
      "prevent": 2948,
      "transl": 2949,
      "flying": 2950,
      "yle": 2951,
      "wered": 2952,
      "ceed": 2953,
      "dependent": 2954,
      "Imagine": 2955,
      "Afghan": 2956,
      "21": 2957,
      "aur": 2958,
      "van": 2959,
      "ories": 2960,
      "yeah": 2961,
      "strug": 2962,
      "related": 2963,
      "graphic": 2964,
      "connection": 2965,
      "floor": 2966,
      "spirit": 2967,
      "doctors": 2968,
      "random": 2969,
      "Two": 2970,
      "encour": 2971,
      "thern": 2972,
      "proto": 2973,
      "therefore": 2974,
      "minis": 2975,
      "scientist": 2976,
      "Ju": 2977,
      "race": 2978,
      "ube": 2979,
      "init": 2980,
      "express": 2981,
      "Lon": 2982,
      "swi": 2983,
      "adap": 2984,
      "brand": 2985,
      "economics": 2986,
      "dollar": 2987,
      "genetic": 2988,
      "ahead": 2989,
      "weren": 2990,
      "wealth": 2991,
      "roll": 2992,
      "central": 2993,
      "decade": 2994,
      "University": 2995,
      "wheel": 2996,
      "meeting": 2997,
      "journal": 2998,
      "Western": 2999,
      "pes": 3000,
      "enjoy": 3001,
      "forth": 3002,
      "demand": 3003,
      "bert": 3004,
      "values": 3005,
      "industrial": 3006,
      "website": 3007,
      "aul": 3008,
      "je": 3009,
      "ping": 3010,
      "artist": 3011,
      "phones": 3012,
      "final": 3013,
      "services": 3014,
      "curi": 3015,
      "drop": 3016,
      "institutions": 3017,
      "bridge": 3018,
      "hous": 3019,
      "atically": 3020,
      "interview": 3021,
      "address": 3022,
      "following": 3023,
      "honest": 3024,
      "London": 3025,
      "300": 3026,
      "Aust": 3027,
      "Ber": 3028,
      "tood": 3029,
      "worry": 3030,
      "craf": 3031,
      "expand": 3032,
      "contribut": 3033,
      "attle": 3034,
      "electron": 3035,
      "various": 3036,
      "From": 3037,
      "dynam": 3038,
      "understood": 3039,
      "email": 3040,
      "useful": 3041,
      "agric": 3042,
      "paid": 3043,
      "popular": 3044,
      "obvious": 3045,
      "entrepreneur": 3046,
      "agricult": 3047,
      "24": 3048,
      "ito": 3049,
      "match": 3050,
      "wis": 3051,
      "wed": 3052,
      "levels": 3053,
      "select": 3054,
      "cultural": 3055,
      "governments": 3056,
      "sequence": 3057,
      "sustainable": 3058,
      "sch": 3059,
      "aries": 3060,
      "account": 3061,
      "ends": 3062,
      "cry": 3063,
      "raise": 3064,
      "belief": 3065,
      "Rich": 3066,
      "dance": 3067,
      "forces": 3068,
      "instance": 3069,
      "Mon": 3070,
      "atmo": 3071,
      "beat": 3072,
      "iding": 3073,
      "concl": 3074,
      "trade": 3075,
      "iles": 3076,
      "physic": 3077,
      "broad": 3078,
      "City": 3079,
      "ino": 3080,
      "seas": 3081,
      "ico": 3082,
      "wel": 3083,
      "played": 3084,
      "shared": 3085,
      "decide": 3086,
      "radio": 3087,
      "apply": 3088,
      "whose": 3089,
      "decades": 3090,
      "astruct": 3091,
      "civiliz": 3092,
      "Ben": 3093,
      "Iran": 3094,
      "aper": 3095,
      "blog": 3096,
      "speaking": 3097,
      "Rus": 3098,
      "cast": 3099,
      "lic": 3100,
      "saur": 3101,
      "manu": 3102,
      "orders": 3103,
      "immediately": 3104,
      "states": 3105,
      "hole": 3106,
      "markets": 3107,
      "Second": 3108,
      "purpose": 3109,
      "possibly": 3110,
      "slide": 3111,
      "Mort": 3112,
      "eties": 3113,
      "gar": 3114,
      "ustr": 3115,
      "helped": 3116,
      "supply": 3117,
      "Je": 3118,
      "Tim": 3119,
      "mut": 3120,
      "rock": 3121,
      "wire": 3122,
      "diseas": 3123,
      "techn": 3124,
      "societies": 3125,
      "although": 3126,
      "religion": 3127,
      "Par": 3128,
      "relative": 3129,
      "trem": 3130,
      "summer": 3131,
      "television": 3132,
      "infrastruct": 3133,
      "capacity": 3134,
      "ior": 3135,
      "ju": 3136,
      "mort": 3137,
      "sme": 3138,
      "tun": 3139,
      "umb": 3140,
      "crimin": 3141,
      "ashing": 3142,
      "survive": 3143,
      "challenges": 3144,
      "Mars": 3145,
      "fro": 3146,
      "associ": 3147,
      "lying": 3148,
      "imately": 3149,
      "surround": 3150,
      "published": 3151,
      "answers": 3152,
      "profit": 3153,
      "directly": 3154,
      "neighborhood": 3155,
      "financial": 3156,
      "slightly": 3157,
      "surgery": 3158,
      "dad": 3159,
      "copy": 3160,
      "terrible": 3161,
      "diseases": 3162,
      "mid": 3163,
      "swit": 3164,
      "inspir": 3165,
      "thetic": 3166,
      "shar": 3167,
      "crow": 3168,
      "check": 3169,
      "Islam": 3170,
      "citizens": 3171,
      "Bast": 3172,
      "sen": 3173,
      "loss": 3174,
      "Think": 3175,
      "commer": 3176,
      "experiments": 3177,
      "relationships": 3178,
      "Will": 3179,
      "worst": 3180,
      "boys": 3181,
      "techni": 3182,
      "networks": 3183,
      "Indian": 3184,
      "ashion": 3185,
      "profound": 3186,
      "effects": 3187,
      "complexity": 3188,
      "compet": 3189,
      "birds": 3190,
      "rule": 3191,
      "Morton": 3192,
      "Many": 3193,
      "mam": 3194,
      "nur": 3195,
      "reve": 3196,
      "paign": 3197,
      "Good": 3198,
      "produced": 3199,
      "destro": 3200,
      "original": 3201,
      "Great": 3202,
      "National": 3203,
      "fat": 3204,
      "none": 3205,
      "heat": 3206,
      "below": 3207,
      "lie": 3208,
      "quant": 3209,
      "workers": 3210,
      "itted": 3211,
      "corpor": 3212,
      "rooms": 3213,
      "pressure": 3214,
      "Isra": 3215,
      "join": 3216,
      "consciousness": 3217,
      "enormous": 3218,
      "Sy": 3219,
      "dou": 3220,
      "claim": 3221,
      "surve": 3222,
      "laws": 3223,
      "temperature": 3224,
      "Cali": 3225,
      "burn": 3226,
      "ancy": 3227,
      "compl": 3228,
      "sharing": 3229,
      "evolved": 3230,
      "pleas": 3231,
      "efficient": 3232,
      "atmosphere": 3233,
      "Califor": 3234,
      "San": 3235,
      "anyway": 3236,
      "erson": 3237,
      "suit": 3238,
      "closer": 3239,
      "oceans": 3240,
      "turning": 3241,
      "colleagues": 3242,
      "tremend": 3243,
      "itor": 3244,
      "edge": 3245,
      "termin": 3246,
      "causes": 3247,
      "core": 3248,
      "mostly": 3249,
      "calls": 3250,
      "offic": 3251,
      "bringing": 3252,
      "cred": 3253,
      "ga": 3254,
      "sector": 3255,
      "noticed": 3256,
      "Geor": 3257,
      "gorith": 3258,
      "leadership": 3259,
      "Middle": 3260,
      "hus": 3261,
      "anth": 3262,
      "ancient": 3263,
      "anda": 3264,
      "liber": 3265,
      "forget": 3266,
      "uced": 3267,
      "shoot": 3268,
      "oxygen": 3269,
      "daughter": 3270,
      "method": 3271,
      "Aud": 3272,
      "cot": 3273,
      "dying": 3274,
      "tum": 3275,
      "algorith": 3276,
      "trouble": 3277,
      "capture": 3278,
      "rench": 3279,
      "embr": 3280,
      "prise": 3281,
      "speech": 3282,
      "carto": 3283,
      "broken": 3284,
      "programs": 3285,
      "diagno": 3286,
      "California": 3287,
      "Ira": 3288,
      "fashion": 3289,
      "mix": 3290,
      "spo": 3291,
      "aly": 3292,
      "conference": 3293,
      "Hey": 3294,
      "organizations": 3295,
      "inspired": 3296,
      "Afghanistan": 3297,
      "bud": 3298,
      "fir": 3299,
      "geo": 3300,
      "cies": 3301,
      "ets": 3302,
      "choices": 3303,
      "creates": 3304,
      "helping": 3305,
      "plications": 3306,
      "emotional": 3307,
      "experiences": 3308,
      "Instead": 3309,
      "document": 3310,
      "IDS": 3311,
      "manufact": 3312,
      "infrastructure": 3313,
      "Braz": 3314,
      "Face": 3315,
      "Gu": 3316,
      "Gre": 3317,
      "eating": 3318,
      "hall": 3319,
      "ext": 3320,
      "atell": 3321,
      "tax": 3322,
      "native": 3323,
      "afr": 3324,
      "lat": 3325,
      "biological": 3326,
      "analy": 3327,
      "Richard": 3328,
      "afraid": 3329,
      "bound": 3330,
      "kil": 3331,
      "osaur": 3332,
      "pite": 3333,
      "icles": 3334,
      "lets": 3335,
      "hydro": 3336,
      "advant": 3337,
      "communicate": 3338,
      "twice": 3339,
      "Again": 3340,
      "thes": 3341,
      "ison": 3342,
      "held": 3343,
      "wash": 3344,
      "traf": 3345,
      "highly": 3346,
      "balance": 3347,
      "idden": 3348,
      "total": 3349,
      "Dar": 3350,
      "Mex": 3351,
      "bought": 3352,
      "cum": 3353,
      "satell": 3354,
      "repe": 3355,
      "usual": 3356,
      "Web": 3357,
      "cooper": 3358,
      "bub": 3359,
      "corner": 3360,
      "grees": 3361,
      "camp": 3362,
      "Iraq": 3363,
      "Her": 3364,
      "mat": 3365,
      "ened": 3366,
      "degrees": 3367,
      "ulner": 3368,
      "unk": 3369,
      "formed": 3370,
      "hibit": 3371,
      "studying": 3372,
      "members": 3373,
      "cycle": 3374,
      "iers": 3375,
      "mig": 3376,
      "ret": 3377,
      "remind": 3378,
      "gold": 3379,
      "conserv": 3380,
      "resist": 3381,
      "differently": 3382,
      "correct": 3383,
      "metaph": 3384,
      "passed": 3385,
      "campaign": 3386,
      "cules": 3387,
      "streets": 3388,
      "anced": 3389,
      "icon": 3390,
      "female": 3391,
      "oppos": 3392,
      "grade": 3393,
      "reduce": 3394,
      "invention": 3395,
      "diversity": 3396,
      "comfortable": 3397,
      "Su": 3398,
      "gap": 3399,
      "rout": 3400,
      "lliant": 3401,
      "ently": 3402,
      "ender": 3403,
      "assum": 3404,
      "prep": 3405,
      "Des": 3406,
      "ds": 3407,
      "rot": 3408,
      "rare": 3409,
      "atives": 3410,
      "differences": 3411,
      "stopped": 3412,
      "switch": 3413,
      "AIDS": 3414,
      "Did": 3415,
      "Paul": 3416,
      "Take": 3417,
      "bag": 3418,
      "vast": 3419,
      "attract": 3420,
      "therap": 3421,
      "spin": 3422,
      "spaces": 3423,
      "genome": 3424,
      "missing": 3425,
      "symbol": 3426,
      "swim": 3427,
      "Med": 3428,
      "bread": 3429,
      "ked": 3430,
      "museum": 3431,
      "ull": 3432,
      "ya": 3433,
      "lied": 3434,
      "nel": 3435,
      "shift": 3436,
      "shel": 3437,
      "invol": 3438,
      "window": 3439,
      "deliver": 3440,
      "Mr": 3441,
      "sick": 3442,
      "note": 3443,
      "etc": 3444,
      "sport": 3445,
      "gene": 3446,
      "contact": 3447,
      "compon": 3448,
      "cheap": 3449,
      "ception": 3450,
      "devices": 3451,
      "landscape": 3452,
      "significant": 3453,
      "focused": 3454,
      "400": 3455,
      "Cam": 3456,
      "rist": 3457,
      "tough": 3458,
      "vit": 3459,
      "stren": 3460,
      "ids": 3461,
      "partner": 3462,
      "brea": 3463,
      "graphy": 3464,
      "identity": 3465,
      "charge": 3466,
      "psych": 3467,
      "offee": 3468,
      "date": 3469,
      "master": 3470,
      "vulner": 3471,
      "ening": 3472,
      "ils": 3473,
      "seemed": 3474,
      "dram": 3475,
      "spending": 3476,
      "failure": 3477,
      "molecules": 3478,
      "finger": 3479,
      "argument": 3480,
      "cular": 3481,
      "trial": 3482,
      "creatures": 3483,
      "Thanks": 3484,
      "corrup": 3485,
      "breast": 3486,
      "Sp": 3487,
      "gin": 3488,
      "exer": 3489,
      "artists": 3490,
      "spot": 3491,
      "faith": 3492,
      "designers": 3493,
      "Asia": 3494,
      "Facebook": 3495,
      "streng": 3496,
      "Am": 3497,
      "Ed": 3498,
      "coffee": 3499,
      "mouth": 3500,
      "pal": 3501,
      "tour": 3502,
      "contr": 3503,
      "covered": 3504,
      "effort": 3505,
      "basis": 3506,
      "avoid": 3507,
      "electr": 3508,
      "rapid": 3509,
      "husband": 3510,
      "CO": 3511,
      "Ma": 3512,
      "hang": 3513,
      "lin": 3514,
      "ology": 3515,
      "seed": 3516,
      "hell": 3517,
      "ami": 3518,
      "easily": 3519,
      "possibility": 3520,
      "tremendous": 3521,
      "IT": 3522,
      "Ob": 3523,
      "flies": 3524,
      "gle": 3525,
      "sad": 3526,
      "tal": 3527,
      "arian": 3528,
      "background": 3529,
      "serve": 3530,
      "hearing": 3531,
      "opportunities": 3532,
      "sexual": 3533,
      "responsibility": 3534,
      "insects": 3535,
      "stor": 3536,
      "zo": 3537,
      "urch": 3538,
      "actions": 3539,
      "yellow": 3540,
      "intu": 3541,
      "shares": 3542,
      "feels": 3543,
      "moments": 3544,
      "collap": 3545,
      "domin": 3546,
      "sequences": 3547,
      "bone": 3548,
      "scr": 3549,
      "inct": 3550,
      "ada": 3551,
      "imagination": 3552,
      "farmers": 3553,
      "valu": 3554,
      "regular": 3555,
      "radi": 3556,
      "religious": 3557,
      "target": 3558,
      "fascinating": 3559,
      "Actually": 3560,
      "Niger": 3561,
      "Pri": 3562,
      "gun": 3563,
      "jump": 3564,
      "zen": 3565,
      "lip": 3566,
      "knowing": 3567,
      "party": 3568,
      "cognitive": 3569,
      "Life": 3570,
      "dinosaur": 3571,
      "scul": 3572,
      "histor": 3573,
      "bled": 3574,
      "primar": 3575,
      "leading": 3576,
      "trend": 3577,
      "fresh": 3578,
      "Over": 3579,
      "flight": 3580,
      "mes": 3581,
      "ths": 3582,
      "weak": 3583,
      "opt": 3584,
      "boat": 3585,
      "creation": 3586,
      "198": 3587,
      "autom": 3588,
      "More": 3589,
      "negative": 3590,
      "lucky": 3591,
      "Fran": 3592,
      "Sha": 3593,
      "ding": 3594,
      "forever": 3595,
      "invis": 3596,
      "block": 3597,
      "nearly": 3598,
      "Ab": 3599,
      "cand": 3600,
      "giant": 3601,
      "tissue": 3602,
      "plat": 3603,
      "myster": 3604,
      "distance": 3605,
      "benefits": 3606,
      "collaboration": 3607,
      "gentle": 3608,
      "phenomenon": 3609,
      "demonstr": 3610,
      "Have": 3611,
      "gree": 3612,
      "pi": 3613,
      "vacc": 3614,
      "roof": 3615,
      "humor": 3616,
      "magaz": 3617,
      "cording": 3618,
      "psychology": 3619,
      "necessary": 3620,
      "virtual": 3621,
      "weapons": 3622,
      "traffic": 3623,
      "Ke": 3624,
      "weird": 3625,
      "rian": 3626,
      "foreign": 3627,
      "European": 3628,
      "definition": 3629,
      "fairly": 3630,
      "Audience": 3631,
      "wave": 3632,
      "aspect": 3633,
      "decl": 3634,
      "helps": 3635,
      "See": 3636,
      "frequ": 3637,
      "accident": 3638,
      "Austral": 3639,
      "opposite": 3640,
      "Bill": 3641,
      "gard": 3642,
      "pig": 3643,
      "tag": 3644,
      "vict": 3645,
      "inner": 3646,
      "heads": 3647,
      "insight": 3648,
      "particles": 3649,
      "addition": 3650,
      "planets": 3651,
      "norm": 3652,
      "emotion": 3653,
      "detect": 3654,
      "smell": 3655,
      "Te": 3656,
      "nan": 3657,
      "degree": 3658,
      "coast": 3659,
      "host": 3660,
      "colors": 3661,
      "sites": 3662,
      "craft": 3663,
      "victim": 3664,
      "Eng": 3665,
      "lu": 3666,
      "rit": 3667,
      "aste": 3668,
      "hea": 3669,
      "depression": 3670,
      "puts": 3671,
      "itely": 3672,
      "bling": 3673,
      "restaur": 3674,
      "epide": 3675,
      "commit": 3676,
      "finished": 3677,
      "puzz": 3678,
      "signal": 3679,
      "brilliant": 3680,
      "dimensional": 3681,
      "French": 3682,
      "bly": 3683,
      "bright": 3684,
      "batter": 3685,
      "rum": 3686,
      "moves": 3687,
      "notion": 3688,
      "olly": 3689,
      "crime": 3690,
      "mothers": 3691,
      "responsible": 3692,
      "competition": 3693,
      "etry": 3694,
      "org": 3695,
      "justice": 3696,
      "gry": 3697,
      "events": 3698,
      "brings": 3699,
      "drag": 3700,
      "pressed": 3701,
      "figured": 3702,
      "investment": 3703,
      "kilome": 3704,
      "Bar": 3705,
      "Would": 3706,
      "fed": 3707,
      "hack": 3708,
      "vest": 3709,
      "zed": 3710,
      "attempt": 3711,
      "meters": 3712,
      "celer": 3713,
      "dered": 3714,
      "appreci": 3715,
      "organisms": 3716,
      "dreams": 3717,
      "describe": 3718,
      "raised": 3719,
      "Big": 3720,
      "Fin": 3721,
      "double": 3722,
      "uary": 3723,
      "river": 3724,
      "extin": 3725,
      "noise": 3726,
      "quote": 3727,
      "click": 3728,
      "holding": 3729,
      "fighting": 3730,
      "necessarily": 3731,
      "suffering": 3732,
      "remote": 3733,
      "mouse": 3734,
      "zing": 3735,
      "rely": 3736,
      "return": 3737,
      "accur": 3738,
      "abilities": 3739,
      "ifically": 3740,
      "concent": 3741,
      "ager": 3742,
      "proud": 3743,
      "childhood": 3744,
      "structures": 3745,
      "tempor": 3746,
      "metaphor": 3747,
      "Red": 3748,
      "eli": 3749,
      "anger": 3750,
      "ander": 3751,
      "assem": 3752,
      "heav": 3753,
      "meter": 3754,
      "grown": 3755,
      "grass": 3756,
      "despite": 3757,
      "designer": 3758,
      "trained": 3759,
      "benefit": 3760,
      "placed": 3761,
      "eg": 3762,
      "fol": 3763,
      "indic": 3764,
      "newsp": 3765,
      "letter": 3766,
      "importantly": 3767,
      "closed": 3768,
      "leads": 3769,
      "discovery": 3770,
      "Once": 3771,
      "elements": 3772,
      "sorry": 3773,
      "George": 3774,
      "Bet": 3775,
      "fab": 3776,
      "llect": 3777,
      "va": 3778,
      "sets": 3779,
      "icking": 3780,
      "bee": 3781,
      "acqu": 3782,
      "moon": 3783,
      "pros": 3784,
      "els": 3785,
      "bles": 3786,
      "presents": 3787,
      "surge": 3788,
      "lesson": 3789,
      "easier": 3790,
      "sight": 3791,
      "atures": 3792,
      "idents": 3793,
      "extend": 3794,
      "ured": 3795,
      "till": 3796,
      "previ": 3797,
      "ysis": 3798,
      "opened": 3799,
      "miss": 3800,
      "filled": 3801,
      "py": 3802,
      "wear": 3803,
      "chick": 3804,
      "grav": 3805,
      "ards": 3806,
      "visit": 3807,
      "cycl": 3808,
      "park": 3809,
      "succeed": 3810,
      "deeply": 3811,
      "typical": 3812,
      "walls": 3813,
      "statistics": 3814,
      "billions": 3815,
      "commercial": 3816,
      "advantage": 3817,
      "invisible": 3818,
      "Lu": 3819,
      "lunch": 3820,
      "mber": 3821,
      "seat": 3822,
      "icians": 3823,
      "irt": 3824,
      "coal": 3825,
      "crash": 3826,
      "ultimately": 3827,
      "intellect": 3828,
      "setting": 3829,
      "capable": 3830,
      "photos": 3831,
      "Sometimes": 3832,
      "wisdom": 3833,
      "Sun": 3834,
      "incent": 3835,
      "enn": 3836,
      "acceler": 3837,
      "mod": 3838,
      "apped": 3839,
      "evol": 3840,
      "izes": 3841,
      "shouldn": 3842,
      "factory": 3843,
      "paint": 3844,
      "promise": 3845,
      "professional": 3846,
      "relev": 3847,
      "British": 3848,
      "leaving": 3849,
      "mathematics": 3850,
      "Israel": 3851,
      "Very": 3852,
      "bow": 3853,
      "independent": 3854,
      "stuck": 3855,
      "hael": 3856,
      "determin": 3857,
      "ulous": 3858,
      "caught": 3859,
      "president": 3860,
      "offer": 3861,
      "appeared": 3862,
      "convinc": 3863,
      "require": 3864,
      "strategy": 3865,
      "agriculture": 3866,
      "destroy": 3867,
      "45": 3868,
      "Ad": 3869,
      "Egy": 3870,
      "Pal": 3871,
      "Rob": 3872,
      "hidden": 3873,
      "pun": 3874,
      "sac": 3875,
      "aling": 3876,
      "qual": 3877,
      "install": 3878,
      "entirely": 3879,
      "institution": 3880,
      "However": 3881,
      "influence": 3882,
      "civilization": 3883,
      "James": 3884,
      "rational": 3885,
      "dol": 3886,
      "frag": 3887,
      "strain": 3888,
      "obsess": 3889,
      "surprise": 3890,
      "studied": 3891,
      "warm": 3892,
      "angle": 3893,
      "matters": 3894,
      "operating": 3895,
      "desert": 3896,
      "150": 3897,
      "Min": 3898,
      "fle": 3899,
      "civil": 3900,
      "planning": 3901,
      "limited": 3902,
      "skill": 3903,
      "organic": 3904,
      "engineers": 3905,
      "consumption": 3906,
      "soil": 3907,
      "opin": 3908,
      "agers": 3909,
      "conduct": 3910,
      "university": 3911,
      "subst": 3912,
      "names": 3913,
      "horri": 3914,
      "adults": 3915,
      "Bu": 3916,
      "Hum": 3917,
      "RI": 3918,
      "Twit": 3919,
      "pounds": 3920,
      "ato": 3921,
      "plus": 3922,
      "empt": 3923,
      "slowly": 3924,
      "believed": 3925,
      "gri": 3926,
      "san": 3927,
      "peak": 3928,
      "mov": 3929,
      "motor": 3930,
      "urally": 3931,
      "ulations": 3932,
      "poetry": 3933,
      "cope": 3934,
      "everyday": 3935,
      "married": 3936,
      "prior": 3937,
      "begins": 3938,
      "Everybody": 3939,
      "collective": 3940,
      "concerned": 3941,
      "eper": 3942,
      "ister": 3943,
      "fell": 3944,
      "resident": 3945,
      "sume": 3946,
      "classroom": 3947,
      "constantly": 3948,
      "Michael": 3949,
      "Brazil": 3950,
      "Mexico": 3951,
      "Ac": 3952,
      "Coun": 3953,
      "Ser": 3954,
      "hate": 3955,
      "nit": 3956,
      "nic": 3957,
      "oted": 3958,
      "otic": 3959,
      "unfortunately": 3960,
      "thinks": 3961,
      "bra": 3962,
      "precise": 3963,
      "equal": 3964,
      "continent": 3965,
      "appropri": 3966,
      "circle": 3967,
      "circu": 3968,
      "failed": 3969,
      "symme": 3970,
      "brief": 3971,
      "99": 3972,
      "cod": 3973,
      "replace": 3974,
      "argue": 3975,
      "meat": 3976,
      "ops": 3977,
      "ulated": 3978,
      "managed": 3979,
      "solved": 3980,
      "Child": 3981,
      "attach": 3982,
      "warming": 3983,
      "driver": 3984,
      "keeping": 3985,
      "equival": 3986,
      "cule": 3987,
      "steps": 3988,
      "emotions": 3989,
      "majority": 3990,
      "emplo": 3991,
      "Green": 3992,
      "Washing": 3993,
      "gender": 3994,
      "zon": 3995,
      "rew": 3996,
      "reward": 3997,
      "itute": 3998,
      "asp": 3999,
      "stone": 4000,
      "weather": 4001,
      "artific": 4002,
      "grap": 4003,
      "partment": 4004,
      "blow": 4005,
      "marke": 4006,
      "businesses": 4007,
      "galaxies": 4008,
      "Twitter": 4009,
      "leng": 4010,
      "spl": 4011,
      "eral": 4012,
      "ston": 4013,
      "riage": 4014,
      "advert": 4015,
      "prop": 4016,
      "powered": 4017,
      "grab": 4018,
      "spring": 4019,
      "interaction": 4020,
      "invited": 4021,
      "expert": 4022,
      "versus": 4023,
      "coral": 4024,
      "driven": 4025,
      "languages": 4026,
      "chain": 4027,
      "Does": 4028,
      "engineer": 4029,
      "location": 4030,
      "35": 4031,
      "El": 4032,
      "Ple": 4033,
      "due": 4034,
      "iber": 4035,
      "theater": 4036,
      "arms": 4037,
      "keys": 4038,
      "terday": 4039,
      "compared": 4040,
      "generate": 4041,
      "paying": 4042,
      "element": 4043,
      "feedback": 4044,
      "sister": 4045,
      "seriously": 4046,
      "bomb": 4047,
      "DP": 4048,
      "gather": 4049,
      "iev": 4050,
      "ns": 4051,
      "ume": 4052,
      "wing": 4053,
      "toward": 4054,
      "define": 4055,
      "ulf": 4056,
      "evil": 4057,
      "hip": 4058,
      "opening": 4059,
      "custom": 4060,
      "perfectly": 4061,
      "surprised": 4062,
      "alternative": 4063,
      "crowd": 4064,
      "Francis": 4065,
      "Washington": 4066,
      "King": 4067,
      "Val": 4068,
      "ein": 4069,
      "whom": 4070,
      "quiet": 4071,
      "crack": 4072,
      "treated": 4073,
      "followed": 4074,
      "fields": 4075,
      "described": 4076,
      "strateg": 4077,
      "graduate": 4078,
      "Mart": 4079,
      "Tom": 4080,
      "dia": 4081,
      "pian": 4082,
      "tons": 4083,
      "rend": 4084,
      "users": 4085,
      "aming": 4086,
      "shif": 4087,
      "otherwise": 4088,
      "nerv": 4089,
      "drawing": 4090,
      "70s": 4091,
      "principles": 4092,
      "galaxy": 4093,
      "protein": 4094,
      "vehicle": 4095,
      "Charles": 4096,
      "adapt": 4097,
      "Darwin": 4098,
      "75": 4099,
      "dry": 4100,
      "nest": 4101,
      "tap": 4102,
      "ubl": 4103,
      "station": 4104,
      "wearing": 4105,
      "forced": 4106,
      "fellow": 4107,
      "grain": 4108,
      "bran": 4109,
      "prim": 4110,
      "cultures": 4111,
      "equip": 4112,
      "Robert": 4113,
      "homes": 4114,
      "equivalent": 4115,
      "Bro": 4116,
      "Park": 4117,
      "ising": 4118,
      "bear": 4119,
      "rig": 4120,
      "user": 4121,
      "consequences": 4122,
      "unless": 4123,
      "Three": 4124,
      "acts": 4125,
      "exists": 4126,
      "asks": 4127,
      "shapes": 4128,
      "clock": 4129,
      "breath": 4130,
      "organized": 4131,
      "waves": 4132,
      "Sebas": 4133,
      "Everything": 4134,
      "layer": 4135,
      "molecule": 4136,
      "cards": 4137,
      "dinner": 4138,
      "intelligent": 4139,
      "launched": 4140,
      "exploration": 4141,
      "Each": 4142,
      "Os": 4143,
      "Sim": 4144,
      "cow": 4145,
      "cate": 4146,
      "review": 4147,
      "stim": 4148,
      "colon": 4149,
      "mistry": 4150,
      "eleph": 4151,
      "increasingly": 4152,
      "magazine": 4153,
      "dolph": 4154,
      "Cl": 4155,
      "Could": 4156,
      "Einst": 4157,
      "MIT": 4158,
      "iver": 4159,
      "mad": 4160,
      "rural": 4161,
      "vere": 4162,
      "actor": 4163,
      "unte": 4164,
      "emic": 4165,
      "ela": 4166,
      "disaster": 4167,
      "destr": 4168,
      "trip": 4169,
      "highest": 4170,
      "cared": 4171,
      "ification": 4172,
      "consist": 4173,
      "survival": 4174,
      "motion": 4175,
      "multiple": 4176,
      "construction": 4177,
      "Fellow": 4178,
      "Japanese": 4179,
      "separate": 4180,
      "houses": 4181,
      "3D": 4182,
      "CE": 4183,
      "rat": 4184,
      "script": 4185,
      "south": 4186,
      "vic": 4187,
      "aran": 4188,
      "exhibit": 4189,
      "hasn": 4190,
      "compare": 4191,
      "20th": 4192,
      "diet": 4193,
      "auto": 4194,
      "scen": 4195,
      "investig": 4196,
      "sustainability": 4197,
      "mentioned": 4198,
      "debate": 4199,
      "Times": 4200,
      "corruption": 4201,
      "normally": 4202,
      "England": 4203,
      "Einstein": 4204,
      "School": 4205,
      "pages": 4206,
      "yl": 4207,
      "thesis": 4208,
      "replic": 4209,
      "tox": 4210,
      "argu": 4211,
      "veget": 4212,
      "reef": 4213,
      "interface": 4214,
      "Christ": 4215,
      "chemistry": 4216,
      "airplane": 4217,
      "80s": 4218,
      "instrument": 4219,
      "nervous": 4220,
      "equipment": 4221,
      "Sebastian": 4222,
      "Bas": 4223,
      "ining": 4224,
      "ales": 4225,
      "aria": 4226,
      "belong": 4227,
      "lid": 4228,
      "libr": 4229,
      "chimp": 4230,
      "kelet": 4231,
      "article": 4232,
      "illness": 4233,
      "gency": 4234,
      "viruses": 4235,
      "generations": 4236,
      "testing": 4237,
      "circum": 4238,
      "unex": 4239,
      "soldiers": 4240,
      "received": 4241,
      "universal": 4242,
      "distribution": 4243,
      "mortality": 4244,
      "migr": 4245,
      "Ah": 4246,
      "stup": 4247,
      "amin": 4248,
      "igno": 4249,
      "ensity": 4250,
      "transformation": 4251,
      "harder": 4252,
      "connections": 4253,
      "osity": 4254,
      "scene": 4255,
      "daily": 4256,
      "Kore": 4257,
      "Sm": 4258,
      "dial": 4259,
      "iat": 4260,
      "ius": 4261,
      "vention": 4262,
      "estic": 4263,
      "preser": 4264,
      "farm": 4265,
      "cutting": 4266,
      "sentence": 4267,
      "volunte": 4268,
      "Germany": 4269,
      "technical": 4270,
      "employe": 4271,
      "battle": 4272,
      "dress": 4273,
      "gall": 4274,
      "pil": 4275,
      "sla": 4276,
      "selling": 4277,
      "llion": 4278,
      "tric": 4279,
      "novel": 4280,
      "letters": 4281,
      "hopefully": 4282,
      "north": 4283,
      "killing": 4284,
      "voices": 4285,
      "90s": 4286,
      "Kenya": 4287,
      "fal": 4288,
      "rhy": 4289,
      "anze": 4290,
      "island": 4291,
      "toi": 4292,
      "icing": 4293,
      "ays": 4294,
      "Anderson": 4295,
      "ads": 4296,
      "acting": 4297,
      "expression": 4298,
      "essential": 4299,
      "reser": 4300,
      "emb": 4301,
      "facts": 4302,
      "controlled": 4303,
      "pengu": 4304,
      "suggests": 4305,
      "leaves": 4306,
      "electrical": 4307,
      "Australia": 4308,
      "liked": 4309,
      "abstr": 4310,
      "lock": 4311,
      "losing": 4312,
      "explan": 4313,
      "portion": 4314,
      "goti": 4315,
      "calling": 4316,
      "aff": 4317,
      "watched": 4318,
      "consumer": 4319,
      "experienced": 4320,
      "dimensions": 4321,
      "principle": 4322,
      "CO2": 4323,
      "heavy": 4324,
      "movies": 4325,
      "Come": 4326,
      "bust": 4327,
      "cil": 4328,
      "nations": 4329,
      "tes": 4330,
      "isol": 4331,
      "caused": 4332,
      "Thom": 4333,
      "iving": 4334,
      "player": 4335,
      "fourth": 4336,
      "limit": 4337,
      "morrow": 4338,
      "hypo": 4339,
      "photography": 4340,
      "resource": 4341,
      "producing": 4342,
      "damage": 4343,
      "property": 4344,
      "terrorism": 4345,
      "management": 4346,
      "associated": 4347,
      "relevant": 4348,
      "stupid": 4349,
      "Adam": 4350,
      "Other": 4351,
      "iest": 4352,
      "vac": 4353,
      "encies": 4354,
      "ald": 4355,
      "according": 4356,
      "negoti": 4357,
      "exe": 4358,
      "prove": 4359,
      "foss": 4360,
      "display": 4361,
      "flat": 4362,
      "pected": 4363,
      "identify": 4364,
      "analysis": 4365,
      "announ": 4366,
      "artificial": 4367,
      "Em": 4368,
      "flex": 4369,
      "mult": 4370,
      "infin": 4371,
      "reaction": 4372,
      "eras": 4373,
      "tomorrow": 4374,
      "abl": 4375,
      "Their": 4376,
      "worried": 4377,
      "perce": 4378,
      "importance": 4379,
      "signs": 4380,
      "shoes": 4381,
      "forests": 4382,
      "astronom": 4383,
      "holes": 4384,
      "21st": 4385,
      "kilometers": 4386,
      "Sat": 4387,
      "eness": 4388,
      "acle": 4389,
      "ques": 4390,
      "empath": 4391,
      "logic": 4392,
      "observ": 4393,
      "manip": 4394,
      "interpret": 4395,
      "designing": 4396,
      "players": 4397,
      "Stre": 4398,
      "processes": 4399,
      "signals": 4400,
      "researchers": 4401,
      "dealing": 4402,
      "sources": 4403,
      "Frank": 4404,
      "grandmother": 4405,
      "maker": 4406,
      "struggle": 4407,
      "Ama": 4408,
      "Bl": 4409,
      "II": 4410,
      "Sci": 4411,
      "inj": 4412,
      "tories": 4413,
      "conside": 4414,
      "shut": 4415,
      "grid": 4416,
      "aked": 4417,
      "stood": 4418,
      "cortex": 4419,
      "awful": 4420,
      "maintain": 4421,
      "harm": 4422,
      "practical": 4423,
      "currently": 4424,
      "arrived": 4425,
      "curious": 4426,
      "considered": 4427,
      "Sch": 4428,
      "ba": 4429,
      "eld": 4430,
      "lor": 4431,
      "las": 4432,
      "pow": 4433,
      "thri": 4434,
      "section": 4435,
      "acad": 4436,
      "iron": 4437,
      "poem": 4438,
      "feelings": 4439,
      "parad": 4440,
      "occup": 4441,
      "facing": 4442,
      "Britain": 4443,
      "spoke": 4444,
      "satellite": 4445,
      "empty": 4446,
      "Tur": 4447,
      "ape": 4448,
      "dot": 4449,
      "vote": 4450,
      "edia": 4451,
      "desk": 4452,
      "lessons": 4453,
      "yesterday": 4454,
      "violent": 4455,
      "60s": 4456,
      "picked": 4457,
      "convention": 4458,
      "professor": 4459,
      "sophistic": 4460,
      "transportation": 4461,
      "credit": 4462,
      "strength": 4463,
      "convinced": 4464,
      "Please": 4465,
      "Cor": 4466,
      "Pak": 4467,
      "kick": 4468,
      "sides": 4469,
      "deeper": 4470,
      "saved": 4471,
      "vessel": 4472,
      "berg": 4473,
      "finish": 4474,
      "gling": 4475,
      "productive": 4476,
      "Canada": 4477,
      "radical": 4478,
      "chemicals": 4479,
      "clinical": 4480,
      "sharks": 4481,
      "cartoon": 4482,
      "folks": 4483,
      "Pakistan": 4484,
      "gay": 4485,
      "ike": 4486,
      "pin": 4487,
      "tall": 4488,
      "neath": 4489,
      "maps": 4490,
      "establ": 4491,
      "cipl": 4492,
      "hadn": 4493,
      "achiev": 4494,
      "pray": 4495,
      "experts": 4496,
      "monitor": 4497,
      "expected": 4498,
      "safety": 4499,
      "variety": 4500,
      "details": 4501,
      "budget": 4502,
      "concentr": 4503,
      "chimpanze": 4504,
      "Tube": 4505,
      "Women": 4506,
      "fan": 4507,
      "iam": 4508,
      "mur": 4509,
      "vard": 4510,
      "thal": 4511,
      "ises": 4512,
      "alle": 4513,
      "oman": 4514,
      "shark": 4515,
      "marriage": 4516,
      "muscle": 4517,
      "magnet": 4518,
      "wondering": 4519,
      "Steve": 4520,
      "honor": 4521,
      "doub": 4522,
      "prepared": 4523,
      "valuable": 4524,
      "Gal": 4525,
      "Swed": 4526,
      "dots": 4527,
      "hide": 4528,
      "ission": 4529,
      "youn": 4530,
      "ctions": 4531,
      "teeth": 4532,
      "frustr": 4533,
      "quit": 4534,
      "worldwide": 4535,
      "command": 4536,
      "thoughts": 4537,
      "videos": 4538,
      "wake": 4539,
      "advent": 4540,
      "existence": 4541,
      "status": 4542,
      "properties": 4543,
      "hurt": 4544,
      "Nigeria": 4545,
      "battery": 4546,
      "piano": 4547,
      "Street": 4548,
      "Gree": 4549,
      "Last": 4550,
      "Wik": 4551,
      "mile": 4552,
      "vation": 4553,
      "winter": 4554,
      "contract": 4555,
      "ideal": 4556,
      "elly": 4557,
      "former": 4558,
      "underneath": 4559,
      "trials": 4560,
      "storytelling": 4561,
      "2008": 4562,
      "broke": 4563,
      "director": 4564,
      "advanced": 4565,
      "iency": 4566,
      "collection": 4567,
      "ropy": 4568,
      "carrying": 4569,
      "platform": 4570,
      "epidemic": 4571,
      "2000": 4572,
      "Center": 4573,
      "bat": 4574,
      "snow": 4575,
      "skelet": 4576,
      "yo": 4577,
      "lege": 4578,
      "lift": 4579,
      "gee": 4580,
      "udd": 4581,
      "lifetime": 4582,
      "sian": 4583,
      "Peter": 4584,
      "sugar": 4585,
      "possibilities": 4586,
      "specifically": 4587,
      "satis": 4588,
      "tension": 4589,
      "lady": 4590,
      "Thomas": 4591,
      "President": 4592,
      "apo": 4593,
      "bum": 4594,
      "pure": 4595,
      "crete": 4596,
      "smile": 4597,
      "effectively": 4598,
      "cameras": 4599,
      "lawy": 4600,
      "emerging": 4601,
      "requires": 4602,
      "Anyway": 4603,
      "roughly": 4604,
      "makers": 4605,
      "philosophy": 4606,
      "dynamic": 4607,
      "exercise": 4608,
      "intellectual": 4609,
      "marketing": 4610,
      "length": 4611,
      "Pac": 4612,
      "Qu": 4613,
      "gift": 4614,
      "rates": 4615,
      "west": 4616,
      "orbit": 4617,
      "ara": 4618,
      "acters": 4619,
      "actors": 4620,
      "liqu": 4621,
      "exchange": 4622,
      "extract": 4623,
      "YouTube": 4624,
      "carefully": 4625,
      "musical": 4626,
      "privi": 4627,
      "autonom": 4628,
      "breaking": 4629,
      "males": 4630,
      "characters": 4631,
      "messages": 4632,
      "steel": 4633,
      "definitely": 4634,
      "convince": 4635,
      "hydrogen": 4636,
      "vulnerable": 4637,
      "600": 4638,
      "GP": 4639,
      "sia": 4640,
      "via": 4641,
      "zy": 4642,
      "height": 4643,
      "plate": 4644,
      "buying": 4645,
      "discipl": 4646,
      "writer": 4647,
      "served": 4648,
      "transition": 4649,
      "fewer": 4650,
      "titude": 4651,
      "malaria": 4652,
      "metal": 4653,
      "spectrum": 4654,
      "encourage": 4655,
      "grapher": 4656,
      "rhyth": 4657,
      "Ap": 4658,
      "Alex": 4659,
      "Hu": 4660,
      "La": 4661,
      "Mac": 4662,
      "diction": 4663,
      "rs": 4664,
      "ride": 4665,
      "cents": 4666,
      "behaviors": 4667,
      "explains": 4668,
      "evolutionary": 4669,
      "situations": 4670,
      "ecosystem": 4671,
      "Harvard": 4672,
      "discussion": 4673,
      "circumst": 4674,
      "Day": 4675,
      "Gold": 4676,
      "US": 4677,
      "rub": 4678,
      "yn": 4679,
      "represents": 4680,
      "perman": 4681,
      "notes": 4682,
      "agre": 4683,
      "phan": 4684,
      "trillion": 4685,
      "minim": 4686,
      "movements": 4687,
      "plication": 4688,
      "witness": 4689,
      "sending": 4690,
      "pleasure": 4691,
      "restaurant": 4692,
      "appropriate": 4693,
      "Cong": 4694,
      "zone": 4695,
      "instruct": 4696,
      "reci": 4697,
      "acing": 4698,
      "oting": 4699,
      "chron": 4700,
      "unusual": 4701,
      "noon": 4702,
      "spok": 4703,
      "196": 4704,
      "added": 4705,
      "recorded": 4706,
      "photographs": 4707,
      "roads": 4708,
      "affected": 4709,
      "issions": 4710,
      "Institute": 4711,
      "introduce": 4712,
      "mathematical": 4713,
      "season": 4714,
      "relatively": 4715,
      "tumor": 4716,
      "victims": 4717,
      ".'": 4718,
      "Rep": 4719,
      "cking": 4720,
      "ey": 4721,
      "oth": 4722,
      "sque": 4723,
      "sees": 4724,
      "ulating": 4725,
      "shall": 4726,
      "grant": 4727,
      "whenever": 4728,
      "owner": 4729,
      "desire": 4730,
      "pointed": 4731,
      "healthcare": 4732,
      "bottle": 4733,
      "runs": 4734,
      "occas": 4735,
      "Art": 4736,
      "hyper": 4737,
      "NASA": 4738,
      "depends": 4739,
      "clip": 4740,
      "Phone": 4741,
      "introduced": 4742,
      "bubble": 4743,
      "dinosaurs": 4744,
      "Fo": 4745,
      "Jan": 4746,
      "Vo": 4747,
      "bors": 4748,
      "kne": 4749,
      "kitch": 4750,
      "shad": 4751,
      "tank": 4752,
      "toy": 4753,
      "itarian": 4754,
      "rocket": 4755,
      "irty": 4756,
      "solid": 4757,
      "imm": 4758,
      "unit": 4759,
      "odd": 4760,
      "mented": 4761,
      "inevit": 4762,
      "string": 4763,
      "courage": 4764,
      "interests": 4765,
      "2010": 4766,
      "regard": 4767,
      "employ": 4768,
      "profession": 4769,
      "molecular": 4770,
      "pollution": 4771,
      "Juli": 4772,
      "techniques": 4773,
      "algorithms": 4774,
      "talent": 4775,
      "employees": 4776,
      "Pat": 4777,
      "Scot": 4778,
      "tro": 4779,
      "iti": 4780,
      "beach": 4781,
      "perception": 4782,
      "myth": 4783,
      "prefer": 4784,
      "goods": 4785,
      "solving": 4786,
      "biom": 4787,
      "risks": 4788,
      "harvest": 4789,
      "protected": 4790,
      "include": 4791,
      "defined": 4792,
      "mirror": 4793,
      "rapidly": 4794,
      "radiation": 4795,
      "garden": 4796,
      "Che": 4797,
      "Law": 4798,
      "pto": 4799,
      "insur": 4800,
      "reven": 4801,
      "style": 4802,
      "goals": 4803,
      "conver": 4804,
      "emissions": 4805,
      "boom": 4806,
      "environments": 4807,
      "politicians": 4808,
      "factor": 4809,
      "ibility": 4810,
      "appears": 4811,
      "horse": 4812,
      "sensitive": 4813,
      "typically": 4814,
      "apping": 4815,
      "primary": 4816,
      "temporary": 4817,
      "newspaper": 4818,
      "sophisticated": 4819,
      "NG": 4820,
      "Wow": 4821,
      "Yet": 4822,
      "bin": 4823,
      "dat": 4824,
      "pul": 4825,
      "refu": 4826,
      "error": 4827,
      "itals": 4828,
      "fru": 4829,
      "plom": 4830,
      "worlds": 4831,
      "singing": 4832,
      "engaged": 4833,
      "prime": 4834,
      "generally": 4835,
      "electro": 4836,
      "fishing": 4837,
      "Atl": 4838,
      "awareness": 4839,
      "therapy": 4840,
      "organs": 4841,
      "previous": 4842,
      "gravity": 4843,
      "unexpected": 4844,
      "liquid": 4845,
      "Congress": 4846,
      "Dis": 4847,
      "Gh": 4848,
      "lit": 4849,
      "tch": 4850,
      "za": 4851,
      "theme": 4852,
      "icated": 4853,
      "weigh": 4854,
      "eval": 4855,
      "phil": 4856,
      "clever": 4857,
      "presentation": 4858,
      "digit": 4859,
      "protection": 4860,
      "release": 4861,
      "passionate": 4862,
      "susp": 4863,
      "initi": 4864,
      "Bang": 4865,
      "GDP": 4866,
      "kno": 4867,
      "stic": 4868,
      "secure": 4869,
      "feature": 4870,
      "umber": 4871,
      "ideo": 4872,
      "tape": 4873,
      "centers": 4874,
      "assist": 4875,
      "assign": 4876,
      "marine": 4877,
      "compar": 4878,
      "gang": 4879,
      "visible": 4880,
      "197": 4881,
      "glam": 4882,
      "topic": 4883,
      "chap": 4884,
      "raising": 4885,
      "mistakes": 4886,
      "soul": 4887,
      "atoms": 4888,
      "reveal": 4889,
      "Francisco": 4890,
      "Get": 4891,
      "pill": 4892,
      "wat": 4893,
      "rey": 4894,
      "poo": 4895,
      "ignor": 4896,
      "shell": 4897,
      "pregn": 4898,
      "planes": 4899,
      "memories": 4900,
      "amounts": 4901,
      "medium": 4902,
      "Project": 4903,
      "vehicles": 4904,
      "Amazon": 4905,
      "Bab": 4906,
      "Jack": 4907,
      "Phi": 4908,
      "Sam": 4909,
      "phas": 4910,
      "staff": 4911,
      "ria": 4912,
      "mosqu": 4913,
      "teles": 4914,
      "comed": 4915,
      "illusion": 4916,
      "cock": 4917,
      "While": 4918,
      "vibr": 4919,
      "technological": 4920,
      "stock": 4921,
      "flower": 4922,
      "foundation": 4923,
      "polic": 4924,
      "factors": 4925,
      "blocks": 4926,
      "advice": 4927,
      "dropped": 4928,
      "combination": 4929,
      "adopt": 4930,
      "efficiency": 4931,
      "scope": 4932,
      "mistake": 4933,
      "sample": 4934,
      "Russia": 4935,
      "corporate": 4936,
      "Four": 4937,
      "Hi": 4938,
      "Lad": 4939,
      "Mil": 4940,
      "cue": 4941,
      "gate": 4942,
      "ingred": 4943,
      "stair": 4944,
      "usive": 4945,
      "oph": 4946,
      "heren": 4947,
      "estim": 4948,
      "pool": 4949,
      "thanks": 4950,
      "strict": 4951,
      "club": 4952,
      "ultimate": 4953,
      "presence": 4954,
      "simpl": 4955,
      "walks": 4956,
      "2007": 4957,
      "Ange": 4958,
      "figures": 4959,
      "literature": 4960,
      "applied": 4961,
      "burning": 4962,
      "tracking": 4963,
      "neighbors": 4964,
      "occurred": 4965,
      "mountains": 4966,
      "infected": 4967,
      "inspiration": 4968,
      "zoom": 4969,
      "Prize": 4970,
      "opinion": 4971,
      "destruction": 4972,
      "paradig": 4973,
      "Pacific": 4974,
      "kitchen": 4975,
      "Bank": 4976,
      "Lat": 4977,
      "Since": 4978,
      "bare": 4979,
      "cto": 4980,
      "jum": 4981,
      "thin": 4982,
      "thus": 4983,
      "lio": 4984,
      "dogs": 4985,
      "ternal": 4986,
      "underwater": 4987,
      "computing": 4988,
      "processing": 4989,
      "boring": 4990,
      "plicity": 4991,
      "ancestors": 4992,
      "reached": 4993,
      "traveling": 4994,
      "confidence": 4995,
      "sweet": 4996,
      "hoping": 4997,
      "sports": 4998,
      "components": 4999,
      "chicken": 5000,
      "doubt": 5001,
      "Air": 5002,
      "Spe": 5003,
      "Sil": 5004,
      "fif": 5005,
      "pit": 5006,
      "wars": 5007,
      "wine": 5008,
      "recycl": 5009,
      "enced": 5010,
      "ari": 5011,
      "accompl": 5012,
      "conven": 5013,
      "cave": 5014,
      "extr": 5015,
      "grat": 5016,
      "tie": 5017,
      "coordin": 5018,
      "phy": 5019,
      "however": 5020,
      "studio": 5021,
      "pulled": 5022,
      "Stan": 5023,
      "Congo": 5024,
      "tests": 5025,
      "senses": 5026,
      "silence": 5027,
      "fossil": 5028,
      "Haw": 5029,
      "hits": 5030,
      "lens": 5031,
      "nav": 5032,
      "uries": 5033,
      "xim": 5034,
      "inform": 5035,
      "stro": 5036,
      "llo": 5037,
      "abled": 5038,
      "features": 5039,
      "illegal": 5040,
      "nology": 5041,
      "aston": 5042,
      "empower": 5043,
      "shame": 5044,
      "memor": 5045,
      "naturally": 5046,
      "Nobody": 5047,
      "50s": 5048,
      "drives": 5049,
      "keeps": 5050,
      "milk": 5051,
      "axis": 5052,
      "meaningful": 5053,
      "activities": 5054,
      "narrative": 5055,
      "Muslim": 5056,
      "eggs": 5057,
      "Glo": 5058,
      "iPhone": 5059,
      "acles": 5060,
      "absor": 5061,
      "adminis": 5062,
      "proof": 5063,
      "clust": 5064,
      "ipedia": 5065,
      "allowing": 5066,
      "films": 5067,
      "operate": 5068,
      "innovative": 5069,
      "falls": 5070,
      "horiz": 5071,
      "pursu": 5072,
      "existing": 5073,
      "volume": 5074,
      "silk": 5075,
      "flowers": 5076,
      "rupt": 5077,
      "cooking": 5078,
      "quantum": 5079,
      "complain": 5080,
      "abstract": 5081,
      "empathy": 5082,
      "23": 5083,
      "Cent": 5084,
      "Nat": 5085,
      "refer": 5086,
      "church": 5087,
      "inequality": 5088,
      "ief": 5089,
      "trig": 5090,
      "afternoon": 5091,
      "State": 5092,
      "arrass": 5093,
      "performing": 5094,
      "records": 5095,
      "democratic": 5096,
      "psychological": 5097,
      "oxide": 5098,
      "hospitals": 5099,
      "discuss": 5100,
      "entrepreneurs": 5101,
      "firm": 5102,
      "manufacturing": 5103,
      "Valley": 5104,
      "false": 5105,
      "Science": 5106,
      "Mal": 5107,
      "border": 5108,
      "tu": 5109,
      "reti": 5110,
      "ised": 5111,
      "icide": 5112,
      "roots": 5113,
      "upper": 5114,
      "percentage": 5115,
      "personally": 5116,
      "polar": 5117,
      "relate": 5118,
      "joke": 5119,
      "holds": 5120,
      "Only": 5121,
      "mechanism": 5122,
      "proteins": 5123,
      "laptop": 5124,
      "conservation": 5125,
      "dramatic": 5126,
      "intuitive": 5127,
      "circuit": 5128,
      "spoken": 5129,
      "Five": 5130,
      "Los": 5131,
      "Pol": 5132,
      "Tech": 5133,
      "gence": 5134,
      "scar": 5135,
      "ita": 5136,
      "stable": 5137,
      "lyn": 5138,
      "liver": 5139,
      "confront": 5140,
      "concrete": 5141,
      "ums": 5142,
      "resili": 5143,
      "dish": 5144,
      "hook": 5145,
      "Chica": 5146,
      "creature": 5147,
      "ballo": 5148,
      "operation": 5149,
      "Also": 5150,
      "largely": 5151,
      "increased": 5152,
      "collected": 5153,
      "France": 5154,
      "villages": 5155,
      "required": 5156,
      "fundamentally": 5157,
      "attacks": 5158,
      "constant": 5159,
      "birthday": 5160,
      "participate": 5161,
      "lifest": 5162,
      "Perhaps": 5163,
      "conclusion": 5164,
      "ollywood": 5165,
      "Betti": 5166,
      "embarrass": 5167,
      "circumstances": 5168,
      "Chicago": 5169,
      "Ari": 5170,
      "Cha": 5171,
      "Found": 5172,
      "Sud": 5173,
      "pace": 5174,
      "scared": 5175,
      "taste": 5176,
      "wid": 5177,
      "whel": 5178,
      "renew": 5179,
      "enable": 5180,
      "outcome": 5181,
      "implications": 5182,
      "option": 5183,
      "unknown": 5184,
      "applications": 5185,
      "pher": 5186,
      "poses": 5187,
      "internal": 5188,
      "serving": 5189,
      "lessly": 5190,
      "bike": 5191,
      "mony": 5192,
      "paralle": 5193,
      "suppose": 5194,
      "physically": 5195,
      "sunlight": 5196,
      "Boston": 5197,
      "released": 5198,
      "providing": 5199,
      "laughter": 5200,
      "electronic": 5201,
      "collapse": 5202,
      "accurate": 5203,
      "Gener": 5204,
      "cute": 5205,
      "mm": 5206,
      "mate": 5207,
      "pup": 5208,
      "tack": 5209,
      "anx": 5210,
      "reverse": 5211,
      "repair": 5212,
      "ision": 5213,
      "iture": 5214,
      "youth": 5215,
      "ours": 5216,
      "truck": 5217,
      "ula": 5218,
      "nowhere": 5219,
      "phr": 5220,
      "centuries": 5221,
      "monkey": 5222,
      "closely": 5223,
      "potentially": 5224,
      "combine": 5225,
      "critic": 5226,
      "linked": 5227,
      "survey": 5228,
      "Design": 5229,
      "library": 5230,
      "22": 5231,
      "MS": 5232,
      "Museum": 5233,
      "cence": 5234,
      "ears": 5235,
      "fying": 5236,
      "esome": 5237,
      "whales": 5238,
      "abs": 5239,
      "doors": 5240,
      "plot": 5241,
      "apparent": 5242,
      "covery": 5243,
      "logically": 5244,
      "overwhel": 5245,
      "fake": 5246,
      "autism": 5247,
      "organism": 5248,
      "angers": 5249,
      "tonight": 5250,
      "deaths": 5251,
      "falling": 5252,
      "boxes": 5253,
      "feeding": 5254,
      "combined": 5255,
      "fortunate": 5256,
      "score": 5257,
      "quarter": 5258,
      "Paris": 5259,
      "decline": 5260,
      "surgeon": 5261,
      "Egypt": 5262,
      "explanation": 5263,
      "conventional": 5264,
      "GPS": 5265,
      "BM": 5266,
      "Bay": 5267,
      "DA": 5268,
      "Easter": 5269,
      "Lin": 5270,
      "Ros": 5271,
      "athan": 5272,
      "furn": 5273,
      "fied": 5274,
      "jail": 5275,
      "ka": 5276,
      "chart": 5277,
      "astro": 5278,
      "partners": 5279,
      "intense": 5280,
      "rail": 5281,
      "tribut": 5282,
      "biod": 5283,
      "shaped": 5284,
      "curren": 5285,
      "corn": 5286,
      "Union": 5287,
      "Unfortunately": 5288,
      "functions": 5289,
      "election": 5290,
      "Something": 5291,
      "statement": 5292,
      "behavioral": 5293,
      "aneously": 5294,
      "mathematic": 5295,
      "subjects": 5296,
      "transformed": 5297,
      "German": 5298,
      "instruments": 5299,
      "flew": 5300,
      "Wikipedia": 5301,
      "Republ": 5302,
      "DH": 5303,
      "Del": 5304,
      "Eve": 5305,
      "Jon": 5306,
      "Sep": 5307,
      "bath": 5308,
      "bones": 5309,
      "ffe": 5310,
      "pitch": 5311,
      "reject": 5312,
      "item": 5313,
      "sters": 5314,
      "whist": 5315,
      "utter": 5316,
      "loop": 5317,
      "frank": 5318,
      "button": 5319,
      "aps": 5320,
      "ishment": 5321,
      "shake": 5322,
      "curve": 5323,
      "diplom": 5324,
      "breed": 5325,
      "robotic": 5326,
      "papers": 5327,
      "pollen": 5328,
      "songs": 5329,
      "surrounded": 5330,
      "technique": 5331,
      "mosquito": 5332,
      "Mark": 5333,
      "cers": 5334,
      "ckets": 5335,
      "gment": 5336,
      "iel": 5337,
      "loud": 5338,
      "yard": 5339,
      "inations": 5340,
      "chose": 5341,
      "abol": 5342,
      "nets": 5343,
      "embed": 5344,
      "desper": 5345,
      "olds": 5346,
      "clothes": 5347,
      "economists": 5348,
      "connecting": 5349,
      "microbes": 5350,
      "stronger": 5351,
      "slides": 5352,
      "ridic": 5353,
      "fingers": 5354,
      "heroes": 5355,
      "spiritual": 5356,
      "latest": 5357,
      "contrast": 5358,
      "gentlemen": 5359,
      "horrible": 5360,
      "split": 5361,
      "Christmas": 5362,
      "philanth": 5363,
      "65": 5364,
      "Cal": 5365,
      "Hy": 5366,
      "Hig": 5367,
      "PA": 5368,
      "bicy": 5369,
      "dense": 5370,
      "gro": 5371,
      "oo": 5372,
      "pas": 5373,
      "thick": 5374,
      "reference": 5375,
      "ena": 5376,
      "orient": 5377,
      "bell": 5378,
      "conce": 5379,
      "plent": 5380,
      "plans": 5381,
      "ateful": 5382,
      "stands": 5383,
      "cyber": 5384,
      "correspond": 5385,
      "generated": 5386,
      "expon": 5387,
      "productivity": 5388,
      "wondered": 5389,
      "explained": 5390,
      "challenging": 5391,
      "Micro": 5392,
      "laboratory": 5393,
      "continued": 5394,
      "clouds": 5395,
      "motivation": 5396,
      "framework": 5397,
      "cooperation": 5398,
      "breathe": 5399,
      "options": 5400,
      "Martin": 5401,
      "Ghana": 5402,
      "navig": 5403,
      "250": 5404,
      "Lar": 5405,
      "Tit": 5406,
      "dict": 5407,
      "gers": 5408,
      "ert": 5409,
      "stack": 5410,
      "aret": 5411,
      "dozen": 5412,
      "god": 5413,
      "admit": 5414,
      "anta": 5415,
      "comment": 5416,
      "plain": 5417,
      "somewhat": 5418,
      "ests": 5419,
      "Health": 5420,
      "guide": 5421,
      "writ": 5422,
      "busy": 5423,
      "mush": 5424,
      "prize": 5425,
      "footprint": 5426,
      "dancing": 5427,
      "hotel": 5428,
      "functional": 5429,
      "remains": 5430,
      "authority": 5431,
      "neuroscience": 5432,
      "Obama": 5433,
      "vaccine": 5434,
      "obsessed": 5435,
      "herent": 5436,
      "Jef": 5437,
      "MA": 5438,
      "thi": 5439,
      "angry": 5440,
      "cere": 5441,
      "poly": 5442,
      "spider": 5443,
      "evening": 5444,
      "Before": 5445,
      "azz": 5446,
      "19th": 5447,
      "limits": 5448,
      "publish": 5449,
      "traits": 5450,
      "faced": 5451,
      "Arch": 5452,
      "classes": 5453,
      "tested": 5454,
      "advance": 5455,
      "communications": 5456,
      "stayed": 5457,
      "measured": 5458,
      "provided": 5459,
      "suffer": 5460,
      "journalist": 5461,
      "embrace": 5462,
      "toxic": 5463,
      "paradigm": 5464,
      "Global": 5465,
      "biodiversity": 5466,
      "Higgs": 5467,
      "Fort": 5468,
      "Gulf": 5469,
      "Rw": 5470,
      "Sur": 5471,
      "Sah": 5472,
      "Tor": 5473,
      "bage": 5474,
      "fiction": 5475,
      "pha": 5476,
      "rush": 5477,
      "remove": 5478,
      "regre": 5479,
      "asy": 5480,
      "imple": 5481,
      "unlike": 5482,
      "pled": 5483,
      "plug": 5484,
      "nose": 5485,
      "bold": 5486,
      "designs": 5487,
      "monkeys": 5488,
      "engaging": 5489,
      "cription": 5490,
      "Nothing": 5491,
      "otech": 5492,
      "regions": 5493,
      "tember": 5494,
      "deploy": 5495,
      "climb": 5496,
      "Demo": 5497,
      "Remember": 5498,
      "privacy": 5499,
      "conversations": 5500,
      "About": 5501,
      "Basically": 5502,
      "Latin": 5503,
      "September": 5504,
      "Bon": 5505,
      "Gi": 5506,
      "Mom": 5507,
      "Sing": 5508,
      "Six": 5509,
      "Up": 5510,
      "fright": 5511,
      "gon": 5512,
      "zer": 5513,
      "thet": 5514,
      "resolution": 5515,
      "army": 5516,
      "wet": 5517,
      "vey": 5518,
      "accoun": 5519,
      "opy": 5520,
      "thered": 5521,
      "agend": 5522,
      "gray": 5523,
      "intention": 5524,
      "obes": 5525,
      "simplicity": 5526,
      "handle": 5527,
      "careful": 5528,
      "bott": 5529,
      "2005": 5530,
      "2009": 5531,
      "funding": 5532,
      "windows": 5533,
      "interactive": 5534,
      "telephone": 5535,
      "mechanical": 5536,
      "drinking": 5537,
      "samples": 5538,
      "penguins": 5539,
      "agreed": 5540,
      "poorest": 5541,
      "Fre": 5542,
      "Mu": 5543,
      "Mad": 5544,
      "Port": 5545,
      "Pho": 5546,
      "hat": 5547,
      "ij": 5548,
      "itors": 5549,
      "rors": 5550,
      "tube": 5551,
      "root": 5552,
      "peer": 5553,
      "neut": 5554,
      "decre": 5555,
      "constrain": 5556,
      "tration": 5557,
      "overall": 5558,
      "struck": 5559,
      "flag": 5560,
      "fault": 5561,
      "colate": 5562,
      "patent": 5563,
      "classic": 5564,
      "treating": 5565,
      "domestic": 5566,
      "Really": 5567,
      "represented": 5568,
      "swimming": 5569,
      "pipe": 5570,
      "puzzle": 5571,
      "Human": 5572,
      "infinite": 5573,
      "lifestyle": 5574,
      "27": 5575,
      "Gen": 5576,
      "Grand": 5577,
      "Sal": 5578,
      "cin": 5579,
      "gust": 5580,
      "iP": 5581,
      "lean": 5582,
      "lymp": 5583,
      "tee": 5584,
      "traged": 5585,
      "illustr": 5586,
      "wherever": 5587,
      "disappear": 5588,
      "overcome": 5589,
      "mune": 5590,
      "preced": 5591,
      "ucks": 5592,
      "plays": 5593,
      "graphics": 5594,
      "addict": 5595,
      "ctors": 5596,
      "joined": 5597,
      "certainty": 5598,
      "stretch": 5599,
      "equally": 5600,
      "distinct": 5601,
      "sensors": 5602,
      "recording": 5603,
      "architects": 5604,
      "practices": 5605,
      "consumers": 5606,
      "printing": 5607,
      "spreading": 5608,
      "fixed": 5609,
      "arguments": 5610,
      "offered": 5611,
      "exploring": 5612,
      "appreciate": 5613,
      "elimin": 5614,
      "execut": 5615,
      "26": 5616,
      "Budd": 5617,
      "Jim": 5618,
      "Olymp": 5619,
      "Sa": 5620,
      "Ty": 5621,
      "Tex": 5622,
      "Woman": 5623,
      "fare": 5624,
      "honey": 5625,
      "mim": 5626,
      "vag": 5627,
      "inject": 5628,
      "ota": 5629,
      "tea": 5630,
      "determ": 5631,
      "umin": 5632,
      "poet": 5633,
      "agon": 5634,
      "grateful": 5635,
      "boo": 5636,
      "disorders": 5637,
      "posing": 5638,
      "ucing": 5639,
      "obst": 5640,
      "finance": 5641,
      "shoulder": 5642,
      "instinct": 5643,
      "grows": 5644,
      "Nobel": 5645,
      "rising": 5646,
      "identical": 5647,
      "educational": 5648,
      "Everyone": 5649,
      "dependence": 5650,
      "divided": 5651,
      "anticip": 5652,
      "diagram": 5653,
      "bombs": 5654,
      "curiosity": 5655,
      "inspiring": 5656,
      "William": 5657,
      "breathing": 5658,
      "extinct": 5659,
      "Korea": 5660,
      "toilet": 5661,
      "younger": 5662,
      "Apple": 5663,
      "occasion": 5664,
      "datab": 5665,
      "obesity": 5666,
      "determine": 5667,
      "Ox": 5668,
      "bond": 5669,
      "cart": 5670,
      "dign": 5671,
      "mitted": 5672,
      "eries": 5673,
      "arrest": 5674,
      "severe": 5675,
      "omin": 5676,
      "wired": 5677,
      "sole": 5678,
      "ambit": 5679,
      "unclear": 5680,
      "causing": 5681,
      "pocket": 5682,
      "application": 5683,
      "worker": 5684,
      "prepar": 5685,
      "pressing": 5686,
      "offers": 5687,
      "carried": 5688,
      "colum": 5689,
      "transfer": 5690,
      "particle": 5691,
      "economies": 5692,
      "animation": 5693,
      "recognition": 5694,
      "pushing": 5695,
      "standards": 5696,
      "earthqu": 5697,
      "paintings": 5698,
      "romantic": 5699,
      "Haiti": 5700,
      "selection": 5701,
      "automatically": 5702,
      "diabet": 5703,
      "powers": 5704,
      "phase": 5705,
      "frankly": 5706,
      "AB": 5707,
      "House": 5708,
      "dies": 5709,
      "han": 5710,
      "pump": 5711,
      "input": 5712,
      "react": 5713,
      "reform": 5714,
      "iders": 5715,
      "forts": 5716,
      "ifying": 5717,
      "pox": 5718,
      "owned": 5719,
      "download": 5720,
      "title": 5721,
      "Star": 5722,
      "parking": 5723,
      "globe": 5724,
      "awesome": 5725,
      "friendly": 5726,
      "controlling": 5727,
      "filter": 5728,
      "flood": 5729,
      "floating": 5730,
      "sympto": 5731,
      "barri": 5732,
      "directions": 5733,
      "concepts": 5734,
      "smoke": 5735,
      "wireless": 5736,
      "candid": 5737,
      "Finally": 5738,
      "Foundation": 5739,
      "Jeff": 5740,
      "symptoms": 5741,
      "Bur": 5742,
      "CD": 5743,
      "SE": 5744,
      "Ze": 5745,
      "[\"": 5746,
      "gut": 5747,
      "ua": 5748,
      "rek": 5749,
      "orches": 5750,
      "andon": 5751,
      "assume": 5752,
      "omed": 5753,
      "heim": 5754,
      "ching": 5755,
      "geome": 5756,
      "impress": 5757,
      "ctic": 5758,
      "polio": 5759,
      "tight": 5760,
      "brush": 5761,
      "pharm": 5762,
      "channel": 5763,
      "controver": 5764,
      "asteroid": 5765,
      "equation": 5766,
      "scary": 5767,
      "enemy": 5768,
      "session": 5769,
      "distributed": 5770,
      "celebrate": 5771,
      "brothers": 5772,
      "housing": 5773,
      "involves": 5774,
      "fabric": 5775,
      "advertising": 5776,
      "astonishing": 5777,
      "Hans": 5778,
      "June": 5779,
      "Res": 5780,
      "borders": 5781,
      "cend": 5782,
      "density": 5783,
      "pion": 5784,
      "pour": 5785,
      "rition": 5786,
      "tore": 5787,
      "outcomes": 5788,
      "gol": 5789,
      "femin": 5790,
      "persu": 5791,
      "White": 5792,
      "udes": 5793,
      "positions": 5794,
      "colony": 5795,
      "missed": 5796,
      "subs": 5797,
      "traum": 5798,
      "magn": 5799,
      "custo": 5800,
      "presented": 5801,
      "mainly": 5802,
      "shock": 5803,
      "ferti": 5804,
      "reaching": 5805,
      "citizen": 5806,
      "tasks": 5807,
      "hunger": 5808,
      "fascinated": 5809,
      "component": 5810,
      "sculpture": 5811,
      "elephant": 5812,
      "Sweden": 5813,
      "adventure": 5814,
      "BG": 5815,
      "Jer": 5816,
      "Mor": 5817,
      "Vir": 5818,
      "aes": 5819,
      "flip": 5820,
      "hill": 5821,
      "stun": 5822,
      "behave": 5823,
      "locked": 5824,
      "del": 5825,
      "tip": 5826,
      "cosmo": 5827,
      "suicide": 5828,
      "thentic": 5829,
      "prices": 5830,
      "distr": 5831,
      "labe": 5832,
      "ubes": 5833,
      "translate": 5834,
      "lovely": 5835,
      "glac": 5836,
      "Stud": 5837,
      "organize": 5838,
      "parency": 5839,
      "painful": 5840,
      "Sea": 5841,
      "devast": 5842,
      "increases": 5843,
      "teams": 5844,
      "greenhouse": 5845,
      "summar": 5846,
      "interactions": 5847,
      "conflicts": 5848,
      "habitat": 5849,
      "criminal": 5850,
      "Islamic": 5851,
      "extent": 5852,
      "resistance": 5853,
      "pyram": 5854,
      "vessels": 5855,
      "insurance": 5856,
      "policies": 5857,
      "furniture": 5858,
      "Bob": 5859,
      "Gir": 5860,
      "Give": 5861,
      "Les": 5862,
      "Long": 5863,
      "SP": 5864,
      "Sar": 5865,
      "vital": 5866,
      "recomm": 5867,
      "recovery": 5868,
      "erad": 5869,
      "toler": 5870,
      "alien": 5871,
      "immune": 5872,
      "capt": 5873,
      "proced": 5874,
      "putation": 5875,
      "herself": 5876,
      "genius": 5877,
      "lighting": 5878,
      "transplant": 5879,
      "Island": 5880,
      "trait": 5881,
      "populations": 5882,
      "distant": 5883,
      "measuring": 5884,
      "existed": 5885,
      "traveled": 5886,
      "Boy": 5887,
      "laughing": 5888,
      "sales": 5889,
      "suspect": 5890,
      "prototype": 5891,
      "dynamics": 5892,
      "license": 5893,
      "psychiat": 5894,
      "dramatically": 5895,
      "Space": 5896,
      "Palest": 5897,
      "attached": 5898,
      "Fellows": 5899,
      "exhibition": 5900,
      "Microsoft": 5901,
      "agenda": 5902,
      "800": 5903,
      "Part": 5904,
      "River": 5905,
      "Tal": 5906,
      "abe": 5907,
      "fli": 5908,
      "kilo": 5909,
      "lung": 5910,
      "mi": 5911,
      "pile": 5912,
      "rus": 5913,
      "sket": 5914,
      "iny": 5915,
      "stal": 5916,
      "icient": 5917,
      "mel": 5918,
      "likes": 5919,
      "ropo": 5920,
      "ceiling": 5921,
      "delic": 5922,
      "disorder": 5923,
      "disgust": 5924,
      "efforts": 5925,
      "linear": 5926,
      "views": 5927,
      "hearts": 5928,
      "accum": 5929,
      "accessible": 5930,
      "interacting": 5931,
      "divide": 5932,
      "constructed": 5933,
      "genesis": 5934,
      "judge": 5935,
      "nutrition": 5936,
      "savings": 5937,
      "mystery": 5938,
      "commitment": 5939,
      "rhythm": 5940,
      "permanent": 5941,
      "evalu": 5942,
      "Angeles": 5943,
      "phrase": 5944,
      "plenty": 5945,
      "Democr": 5946,
      "Ethi": 5947,
      "Ko": 5948,
      "Number": 5949,
      "Ten": 5950,
      "gam": 5951,
      "ores": 5952,
      "rating": 5953,
      "yield": 5954,
      "theless": 5955,
      "tops": 5956,
      "escape": 5957,
      "omo": 5958,
      "whale": 5959,
      "idi": 5960,
      "chief": 5961,
      "abuse": 5962,
      "nels": 5963,
      "modif": 5964,
      "degrad": 5965,
      "commod": 5966,
      "odes": 5967,
      "seek": 5968,
      "brow": 5969,
      "prem": 5970,
      "lecture": 5971,
      "Africans": 5972,
      "authentic": 5973,
      "audi": 5974,
      "elev": 5975,
      "touched": 5976,
      "covering": 5977,
      "receive": 5978,
      "ladies": 5979,
      "washing": 5980,
      "precisely": 5981,
      "Smith": 5982,
      "laser": 5983,
      "achieved": 5984,
      "embedded": 5985,
      "Ethiop": 5986,
      "Mary": 5987,
      "Sou": 5988,
      "bia": 5989,
      "cash": 5990,
      "pand": 5991,
      "ule": 5992,
      "uri": 5993,
      "wich": 5994,
      "inf": 5995,
      "inson": 5996,
      "request": 5997,
      "acular": 5998,
      "hai": 5999,
      "lims": 6000,
      "ida": 6001,
      "abund": 6002,
      "mold": 6003,
      "usions": 6004,
      "units": 6005,
      "excl": 6006,
      "shr": 6007,
      "tied": 6008,
      "bucks": 6009,
      "strand": 6010,
      "sheep": 6011,
      "aks": 6012,
      "flash": 6013,
      "imagined": 6014,
      "ugly": 6015,
      "limb": 6016,
      "aircraft": 6017,
      "signed": 6018,
      "surely": 6019,
      "funded": 6020,
      "stere": 6021,
      "expectations": 6022,
      "neuron": 6023,
      "clinic": 6024,
      "Muslims": 6025,
      "mammo": 6026,
      "destroyed": 6027,
      "sacri": 6028,
      "dolphins": 6029,
      "ignore": 6030,
      "Central": 6031,
      "parallel": 6032,
      "28": 6033,
      "700": 6034,
      "Bush": 6035,
      "Black": 6036,
      "Den": 6037,
      "Ice": 6038,
      "RS": 6039,
      "Ug": 6040,
      "Whe": 6041,
      "rice": 6042,
      "ssing": 6043,
      "wart": 6044,
      "beer": 6045,
      "lla": 6046,
      "entered": 6047,
      "lig": 6048,
      "cher": 6049,
      "opposed": 6050,
      "delight": 6051,
      "department": 6052,
      "proportion": 6053,
      "maxim": 6054,
      "disappeared": 6055,
      "thrown": 6056,
      "genom": 6057,
      "chocolate": 6058,
      "personality": 6059,
      "dioxide": 6060,
      "earn": 6061,
      "paras": 6062,
      "ski": 6063,
      "adding": 6064,
      "legis": 6065,
      "photographer": 6066,
      "meetings": 6067,
      "innovations": 6068,
      "grandfather": 6069,
      "recognized": 6070,
      "properly": 6071,
      "optimistic": 6072,
      "jec": 6073,
      "frozen": 6074,
      "route": 6075,
      "academic": 6076,
      "magnetic": 6077,
      "balloon": 6078,
      "Texas": 6079,
      "dignity": 6080,
      "\"]": 6081,
      "95": 6082,
      "Never": 6083,
      "Revolution": 6084,
      "gig": 6085,
      "pse": 6086,
      "asive": 6087,
      "neither": 6088,
      "Sovi": 6089,
      "excell": 6090,
      "quad": 6091,
      "reduction": 6092,
      "whereas": 6093,
      "bug": 6094,
      "imagin": 6095,
      "2006": 6096,
      "charity": 6097,
      "facial": 6098,
      "International": 6099,
      "domain": 6100,
      "balls": 6101,
      "origami": 6102,
      "burst": 6103,
      "Carol": 6104,
      "sticks": 6105,
      "shooting": 6106,
      "captured": 6107,
      "manufacture": 6108,
      "repeat": 6109,
      "sculpt": 6110,
      "historical": 6111,
      "incentives": 6112,
      "symmetry": 6113,
      "January": 6114,
      "Jes": 6115,
      "bally": 6116,
      "eu": 6117,
      "lone": 6118,
      "pound": 6119,
      "rome": 6120,
      "encounter": 6121,
      "adjust": 6122,
      "tery": 6123,
      "shine": 6124,
      "estimate": 6125,
      "sage": 6126,
      "brown": 6127,
      "guaran": 6128,
      "TEDTalk": 6129,
      "letting": 6130,
      "mining": 6131,
      "inven": 6132,
      "transparent": 6133,
      "headed": 6134,
      "muscles": 6135,
      "legacy": 6136,
      "governance": 6137,
      "musicians": 6138,
      "elsewhere": 6139,
      "passing": 6140,
      "collecting": 6141,
      "depending": 6142,
      "microscope": 6143,
      "competit": 6144,
      "Steven": 6145,
      "describes": 6146,
      "inspire": 6147,
      "dedicated": 6148,
      "tricks": 6149,
      "engagement": 6150,
      "narrow": 6151,
      "weapon": 6152,
      "seeds": 6153,
      "customers": 6154,
      "fifth": 6155,
      "retire": 6156,
      "29": 6157,
      "Gates": 6158,
      "Que": 6159,
      "SS": 6160,
      "aj": 6161,
      "fiber": 6162,
      "mals": 6163,
      "pink": 6164,
      "rac": 6165,
      "tone": 6166,
      "uel": 6167,
      "tock": 6168,
      "stations": 6169,
      "lium": 6170,
      "otes": 6171,
      "chest": 6172,
      "abandon": 6173,
      "fron": 6174,
      "ody": 6175,
      "aggress": 6176,
      "spots": 6177,
      "backwards": 6178,
      "intended": 6179,
      "crying": 6180,
      "chosen": 6181,
      "committed": 6182,
      "hire": 6183,
      "finds": 6184,
      "oldest": 6185,
      "archy": 6186,
      "cheaper": 6187,
      "gled": 6188,
      "relations": 6189,
      "drill": 6190,
      "incident": 6191,
      "scales": 6192,
      "speaker": 6193,
      "fluid": 6194,
      "purch": 6195,
      "footage": 6196,
      "produces": 6197,
      "emergency": 6198,
      "dimension": 6199,
      "genetics": 6200,
      "links": 6201,
      "reported": 6202,
      "affordable": 6203,
      "defense": 6204,
      "crops": 6205,
      "electronics": 6206,
      "schol": 6207,
      "beliefs": 6208,
      "frog": 6209,
      "methods": 6210,
      "scratch": 6211,
      "aspects": 6212,
      "Tell": 6213,
      "strategies": 6214,
      "Stanford": 6215,
      "32": 6216,
      "Eric": 6217,
      "Jose": 6218,
      "Next": 6219,
      "Oce": 6220,
      "bby": 6221,
      "bars": 6222,
      "fusion": 6223,
      "ias": 6224,
      "rab": 6225,
      "ubi": 6226,
      "ingly": 6227,
      "ache": 6228,
      "chrom": 6229,
      "iled": 6230,
      "agger": 6231,
      "wanting": 6232,
      "ferences": 6233,
      "tribes": 6234,
      "stops": 6235,
      "court": 6236,
      "viral": 6237,
      "glades": 6238,
      "paraly": 6239,
      "searching": 6240,
      "drove": 6241,
      "protecting": 6242,
      "drawn": 6243,
      "darkness": 6244,
      "provides": 6245,
      "concern": 6246,
      "Pole": 6247,
      "vertical": 6248,
      "capitalism": 6249,
      "colleague": 6250,
      "crucial": 6251,
      "mammals": 6252,
      "algorithm": 6253,
      "boundaries": 6254,
      "storm": 6255,
      "trends": 6256,
      "heaven": 6257,
      "Blue": 6258,
      "fruit": 6259,
      "Atlantic": 6260,
      "diabetes": 6261,
      "Uganda": 6262,
      "85": 6263,
      "Ban": 6264,
      "Cap": 6265,
      "Mand": 6266,
      "Mag": 6267,
      "None": 6268,
      "Time": 6269,
      "dust": 6270,
      "dys": 6271,
      "jelly": 6272,
      "tho": 6273,
      "toys": 6274,
      "aside": 6275,
      "leap": 6276,
      "utch": 6277,
      "chi": 6278,
      "chip": 6279,
      "rocks": 6280,
      "shirt": 6281,
      "rescue": 6282,
      "illance": 6283,
      "rence": 6284,
      "sheet": 6285,
      "genoc": 6286,
      "stores": 6287,
      "wenty": 6288,
      "transparency": 6289,
      "skull": 6290,
      "hardware": 6291,
      "awk": 6292,
      "expans": 6293,
      "educated": 6294,
      "borrow": 6295,
      "champ": 6296,
      "continues": 6297,
      "spectacular": 6298,
      "breaks": 6299,
      "Should": 6300,
      "virtually": 6301,
      "hungry": 6302,
      "Arabic": 6303,
      "minister": 6304,
      "categor": 6305,
      "reefs": 6306,
      "privilege": 6307,
      "Voice": 6308,
      "knee": 6309,
      "tragedy": 6310,
      "Hal": 6311,
      "High": 6312,
      "Nations": 6313,
      "eed": 6314,
      "eleg": 6315,
      "gi": 6316,
      "lon": 6317,
      "voc": 6318,
      "zes": 6319,
      "ini": 6320,
      "infl": 6321,
      "enh": 6322,
      "ende": 6323,
      "enger": 6324,
      "orange": 6325,
      "het": 6326,
      "veter": 6327,
      "lored": 6328,
      "tears": 6329,
      "unlikely": 6330,
      "poster": 6331,
      "poison": 6332,
      "agency": 6333,
      "tage": 6334,
      "evin": 6335,
      "emen": 6336,
      "bless": 6337,
      "clar": 6338,
      "intent": 6339,
      "intri": 6340,
      "hier": 6341,
      "diverse": 6342,
      "hardly": 6343,
      "legit": 6344,
      "airport": 6345,
      "northern": 6346,
      "equality": 6347,
      "advoc": 6348,
      "Derek": 6349,
      "predictable": 6350,
      "emphas": 6351,
      "activism": 6352,
      "amongst": 6353,
      "adoles": 6354,
      "accepted": 6355,
      "contribute": 6356,
      "physicist": 6357,
      "official": 6358,
      "frequency": 6359,
      "elder": 6360,
      "chimpanzees": 6361,
      "autonomous": 6362,
      "Scott": 6363,
      "bicycle": 6364,
      "earthquake": 6365,
      "pione": 6366,
      "Virgin": 6367,
      "Bible": 6368,
      "Nature": 6369,
      "Pan": 6370,
      "Sup": 6371,
      "Viet": 6372,
      "cats": 6373,
      "ogue": 6374,
      "anes": 6375,
      "attribut": 6376,
      "ardo": 6377,
      "eda": 6378,
      "seats": 6379,
      "oty": 6380,
      "defe": 6381,
      "amed": 6382,
      "uration": 6383,
      "unbeliev": 6384,
      "exposed": 6385,
      "shri": 6386,
      "strangers": 6387,
      "manif": 6388,
      "surfaces": 6389,
      "laid": 6390,
      "instant": 6391,
      "avor": 6392,
      "supp": 6393,
      "subtle": 6394,
      "Indeed": 6395,
      "keyboard": 6396,
      "football": 6397,
      "ecosystems": 6398,
      "folding": 6399,
      "sandwich": 6400,
      "banks": 6401,
      "demonstrate": 6402,
      "lux": 6403,
      "33": 6404,
      "BI": 6405,
      "Bio": 6406,
      "Cur": 6407,
      "Sw": 6408,
      "Str": 6409,
      "Tan": 6410,
      "cab": 6411,
      "dirty": 6412,
      "hatt": 6413,
      "picking": 6414,
      "uous": 6415,
      "zens": 6416,
      "ano": 6417,
      "orous": 6418,
      "static": 6419,
      "icop": 6420,
      "bered": 6421,
      "lli": 6422,
      "iring": 6423,
      "iment": 6424,
      "Through": 6425,
      "essence": 6426,
      "yours": 6427,
      "underground": 6428,
      "bias": 6429,
      "founded": 6430,
      "drones": 6431,
      "smallpox": 6432,
      "probability": 6433,
      "respons": 6434,
      "capes": 6435,
      "2004": 6436,
      "30s": 6437,
      "speakers": 6438,
      "circles": 6439,
      "winning": 6440,
      "layers": 6441,
      "worthy": 6442,
      "ethical": 6443,
      "located": 6444,
      "Manhatt": 6445,
      "calculate": 6446,
      "imeter": 6447,
      "apartment": 6448,
      "universities": 6449,
      "surprisingly": 6450,
      "Joe": 6451,
      "quarters": 6452,
      "integrated": 6453,
      "surveillance": 6454,
      "volunteers": 6455,
      "pilot": 6456,
      "announced": 6457,
      "shadow": 6458,
      "pregnant": 6459,
      "apparently": 6460,
      "Eastern": 6461,
      "Rwanda": 6462,
      "legisl": 6463,
      "Vietnam": 6464,
      "Manhattan": 6465,
      "120": 6466,
      "BF": 6467,
      "Flor": 6468,
      "Gand": 6469,
      "Hollywood": 6470,
      "LA": 6471,
      "Mer": 6472,
      "Rese": 6473,
      "Sor": 6474,
      "Ver": 6475,
      "Video": 6476,
      "Was": 6477,
      "Wall": 6478,
      "mice": 6479,
      "mates": 6480,
      "itude": 6481,
      "depressed": 6482,
      "agencies": 6483,
      "tired": 6484,
      "izar": 6485,
      "lax": 6486,
      "afterwards": 6487,
      "visited": 6488,
      "glad": 6489,
      "globally": 6490,
      "farmer": 6491,
      "globalization": 6492,
      "viewer": 6493,
      "metabol": 6494,
      "painted": 6495,
      "accidents": 6496,
      "includes": 6497,
      "contains": 6498,
      "initial": 6499,
      "wheelchair": 6500,
      "neighborhoods": 6501,
      "copyright": 6502,
      "dominant": 6503,
      "evolve": 6504,
      "determined": 6505,
      "Children": 6506,
      "granted": 6507,
      "ingredients": 6508,
      "barely": 6509,
      "abeth": 6510,
      "Research": 6511,
      "Cy": 6512,
      "Fer": 6513,
      "Lou": 6514,
      "Mill": 6515,
      "MRI": 6516,
      "Narr": 6517,
      "Watch": 6518,
      "east": 6519,
      "punch": 6520,
      "rang": 6521,
      "trop": 6522,
      "thumb": 6523,
      "informed": 6524,
      "removed": 6525,
      "lethal": 6526,
      "soap": 6527,
      "opens": 6528,
      "ams": 6529,
      "consequence": 6530,
      "spark": 6531,
      "tort": 6532,
      "Inte": 6533,
      "realm": 6534,
      "conduc": 6535,
      "identified": 6536,
      "trajec": 6537,
      "killer": 6538,
      "Brown": 6539,
      "silent": 6540,
      "emerge": 6541,
      "constit": 6542,
      "variation": 6543,
      "terrorists": 6544,
      "nutri": 6545,
      "sharp": 6546,
      "anthropo": 6547,
      "satellites": 6548,
      "bags": 6549,
      "prosper": 6550,
      "isolated": 6551,
      "flexible": 6552,
      "Saturn": 6553,
      "injury": 6554,
      "chapter": 6555,
      "ignorance": 6556,
      "General": 6557,
      "gonna": 6558,
      "pyramid": 6559,
      "Soviet": 6560,
      "Ba": 6561,
      "Gl": 6562,
      "Hel": 6563,
      "Wil": 6564,
      "Walk": 6565,
      "thur": 6566,
      "inch": 6567,
      "theories": 6568,
      "reck": 6569,
      "returned": 6570,
      "recru": 6571,
      "consume": 6572,
      "ultra": 6573,
      "external": 6574,
      "shed": 6575,
      "apor": 6576,
      "answered": 6577,
      "blame": 6578,
      "flour": 6579,
      "cert": 6580,
      "pulling": 6581,
      "diver": 6582,
      "earning": 6583,
      "elections": 6584,
      "controls": 6585,
      "capability": 6586,
      "capita": 6587,
      "2003": 6588,
      "Antar": 6589,
      "Gore": 6590,
      "Move": 6591,
      "Arthur": 6592,
      "programming": 6593,
      "depth": 6594,
      "breakthrough": 6595,
      "Christian": 6596,
      "confident": 6597,
      "ethnic": 6598,
      "collaborative": 6599,
      "synthetic": 6600,
      "smooth": 6601,
      "discoveries": 6602,
      "separated": 6603,
      "glasses": 6604,
      "Prof": 6605,
      "debt": 6606,
      "expanding": 6607,
      "agricultural": 6608,
      "Jewish": 6609,
      "criminals": 6610,
      "campus": 6611,
      "symbols": 6612,
      "hanging": 6613,
      "briefly": 6614,
      "comedy": 6615,
      "Titan": 6616,
      "writers": 6617,
      "Oxford": 6618,
      "golf": 6619,
      "intrigu": 6620,
      "List": 6621,
      "MT": 6622,
      "Sus": 6623,
      "Squ": 6624,
      "Ven": 6625,
      "cens": 6626,
      "naked": 6627,
      "uum": 6628,
      "vity": 6629,
      "wound": 6630,
      "zan": 6631,
      "thre": 6632,
      "reputation": 6633,
      "tocin": 6634,
      "ingu": 6635,
      "arrange": 6636,
      "stages": 6637,
      "beet": 6638,
      "meal": 6639,
      "rolling": 6640,
      "neat": 6641,
      "implant": 6642,
      "opard": 6643,
      "reson": 6644,
      "ressing": 6645,
      "apple": 6646,
      "fool": 6647,
      "printer": 6648,
      "boss": 6649,
      "thane": 6650,
      "forming": 6651,
      "Hello": 6652,
      "underlying": 6653,
      "marter": 6654,
      "invite": 6655,
      "195": 6656,
      "Howard": 6657,
      "aws": 6658,
      "angles": 6659,
      "consult": 6660,
      "Isn": 6661,
      "2001": 6662,
      "figuring": 6663,
      "biologists": 6664,
      "thirds": 6665,
      "Stephen": 6666,
      "filling": 6667,
      "cliff": 6668,
      "fuels": 6669,
      "participants": 6670,
      "improvement": 6671,
      "daughters": 6672,
      "bubbles": 6673,
      "rarely": 6674,
      "qualities": 6675,
      "Brook": 6676,
      "dictionary": 6677,
      "heimer": 6678,
      "Florida": 6679,
      "Bre": 6680,
      "Back": 6681,
      "Ti": 6682,
      "mud": 6683,
      "til": 6684,
      "tical": 6685,
      "wings": 6686,
      "intr": 6687,
      "revol": 6688,
      "hey": 6689,
      "otics": 6690,
      "Andrew": 6691,
      "dear": 6692,
      "trash": 6693,
      "intervention": 6694,
      "helicop": 6695,
      "uba": 6696,
      "pointing": 6697,
      "imagery": 6698,
      "corals": 6699,
      "drivers": 6700,
      "morality": 6701,
      "profits": 6702,
      "plicit": 6703,
      "chaos": 6704,
      "grandchildren": 6705,
      "experimental": 6706,
      "consciously": 6707,
      "clients": 6708,
      "characteristics": 6709,
      "mysterious": 6710,
      "shifting": 6711,
      "consistent": 6712,
      "dialogue": 6713,
      "philanthropy": 6714,
      "Ethiopia": 6715,
      "Whether": 6716,
      "47": 6717,
      "Brian": 6718,
      "Put": 6719,
      "Wol": 6720,
      "dent": 6721,
      "iety": 6722,
      "lun": 6723,
      "pam": 6724,
      "tick": 6725,
      "uity": 6726,
      "ws": 6727,
      "relax": 6728,
      "icting": 6729,
      "acid": 6730,
      "hab": 6731,
      "delive": 6732,
      "uncomfortable": 6733,
      "artistic": 6734,
      "articles": 6735,
      "shit": 6736,
      "Italy": 6737,
      "etro": 6738,
      "happier": 6739,
      "assess": 6740,
      "marks": 6741,
      "caring": 6742,
      "minor": 6743,
      "simult": 6744,
      "tooth": 6745,
      "settle": 6746,
      "researcher": 6747,
      "facility": 6748,
      "industries": 6749,
      "relief": 6750,
      "sensory": 6751,
      "sentences": 6752,
      "Lee": 6753,
      "volcan": 6754,
      "panels": 6755,
      "salt": 6756,
      "documents": 6757,
      "Daniel": 6758,
      "Josh": 6759,
      "focusing": 6760,
      "schiz": 6761,
      "repeated": 6762,
      "reminded": 6763,
      "precedent": 6764,
      "delivered": 6765,
      "Hill": 6766,
      "Make": 6767,
      "Play": 6768,
      "Sand": 6769,
      "Turn": 6770,
      "glim": 6771,
      "mone": 6772,
      "wand": 6773,
      "zheimer": 6774,
      "inhabit": 6775,
      "rebuild": 6776,
      "oran": 6777,
      "sey": 6778,
      "heal": 6779,
      "robust": 6780,
      "outs": 6781,
      "output": 6782,
      "neural": 6783,
      "opath": 6784,
      "ifer": 6785,
      "urge": 6786,
      "trag": 6787,
      "trucks": 6788,
      "ulum": 6789,
      "caps": 6790,
      "Things": 6791,
      "pla": 6792,
      "aint": 6793,
      "reduced": 6794,
      "eline": 6795,
      "disap": 6796,
      "posal": 6797,
      "landed": 6798,
      "exped": 6799,
      "ocking": 6800,
      "Somebody": 6801,
      "Alzheimer": 6802,
      "explaining": 6803,
      "Department": 6804,
      "Leon": 6805,
      "supported": 6806,
      "barrel": 6807,
      "compelling": 6808,
      "predicted": 6809,
      "predictions": 6810,
      "smoking": 6811,
      "persist": 6812,
      "southern": 6813,
      "teenagers": 6814,
      "translated": 6815,
      "conclude": 6816,
      "prepare": 6817,
      "spinal": 6818,
      "federal": 6819,
      "colonies": 6820,
      "pursue": 6821,
      "resilience": 6822,
      "ridiculous": 6823,
      "regret": 6824,
      "Ocean": 6825,
      "genocide": 6826,
      "Narrator": 6827,
      "thresh": 6828,
      "Amy": 6829,
      "Hen": 6830,
      "LED": 6831,
      "Mat": 6832,
      "Wa": 6833,
      "bang": 6834,
      "bizar": 6835,
      "dive": 6836,
      "gory": 6837,
      "ko": 6838,
      "smarter": 6839,
      "twe": 6840,
      "tent": 6841,
      "tast": 6842,
      "threw": 6843,
      "inves": 6844,
      "inherent": 6845,
      "theore": 6846,
      "refri": 6847,
      "attitude": 6848,
      "itar": 6849,
      "asha": 6850,
      "leaf": 6851,
      "forgotten": 6852,
      "pel": 6853,
      "gos": 6854,
      "ureau": 6855,
      "ups": 6856,
      "cohol": 6857,
      "buried": 6858,
      "choo": 6859,
      "viously": 6860,
      "tribe": 6861,
      "condom": 6862,
      "mines": 6863,
      "handed": 6864,
      "curric": 6865,
      "closing": 6866,
      "fortune": 6867,
      "treatments": 6868,
      "distur": 6869,
      "Brain": 6870,
      "audio": 6871,
      "objective": 6872,
      "climbing": 6873,
      "measures": 6874,
      "Love": 6875,
      "impacts": 6876,
      "suggesting": 6877,
      "mechanisms": 6878,
      "reports": 6879,
      "translation": 6880,
      "Russian": 6881,
      "liberal": 6882,
      "diagnosed": 6883,
      "analyze": 6884,
      "attractive": 6885,
      "shelter": 6886,
      "primarily": 6887,
      "gathering": 6888,
      "slavery": 6889,
      "vacuum": 6890,
      "observation": 6891,
      "lawyer": 6892,
      "inevitable": 6893,
      "stairs": 6894,
      "convenient": 6895,
      "anxiety": 6896,
      "district": 6897,
      "Jesus": 6898,
      "refriger": 6899,
      "48": 6900,
      "Im": 6901,
      "Jane": 6902,
      "Out": 6903,
      "Ray": 6904,
      "athe": 6905,
      "cable": 6906,
      "fought": 6907,
      "hut": 6908,
      "ji": 6909,
      "jet": 6910,
      "ki": 6911,
      "ker": 6912,
      "ogy": 6913,
      "pti": 6914,
      "rings": 6915,
      "sits": 6916,
      "inches": 6917,
      "tori": 6918,
      "dozens": 6919,
      "rix": 6920,
      "rivers": 6921,
      "proposed": 6922,
      "shocking": 6923,
      "Ital": 6924,
      "agent": 6925,
      "grave": 6926,
      "restore": 6927,
      "spray": 6928,
      "iveness": 6929,
      "parties": 6930,
      "uces": 6931,
      "2011": 6932,
      "cheese": 6933,
      "phosp": 6934,
      "magical": 6935,
      "Bron": 6936,
      "expectancy": 6937,
      "photographed": 6938,
      "flows": 6939,
      "emerged": 6940,
      "activist": 6941,
      "targets": 6942,
      "nucle": 6943,
      "oxytocin": 6944,
      "sleeping": 6945,
      "atomic": 6946,
      "crossing": 6947,
      "struggling": 6948,
      "welcome": 6949,
      "garage": 6950,
      "tumors": 6951,
      "resistant": 6952,
      "shelf": 6953,
      "Cambridge": 6954,
      "extinction": 6955,
      "assembly": 6956,
      "perceive": 6957,
      "revenue": 6958,
      "Philip": 6959,
      "physi": 6960,
      "database": 6961,
      "fertiliz": 6962,
      "expansion": 6963,
      "BC": 6964,
      "Cour": 6965,
      "IM": 6966,
      "Mur": 6967,
      "Octo": 6968,
      "du": 6969,
      "fits": 6970,
      "fires": 6971,
      "hitting": 6972,
      "jac": 6973,
      "rage": 6974,
      "rats": 6975,
      "tong": 6976,
      "remem": 6977,
      "enthus": 6978,
      "leverage": 6979,
      "whis": 6980,
      "rogen": 6981,
      "advis": 6982,
      "Third": 6983,
      "shots": 6984,
      "gras": 6985,
      "tips": 6986,
      "spill": 6987,
      "bruary": 6988,
      "disagree": 6989,
      "partly": 6990,
      "gotta": 6991,
      "differenti": 6992,
      "1990s": 6993,
      "warning": 6994,
      "awn": 6995,
      "joint": 6996,
      "biologist": 6997,
      "operations": 6998,
      "frontal": 6999,
      "shore": 7000,
      "mingly": 7001,
      "radically": 7002,
      "Within": 7003,
      "representation": 7004,
      "Johnson": 7005,
      "soldier": 7006,
      "originally": 7007,
      "adox": 7008,
      "February": 7009,
      "chairs": 7010,
      "baseball": 7011,
      "senior": 7012,
      "nurt": 7013,
      "cartoons": 7014,
      "vulnerability": 7015,
      "insights": 7016,
      "sacred": 7017,
      "fragile": 7018,
      "Build": 7019,
      "dolphin": 7020,
      "CEO": 7021,
      "skeleton": 7022,
      "ophren": 7023,
      "shrimp": 7024,
      "bizarre": 7025,
      "October": 7026,
      "Gr": 7027,
      "KB": 7028,
      "Pl": 7029,
      "Sund": 7030,
      "Tes": 7031,
      "Wat": 7032,
      "wider": 7033,
      "reminds": 7034,
      "alcohol": 7035,
      "armed": 7036,
      "leather": 7037,
      "habits": 7038,
      "lihood": 7039,
      "los": 7040,
      "mood": 7041,
      "usal": 7042,
      "trou": 7043,
      "uncertainty": 7044,
      "compos": 7045,
      "essor": 7046,
      "span": 7047,
      "aches": 7048,
      "guard": 7049,
      "herit": 7050,
      "selfish": 7051,
      "lake": 7052,
      "biotech": 7053,
      "transmit": 7054,
      "completed": 7055,
      "drone": 7056,
      "homeless": 7057,
      "organizing": 7058,
      "miser": 7059,
      "begun": 7060,
      "charges": 7061,
      "iban": 7062,
      "engineered": 7063,
      "failing": 7064,
      "difficulty": 7065,
      "architectural": 7066,
      "silly": 7067,
      "combat": 7068,
      "suggested": 7069,
      "richer": 7070,
      "Coll": 7071,
      "diving": 7072,
      "pushed": 7073,
      "exception": 7074,
      "threats": 7075,
      "shops": 7076,
      "immediate": 7077,
      "texts": 7078,
      "nurses": 7079,
      "pleasant": 7080,
      "mixed": 7081,
      "Super": 7082,
      "involve": 7083,
      "Obviously": 7084,
      "demonstration": 7085,
      "fabulous": 7086,
      "extended": 7087,
      "Minister": 7088,
      "aspir": 7089,
      "category": 7090,
      "instructions": 7091,
      "refuge": 7092,
      "Girl": 7093,
      "recommend": 7094,
      "schizophren": 7095,
      "Dutch": 7096,
      "Jones": 7097,
      "Mother": 7098,
      "PC": 7099,
      "Power": 7100,
      "Sure": 7101,
      "Span": 7102,
      "Sky": 7103,
      "].": 7104,
      "bass": 7105,
      "cub": 7106,
      "jazz": 7107,
      "kin": 7108,
      "patch": 7109,
      "skept": 7110,
      "yan": 7111,
      "anony": 7112,
      "edges": 7113,
      "seal": 7114,
      "bears": 7115,
      "utical": 7116,
      "merely": 7117,
      "kee": 7118,
      "neck": 7119,
      "cake": 7120,
      "pling": 7121,
      "ilit": 7122,
      "upset": 7123,
      "ague": 7124,
      "suck": 7125,
      "unde": 7126,
      "disability": 7127,
      "needle": 7128,
      "ensure": 7129,
      "counting": 7130,
      "aze": 7131,
      "1970s": 7132,
      "Trust": 7133,
      "glow": 7134,
      "nerve": 7135,
      "openness": 7136,
      "elected": 7137,
      "capabilities": 7138,
      "Moore": 7139,
      "Arctic": 7140,
      "Peace": 7141,
      "successfully": 7142,
      "boards": 7143,
      "angered": 7144,
      "promote": 7145,
      "printed": 7146,
      "Geoff": 7147,
      "terrorist": 7148,
      "twist": 7149,
      "miracle": 7150,
      "shopping": 7151,
      "ville": 7152,
      "placing": 7153,
      "throwing": 7154,
      "golden": 7155,
      "egg": 7156,
      "hypothesis": 7157,
      "immense": 7158,
      "telescope": 7159,
      "omeday": 7160,
      "paralyzed": 7161,
      "choosing": 7162,
      "Bronx": 7163,
      "42": 7164,
      "Kevin": 7165,
      "PM": 7166,
      "Rio": 7167,
      "Und": 7168,
      "Wal": 7169,
      "apers": 7170,
      "dating": 7171,
      "jug": 7172,
      "nie": 7173,
      "ographic": 7174,
      "sink": 7175,
      "atar": 7176,
      "alpha": 7177,
      "orter": 7178,
      "ician": 7179,
      "meg": 7180,
      "methane": 7181,
      "liament": 7182,
      "chim": 7183,
      "rog": 7184,
      "outer": 7185,
      "loves": 7186,
      "soever": 7187,
      "adm": 7188,
      "whatsoever": 7189,
      "fract": 7190,
      "permission": 7191,
      "seeking": 7192,
      "spont": 7193,
      "aceutical": 7194,
      "bored": 7195,
      "sheets": 7196,
      "preh": 7197,
      "server": 7198,
      "simulation": 7199,
      "helpful": 7200,
      "cycles": 7201,
      "economist": 7202,
      "foods": 7203,
      "regime": 7204,
      "classical": 7205,
      "winds": 7206,
      "excite": 7207,
      "reliable": 7208,
      "sisters": 7209,
      "statist": 7210,
      "believes": 7211,
      "deliber": 7212,
      "scores": 7213,
      "optimism": 7214,
      "reveals": 7215,
      "institutional": 7216,
      "elephants": 7217,
      "replicate": 7218,
      "stroke": 7219,
      "currency": 7220,
      "exponential": 7221,
      "eradic": 7222,
      "elderly": 7223,
      "unbelievable": 7224,
      "Square": 7225,
      "curriculum": 7226,
      "Aug": 7227,
      "Bal": 7228,
      "Chi": 7229,
      "Da": 7230,
      "Jud": 7231,
      "Mont": 7232,
      "Plan": 7233,
      "Tri": 7234,
      "Van": 7235,
      "bind": 7236,
      "bats": 7237,
      "dum": 7238,
      "dung": 7239,
      "jamin": 7240,
      "lamp": 7241,
      "sin": 7242,
      "sive": 7243,
      "tale": 7244,
      "reme": 7245,
      "encing": 7246,
      "altru": 7247,
      "ora": 7248,
      "lls": 7249,
      "ller": 7250,
      "entering": 7251,
      "convert": 7252,
      "artic": 7253,
      "odds": 7254,
      "pole": 7255,
      "aggre": 7256,
      "cosm": 7257,
      "ardino": 7258,
      "brut": 7259,
      "stranger": 7260,
      "cric": 7261,
      "realizing": 7262,
      "commission": 7263,
      "tsun": 7264,
      "bian": 7265,
      "imaging": 7266,
      "homework": 7267,
      "pretend": 7268,
      "connects": 7269,
      "interestingly": 7270,
      "Organ": 7271,
      "arrow": 7272,
      "array": 7273,
      "circul": 7274,
      "traditions": 7275,
      "gradually": 7276,
      "improving": 7277,
      "tower": 7278,
      "shipping": 7279,
      "pollut": 7280,
      "tracks": 7281,
      "Without": 7282,
      "confir": 7283,
      "confused": 7284,
      "loaded": 7285,
      "Michel": 7286,
      "hunting": 7287,
      "soup": 7288,
      "rays": 7289,
      "physician": 7290,
      "Benjamin": 7291,
      "tuna": 7292,
      "nurse": 7293,
      "intuition": 7294,
      "historic": 7295,
      "conducted": 7296,
      "preserve": 7297,
      "astronomy": 7298,
      "lawyers": 7299,
      "discipline": 7300,
      "adopted": 7301,
      "bottles": 7302,
      "Taliban": 7303,
      "pandemic": 7304,
      "trajectory": 7305,
      "Henry": 7306,
      "Abra": 7307,
      "Eliz": 7308,
      "Fif": 7309,
      "Si": 7310,
      "Saudi": 7311,
      "aer": 7312,
      "boun": 7313,
      "jan": 7314,
      "mac": 7315,
      "oven": 7316,
      "pir": 7317,
      "pond": 7318,
      "slo": 7319,
      "tat": 7320,
      "enables": 7321,
      "stit": 7322,
      "acou": 7323,
      "otion": 7324,
      "idge": 7325,
      "deck": 7326,
      "tras": 7327,
      "fraction": 7328,
      "extension": 7329,
      "ods": 7330,
      "umes": 7331,
      "sav": 7332,
      "reducing": 7333,
      "ptions": 7334,
      "chances": 7335,
      "description": 7336,
      "fined": 7337,
      "decor": 7338,
      "transcend": 7339,
      "agos": 7340,
      "instantly": 7341,
      "1980s": 7342,
      "bush": 7343,
      "Indust": 7344,
      "magnit": 7345,
      "profile": 7346,
      "Newton": 7347,
      "factories": 7348,
      "robotics": 7349,
      "innocent": 7350,
      "iences": 7351,
      "steal": 7352,
      "scop": 7353,
      "millen": 7354,
      "investing": 7355,
      "drawings": 7356,
      "tendency": 7357,
      "bene": 7358,
      "fastest": 7359,
      "origins": 7360,
      "flowing": 7361,
      "analog": 7362,
      "compassionate": 7363,
      "secrets": 7364,
      "detection": 7365,
      "Prince": 7366,
      "antibi": 7367,
      "arrive": 7368,
      "profoundly": 7369,
      "halluc": 7370,
      "gaps": 7371,
      "Turkey": 7372,
      "glamorous": 7373,
      "obstacles": 7374,
      "competitive": 7375,
      "manifest": 7376,
      "Sorry": 7377,
      "remembered": 7378,
      "magnitude": 7379,
      "Far": 7380,
      "FBI": 7381,
      "Gover": 7382,
      "Off": 7383,
      "Tas": 7384,
      "cig": 7385,
      "sper": 7386,
      "tune": 7387,
      "vy": 7388,
      "restrict": 7389,
      "erri": 7390,
      "ario": 7391,
      "contemporary": 7392,
      "convey": 7393,
      "unity": 7394,
      "caves": 7395,
      "percept": 7396,
      "ola": 7397,
      "oking": 7398,
      "upside": 7399,
      "ateur": 7400,
      "civic": 7401,
      "covers": 7402,
      "endangered": 7403,
      "channels": 7404,
      "clay": 7405,
      "craw": 7406,
      "crew": 7407,
      "Church": 7408,
      "1960": 7409,
      "clos": 7410,
      "clothing": 7411,
      "insist": 7412,
      "musician": 7413,
      "kills": 7414,
      "queen": 7415,
      "invested": 7416,
      "supporting": 7417,
      "Norway": 7418,
      "compete": 7419,
      "psychologist": 7420,
      "Donald": 7421,
      "included": 7422,
      "panel": 7423,
      "experiencing": 7424,
      "Point": 7425,
      "threatened": 7426,
      "detailed": 7427,
      "occurs": 7428,
      "packed": 7429,
      "participation": 7430,
      "influenced": 7431,
      "garbage": 7432,
      "burned": 7433,
      "conservative": 7434,
      "routine": 7435,
      "pigs": 7436,
      "strategic": 7437,
      "branch": 7438,
      "primitive": 7439,
      "squee": 7440,
      "professionals": 7441,
      "waters": 7442,
      "Saharan": 7443,
      "pharmaceutical": 7444,
      "controversi": 7445,
      "threshold": 7446,
      "Under": 7447,
      "beneath": 7448,
      "Gis": 7449,
      "Gra": 7450,
      "Homo": 7451,
      "Men": 7452,
      "Mach": 7453,
      "Mah": 7454,
      "Open": 7455,
      "Ron": 7456,
      "Sir": 7457,
      "avi": 7458,
      "cous": 7459,
      "crop": 7460,
      "fib": 7461,
      "lions": 7462,
      "tubes": 7463,
      "ongoing": 7464,
      "enabled": 7465,
      "stake": 7466,
      "peop": 7467,
      "ambig": 7468,
      "unable": 7469,
      "igen": 7470,
      "umines": 7471,
      "mapping": 7472,
      "tier": 7473,
      "intensive": 7474,
      "crap": 7475,
      "crush": 7476,
      "ademy": 7477,
      "realistic": 7478,
      "courses": 7479,
      "Beij": 7480,
      "engines": 7481,
      "generating": 7482,
      "sett": 7483,
      "angible": 7484,
      "leged": 7485,
      "passenger": 7486,
      "facilities": 7487,
      "distingu": 7488,
      "opera": 7489,
      "dropping": 7490,
      "shocked": 7491,
      "expecting": 7492,
      "sensor": 7493,
      "improvis": 7494,
      "prediction": 7495,
      "Stewart": 7496,
      "besides": 7497,
      "concert": 7498,
      "mploy": 7499,
      "widely": 7500,
      "remained": 7501,
      "wildlife": 7502,
      "wealthy": 7503,
      "corporations": 7504,
      "thesia": 7505,
      "assumptions": 7506,
      "incentive": 7507,
      "substance": 7508,
      "interpretation": 7509,
      "established": 7510,
      "Greek": 7511,
      "rubber": 7512,
      "ownership": 7513,
      "trigger": 7514,
      "tackle": 7515,
      "implement": 7516,
      "Giardino": 7517,
      "Photo": 7518,
      "scholar": 7519,
      "simultaneously": 7520,
      "Gisela": 7521,
      "peoples": 7522,
      "55": 7523,
      "Di": 7524,
      "Dad": 7525,
      "Econom": 7526,
      "Ham": 7527,
      "Koran": 7528,
      "March": 7529,
      "Mos": 7530,
      "Net": 7531,
      "RB": 7532,
      "Sen": 7533,
      "Spain": 7534,
      "Yemen": 7535,
      "bye": 7536,
      "bend": 7537,
      "dough": 7538,
      "dile": 7539,
      "ek": 7540,
      "tissues": 7541,
      "vice": 7542,
      "yal": 7543,
      "recon": 7544,
      "reinvent": 7545,
      "erg": 7546,
      "errors": 7547,
      "isy": 7548,
      "stab": 7549,
      "chol": 7550,
      "rope": 7551,
      "dose": 7552,
      "cember": 7553,
      "adays": 7554,
      "impression": 7555,
      "canopy": 7556,
      "worms": 7557,
      "pless": 7558,
      "atever": 7559,
      "coca": 7560,
      "suffe": 7561,
      "Whatever": 7562,
      "pride": 7563,
      "phony": 7564,
      "enses": 7565,
      "observe": 7566,
      "marry": 7567,
      "builds": 7568,
      "versions": 7569,
      "computation": 7570,
      "paradox": 7571,
      "healthier": 7572,
      "athlet": 7573,
      "subway": 7574,
      "airplanes": 7575,
      "December": 7576,
      "fathers": 7577,
      "horus": 7578,
      "pursuit": 7579,
      "ordinarily": 7580,
      "grandparents": 7581,
      "strongly": 7582,
      "staying": 7583,
      "landscapes": 7584,
      "rainforest": 7585,
      "aneous": 7586,
      "analogy": 7587,
      "burden": 7588,
      "affects": 7589,
      "slums": 7590,
      "ecological": 7591,
      "mechanics": 7592,
      "synchron": 7593,
      "delivery": 7594,
      "Phil": 7595,
      "acceptable": 7596,
      "remaining": 7597,
      "authorities": 7598,
      "earliest": 7599,
      "deserve": 7600,
      "significantly": 7601,
      "defend": 7602,
      "snap": 7603,
      "adapted": 7604,
      "demands": 7605,
      "blogs": 7606,
      "cotton": 7607,
      "rituals": 7608,
      "restaurants": 7609,
      "dragon": 7610,
      "Council": 7611,
      "Delhi": 7612,
      "orchestra": 7613,
      "Palestin": 7614,
      "shrink": 7615,
      "ubiquit": 7616,
      "Professor": 7617,
      "investors": 7618,
      "Italian": 7619,
      "Spanish": 7620,
      "August": 7621,
      "Elizabeth": 7622,
      "dilem": 7623,
      "suffered": 7624,
      "AI": 7625,
      "Cons": 7626,
      "Ford": 7627,
      "LG": 7628,
      "Mas": 7629,
      "Nel": 7630,
      "Spr": 7631,
      "TI": 7632,
      "aqu": 7633,
      "bie": 7634,
      "dut": 7635,
      "gg": 7636,
      "kins": 7637,
      "pon": 7638,
      "someday": 7639,
      "theast": 7640,
      "rer": 7641,
      "recover": 7642,
      "onic": 7643,
      "torian": 7644,
      "ester": 7645,
      "lever": 7646,
      "stones": 7647,
      "sew": 7648,
      "aced": 7649,
      "acies": 7650,
      "ched": 7651,
      "ares": 7652,
      "dopam": 7653,
      "aded": 7654,
      "iff": 7655,
      "amateur": 7656,
      "contrad": 7657,
      "export": 7658,
      "proven": 7659,
      "ustrate": 7660,
      "sauce": 7661,
      "agents": 7662,
      "colored": 7663,
      "elite": 7664,
      "woke": 7665,
      "formal": 7666,
      "preval": 7667,
      "adequ": 7668,
      "memes": 7669,
      "2012": 7670,
      "titudes": 7671,
      "Stone": 7672,
      "diam": 7673,
      "generous": 7674,
      "farms": 7675,
      "farming": 7676,
      "addiction": 7677,
      "Indians": 7678,
      "camps": 7679,
      "sixth": 7680,
      "cuts": 7681,
      "freely": 7682,
      "protest": 7683,
      "trains": 7684,
      "appearing": 7685,
      "speaks": 7686,
      "fluores": 7687,
      "harness": 7688,
      "nonprofit": 7689,
      "explosion": 7690,
      "Northern": 7691,
      "survived": 7692,
      "approaches": 7693,
      "gorge": 7694,
      "transforming": 7695,
      "genetically": 7696,
      "sufficient": 7697,
      "pairs": 7698,
      "package": 7699,
      "strike": 7700,
      "continuing": 7701,
      "System": 7702,
      "gathered": 7703,
      "substant": 7704,
      "sanitation": 7705,
      "expertise": 7706,
      "dressed": 7707,
      "chimpanzee": 7708,
      "comparison": 7709,
      "jumped": 7710,
      "Technology": 7711,
      "items": 7712,
      "column": 7713,
      "jellyfish": 7714,
      "awkward": 7715,
      "nutrients": 7716,
      "precedented": 7717,
      "controversial": 7718,
      "ubiquitous": 7719,
      "Nelson": 7720,
      "dopamine": 7721,
      "AM": 7722,
      "Au": 7723,
      "Aris": 7724,
      "Hall": 7725,
      "Mike": 7726,
      "Ram": 7727,
      "Same": 7728,
      "Tony": 7729,
      "aving": 7730,
      "aug": 7731,
      "bid": 7732,
      "fi": 7733,
      "fice": 7734,
      "fancy": 7735,
      "iac": 7736,
      "ooh": 7737,
      "rof": 7738,
      "sca": 7739,
      "uk": 7740,
      "recess": 7741,
      "iso": 7742,
      "leep": 7743,
      "beating": 7744,
      "pets": 7745,
      "imit": 7746,
      "imper": 7747,
      "ctica": 7748,
      "worm": 7749,
      "trical": 7750,
      "unprecedented": 7751,
      "comments": 7752,
      "compreh": 7753,
      "plank": 7754,
      "inder": 7755,
      "shout": 7756,
      "butter": 7757,
      "grasp": 7758,
      "coat": 7759,
      "intim": 7760,
      "rape": 7761,
      "sons": 7762,
      "socially": 7763,
      "simp": 7764,
      "basket": 7765,
      "numer": 7766,
      "mindset": 7767,
      "2002": 7768,
      "passive": 7769,
      "parenting": 7770,
      "classrooms": 7771,
      "nights": 7772,
      "devil": 7773,
      "demographic": 7774,
      "performed": 7775,
      "purposes": 7776,
      "tends": 7777,
      "eaten": 7778,
      "promised": 7779,
      "silver": 7780,
      "slime": 7781,
      "damn": 7782,
      "pollin": 7783,
      "Whereas": 7784,
      "infection": 7785,
      "straightforward": 7786,
      "cruel": 7787,
      "nuts": 7788,
      "teenager": 7789,
      "initially": 7790,
      "Monte": 7791,
      "exercis": 7792,
      "guns": 7793,
      "gentleman": 7794,
      "vegetables": 7795,
      "navigate": 7796,
      "Sarah": 7797,
      "sacrifice": 7798,
      "aggressive": 7799,
      "Antarctica": 7800,
      "tragic": 7801,
      "Leonardo": 7802,
      "tongue": 7803,
      "cosmic": 7804,
      "tsunami": 7805,
      "diamond": 7806,
      "36": 7807,
      "37": 7808,
      "Bel": 7809,
      "Gor": 7810,
      "Gar": 7811,
      "Lab": 7812,
      "Rick": 7813,
      "Som": 7814,
      "Seven": 7815,
      "dump": 7816,
      "file": 7817,
      "hiding": 7818,
      "mun": 7819,
      "nail": 7820,
      "oy": 7821,
      "pad": 7822,
      "piz": 7823,
      "tact": 7824,
      "western": 7825,
      "rein": 7826,
      "enjo": 7827,
      "align": 7828,
      "esign": 7829,
      "stability": 7830,
      "icious": 7831,
      "haust": 7832,
      "loving": 7833,
      "gear": 7834,
      "terrain": 7835,
      "delay": 7836,
      "trace": 7837,
      "exhaust": 7838,
      "apy": 7839,
      "workforce": 7840,
      "empowered": 7841,
      "brave": 7842,
      "distract": 7843,
      "disrupt": 7844,
      "despair": 7845,
      "prevention": 7846,
      "offices": 7847,
      "vial": 7848,
      "wrap": 7849,
      "interconnected": 7850,
      "pause": 7851,
      "visions": 7852,
      "hardest": 7853,
      "Neander": 7854,
      "signature": 7855,
      "badly": 7856,
      "eady": 7857,
      "Moz": 7858,
      "labs": 7859,
      "copes": 7860,
      "ticket": 7861,
      "Both": 7862,
      "burgh": 7863,
      "destiny": 7864,
      "raped": 7865,
      "sweat": 7866,
      "philosopher": 7867,
      "judgment": 7868,
      "physicists": 7869,
      "matrix": 7870,
      "previously": 7871,
      "Brother": 7872,
      "scenes": 7873,
      "scenario": 7874,
      "Alexander": 7875,
      "refugee": 7876,
      "neutral": 7877,
      "occasionally": 7878,
      "arrested": 7879,
      "impressive": 7880,
      "procedure": 7881,
      "categories": 7882,
      "Listen": 7883,
      "phosphorus": 7884,
      "miserable": 7885,
      "refugees": 7886,
      "excitement": 7887,
      "tattoo": 7888,
      "Bi": 7889,
      "Had": 7890,
      "Him": 7891,
      "Lord": 7892,
      "Mountain": 7893,
      "Sel": 7894,
      "Stop": 7895,
      "Santa": 7896,
      "Wo": 7897,
      "bureau": 7898,
      "divid": 7899,
      "hh": 7900,
      "hors": 7901,
      "hunt": 7902,
      "nu": 7903,
      "anno": 7904,
      "resem": 7905,
      "reactor": 7906,
      "ingen": 7907,
      "stig": 7908,
      "semin": 7909,
      "meme": 7910,
      "forgot": 7911,
      "rose": 7912,
      "loan": 7913,
      "wires": 7914,
      "gods": 7915,
      "fears": 7916,
      "deaf": 7917,
      "ulin": 7918,
      "uncle": 7919,
      "excess": 7920,
      "artif": 7921,
      "plates": 7922,
      "redesign": 7923,
      "embod": 7924,
      "bull": 7925,
      "backs": 7926,
      "obs": 7927,
      "managers": 7928,
      "margin": 7929,
      "aker": 7930,
      "stored": 7931,
      "interior": 7932,
      "coln": 7933,
      "highway": 7934,
      "drought": 7935,
      "headlines": 7936,
      "valid": 7937,
      "Islands": 7938,
      "continents": 7939,
      "audiences": 7940,
      "portrait": 7941,
      "Yorker": 7942,
      "Leban": 7943,
      "improved": 7944,
      "surviv": 7945,
      "approaching": 7946,
      "nife": 7947,
      "nearby": 7948,
      "terribly": 7949,
      "gained": 7950,
      "activate": 7951,
      "client": 7952,
      "recep": 7953,
      "loads": 7954,
      "prisoners": 7955,
      "bulb": 7956,
      "appearance": 7957,
      "precious": 7958,
      "encouraged": 7959,
      "encouraging": 7960,
      "broadcast": 7961,
      "Israeli": 7962,
      "officer": 7963,
      "cooperate": 7964,
      "dominated": 7965,
      "additional": 7966,
      "puzzles": 7967,
      "circuits": 7968,
      "blowing": 7969,
      "propag": 7970,
      "Clint": 7971,
      "perceived": 7972,
      "frustrated": 7973,
      "NGOs": 7974,
      "Lincoln": 7975,
      "mathematicians": 7976,
      "mushroom": 7977,
      "accounts": 7978,
      "magnific": 7979,
      "excellent": 7980,
      "Banglades": 7981,
      "Mandela": 7982,
      "legitimate": 7983,
      "Tanzan": 7984,
      "glimpse": 7985,
      "Court": 7986,
      "gorgeous": 7987,
      "Age": 7988,
      "Asian": 7989,
      "Ca": 7990,
      "Hong": 7991,
      "Less": 7992,
      "Mod": 7993,
      "OL": 7994,
      "Tam": 7995,
      "Tun": 7996,
      "Tel": 7997,
      "UC": 7998,
      "Vic": 7999,
      "dumb": 8000,
      "nap": 8001,
      "ological": 8002,
      "ani": 8003,
      "replaced": 8004,
      "aland": 8005,
      "alty": 8006,
      "altitude": 8007,
      "itz": 8008,
      "orn": 8009,
      "arc": 8010,
      "lete": 8011,
      "ndrome": 8012,
      "acre": 8013,
      "entropy": 8014,
      "rip": 8015,
      "ador": 8016,
      "immers": 8017,
      "urable": 8018,
      "Sol": 8019,
      "comic": 8020,
      "illustrate": 8021,
      "phal": 8022,
      "boats": 8023,
      "ension": 8024,
      "guitar": 8025,
      "genu": 8026,
      "genic": 8027,
      "icked": 8028,
      "offering": 8029,
      "interven": 8030,
      "bial": 8031,
      "2050": 8032,
      "1950s": 8033,
      "drum": 8034,
      "attend": 8035,
      "smallest": 8036,
      "mentor": 8037,
      "lowest": 8038,
      "connectivity": 8039,
      "wheat": 8040,
      "grams": 8041,
      "reasonable": 8042,
      "Although": 8043,
      "hybrid": 8044,
      "advances": 8045,
      "impul": 8046,
      "drops": 8047,
      "breakfast": 8048,
      "sensation": 8049,
      "Frid": 8050,
      "unemploy": 8051,
      "convict": 8052,
      "religions": 8053,
      "terrifying": 8054,
      "Shang": 8055,
      "ecology": 8056,
      "challenged": 8057,
      "airo": 8058,
      "annual": 8059,
      "blindness": 8060,
      "discovering": 8061,
      "lifes": 8062,
      "phenomena": 8063,
      "achievement": 8064,
      "catching": 8065,
      "teenage": 8066,
      "journalists": 8067,
      "Secondly": 8068,
      "juries": 8069,
      "assumption": 8070,
      "storage": 8071,
      "collapsed": 8072,
      "ritual": 8073,
      "branches": 8074,
      "limitations": 8075,
      "phantom": 8076,
      "administration": 8077,
      "Sudden": 8078,
      "astroph": 8079,
      "geometry": 8080,
      "stereoty": 8081,
      "retirement": 8082,
      "Queen": 8083,
      "Joseph": 8084,
      "Gandhi": 8085,
      "keepers": 8086,
      "closest": 8087,
      ",'": 8088,
      "Ble": 8089,
      "Def": 8090,
      "EC": 8091,
      "Lake": 8092,
      "Nine": 8093,
      "Pop": 8094,
      "Rose": 8095,
      "Stage": 8096,
      "Try": 8097,
      "Twenty": 8098,
      "Using": 8099,
      "],": 8100,
      "award": 8101,
      "fate": 8102,
      "gases": 8103,
      "len": 8104,
      "sized": 8105,
      "reproduce": 8106,
      "rehab": 8107,
      "healing": 8108,
      "verb": 8109,
      "rob": 8110,
      "rolled": 8111,
      "neys": 8112,
      "cement": 8113,
      "cancers": 8114,
      "tray": 8115,
      "unhappy": 8116,
      "olumines": 8117,
      "estate": 8118,
      "coach": 8119,
      "yourselves": 8120,
      "brick": 8121,
      "donor": 8122,
      "blank": 8123,
      "cratic": 8124,
      "kingdom": 8125,
      "hired": 8126,
      "label": 8127,
      "cellular": 8128,
      "cyl": 8129,
      "addy": 8130,
      "Indones": 8131,
      "valley": 8132,
      "planetary": 8133,
      "distances": 8134,
      "potent": 8135,
      "fallen": 8136,
      "sexy": 8137,
      "supermarket": 8138,
      "pene": 8139,
      "posted": 8140,
      "woods": 8141,
      "divor": 8142,
      "anna": 8143,
      "Harry": 8144,
      "infections": 8145,
      "catastroph": 8146,
      "remix": 8147,
      "reflection": 8148,
      "interviews": 8149,
      "applying": 8150,
      "surrounding": 8151,
      "Brazili": 8152,
      "epidem": 8153,
      "prosthetic": 8154,
      "succeeded": 8155,
      "elementary": 8156,
      "ratio": 8157,
      "arguing": 8158,
      "academ": 8159,
      "minimum": 8160,
      "initiative": 8161,
      "Silicon": 8162,
      "horizon": 8163,
      "Jonathan": 8164,
      "Larry": 8165,
      "thetics": 8166,
      "vagina": 8167,
      "Sunday": 8168,
      "cricket": 8169,
      "cigaret": 8170,
      "fibers": 8171,
      "Beijing": 8172,
      "cocaine": 8173,
      "genuine": 8174,
      "Shanghai": 8175,
      "\"?": 8176,
      "Dy": 8177,
      "During": 8178,
      "Detro": 8179,
      "Eight": 8180,
      "Elect": 8181,
      "HA": 8182,
      "Ire": 8183,
      "Kam": 8184,
      "Ra": 8185,
      "SW": 8186,
      "Sher": 8187,
      "Ve": 8188,
      "aver": 8189,
      "gif": 8190,
      "knife": 8191,
      "sir": 8192,
      "tables": 8193,
      "resolve": 8194,
      "istry": 8195,
      "toes": 8196,
      "encoun": 8197,
      "itative": 8198,
      "orphan": 8199,
      "chop": 8200,
      "abul": 8201,
      "defic": 8202,
      "traction": 8203,
      "cafe": 8204,
      "expos": 8205,
      "prostate": 8206,
      "Its": 8207,
      "safer": 8208,
      "quis": 8209,
      "pockets": 8210,
      "residents": 8211,
      "mentally": 8212,
      "asty": 8213,
      "emies": 8214,
      "uded": 8215,
      "kindness": 8216,
      "blown": 8217,
      "prev": 8218,
      "uctive": 8219,
      "contamin": 8220,
      "crimes": 8221,
      "findings": 8222,
      "stomach": 8223,
      "compound": 8224,
      "Chen": 8225,
      "Being": 8226,
      "natives": 8227,
      "graphs": 8228,
      "Until": 8229,
      "Moon": 8230,
      "approved": 8231,
      "follows": 8232,
      "funds": 8233,
      "pedest": 8234,
      "stepped": 8235,
      "hormone": 8236,
      "Liber": 8237,
      "winner": 8238,
      "typing": 8239,
      "listened": 8240,
      "defining": 8241,
      "competing": 8242,
      "peaceful": 8243,
      "multiply": 8244,
      "Feyn": 8245,
      "Except": 8246,
      "continuous": 8247,
      "College": 8248,
      "hopes": 8249,
      "July": 8250,
      "journalism": 8251,
      "interviewed": 8252,
      "sched": 8253,
      "palm": 8254,
      "heavi": 8255,
      "migration": 8256,
      "ignored": 8257,
      "volunteer": 8258,
      "toilets": 8259,
      "manipulate": 8260,
      ".'\"": 8261,
      "glamour": 8262,
      "estimates": 8263,
      "absence": 8264,
      "breeding": 8265,
      "preparing": 8266,
      "customer": 8267,
      "devastating": 8268,
      "Southern": 8269,
      "luxury": 8270,
      "responses": 8271,
      "conductor": 8272,
      "intrins": 8273,
      "helicopter": 8274,
      "lungs": 8275,
      "Joshua": 8276,
      "Wait": 8277,
      "Geoffrey": 8278,
      "Suddenly": 8279,
      "Feynman": 8280,
      "350": 8281,
      "Brun": 8282,
      "Cho": 8283,
      "DV": 8284,
      "Du": 8285,
      "Dou": 8286,
      "EM": 8287,
      "Fl": 8288,
      "Jay": 8289,
      "Kar": 8290,
      "Lev": 8291,
      "Little": 8292,
      "Qa": 8293,
      "Rand": 8294,
      "Way": 8295,
      "bother": 8296,
      "fest": 8297,
      "hilar": 8298,
      "junk": 8299,
      "nodes": 8300,
      "phere": 8301,
      "zones": 8302,
      "thread": 8303,
      "reactions": 8304,
      "toss": 8305,
      "enforce": 8306,
      "enemies": 8307,
      "album": 8308,
      "bean": 8309,
      "acknowledge": 8310,
      "entry": 8311,
      "meals": 8312,
      "verbal": 8313,
      "oton": 8314,
      "lobby": 8315,
      "gel": 8316,
      "geon": 8317,
      "ghter": 8318,
      "cel": 8319,
      "ading": 8320,
      "females": 8321,
      "canv": 8322,
      "propose": 8323,
      "sail": 8324,
      "grace": 8325,
      "tiv": 8326,
      "workplace": 8327,
      "suits": 8328,
      "astics": 8329,
      "eman": 8330,
      "discrimin": 8331,
      "clue": 8332,
      "sciences": 8333,
      "stopping": 8334,
      "biolumines": 8335,
      "storytell": 8336,
      "highlight": 8337,
      "cares": 8338,
      "cloped": 8339,
      "glor": 8340,
      "insulin": 8341,
      "uniform": 8342,
      "Nove": 8343,
      "warri": 8344,
      "educate": 8345,
      "News": 8346,
      "amazed": 8347,
      "household": 8348,
      "appeal": 8349,
      "potato": 8350,
      "Develo": 8351,
      "violin": 8352,
      "failures": 8353,
      "drew": 8354,
      "personalized": 8355,
      "grades": 8356,
      "extraordinarily": 8357,
      "wooden": 8358,
      "Coke": 8359,
      "locations": 8360,
      "folds": 8361,
      "Anyone": 8362,
      "civili": 8363,
      "scanning": 8364,
      "expressions": 8365,
      "wheels": 8366,
      "worrying": 8367,
      "contributed": 8368,
      "beaten": 8369,
      "civilizations": 8370,
      "juven": 8371,
      "Medic": 8372,
      "Media": 8373,
      "psychopath": 8374,
      "mesh": 8375,
      "newspapers": 8376,
      "surgeons": 8377,
      "troops": 8378,
      "telescopes": 8379,
      "whistle": 8380,
      "Bono": 8381,
      "decrease": 8382,
      "constraints": 8383,
      "Carolina": 8384,
      "chips": 8385,
      "Half": 8386,
      "elegant": 8387,
      "Swiss": 8388,
      "prosperity": 8389,
      "expedition": 8390,
      "jihad": 8391,
      "Watson": 8392,
      "Tasman": 8393,
      "pizza": 8394,
      "Detroit": 8395,
      "Qaeda": 8396,
      "31": 8397,
      "Free": 8398,
      "Has": 8399,
      "Kat": 8400,
      "Snow": 8401,
      "Scient": 8402,
      "Zero": 8403,
      "aves": 8404,
      "bite": 8405,
      "bills": 8406,
      "dated": 8407,
      "duck": 8408,
      "nom": 8409,
      "sale": 8410,
      "vin": 8411,
      "vary": 8412,
      "zi": 8413,
      "infer": 8414,
      "anni": 8415,
      "rethink": 8416,
      "ativity": 8417,
      "isha": 8418,
      "encry": 8419,
      "alga": 8420,
      "assets": 8421,
      "liar": 8422,
      "aby": 8423,
      "arest": 8424,
      "prope": 8425,
      "proved": 8426,
      "ilty": 8427,
      "useless": 8428,
      "olas": 8429,
      "indigen": 8430,
      "shy": 8431,
      "ount": 8432,
      "distor": 8433,
      "disabled": 8434,
      "strings": 8435,
      "trivial": 8436,
      "humanitarian": 8437,
      "mayor": 8438,
      "internet": 8439,
      "socio": 8440,
      "minus": 8441,
      "Bell": 8442,
      "transmission": 8443,
      "foundations": 8444,
      "1960s": 8445,
      "glue": 8446,
      "insane": 8447,
      "nerves": 8448,
      "topics": 8449,
      "subur": 8450,
      "adder": 8451,
      "teaches": 8452,
      "gesture": 8453,
      "equations": 8454,
      "mainstream": 8455,
      "Almost": 8456,
      "beautifully": 8457,
      "denial": 8458,
      "marketplace": 8459,
      "harmony": 8460,
      "bench": 8461,
      "microscop": 8462,
      "copies": 8463,
      "Rock": 8464,
      "territory": 8465,
      "visualization": 8466,
      "Coast": 8467,
      "panic": 8468,
      "affecting": 8469,
      "attacked": 8470,
      "Comp": 8471,
      "believing": 8472,
      "bullet": 8473,
      "narratives": 8474,
      "graduated": 8475,
      "scanner": 8476,
      "wedding": 8477,
      "technically": 8478,
      "diagnosis": 8479,
      "correctly": 8480,
      "frequently": 8481,
      "assemble": 8482,
      "Simon": 8483,
      "monitoring": 8484,
      "concentration": 8485,
      "concentrated": 8486,
      "recipe": 8487,
      "inevitably": 8488,
      "assistance": 8489,
      "assignment": 8490,
      "Hawai": 8491,
      "horizont": 8492,
      "mathematician": 8493,
      "mimic": 8494,
      "glacier": 8495,
      "Iceland": 8496,
      "guarantee": 8497,
      "inventor": 8498,
      "champion": 8499,
      "wandering": 8500,
      "Abraham": 8501,
      "Industrial": 8502,
      "antibiotics": 8503,
      "indigenous": 8504,
      "DR": 8505,
      "Isa": 8506,
      "JH": 8507,
      "Jour": 8508,
      "Know": 8509,
      "Mass": 8510,
      "Rad": 8511,
      "Shar": 8512,
      "Teach": 8513,
      "UN": 8514,
      "Wright": 8515,
      "batt": 8516,
      "cree": 8517,
      "gments": 8518,
      "hug": 8519,
      "lined": 8520,
      "mall": 8521,
      "nes": 8522,
      "ored": 8523,
      "pills": 8524,
      "wal": 8525,
      "attitudes": 8526,
      "onstage": 8527,
      "arians": 8528,
      "stum": 8529,
      "behalf": 8530,
      "achel": 8531,
      "melt": 8532,
      "loose": 8533,
      "unting": 8534,
      "composition": 8535,
      "proceed": 8536,
      "plastics": 8537,
      "iler": 8538,
      "oked": 8539,
      "sake": 8540,
      "rescu": 8541,
      "ansas": 8542,
      "formula": 8543,
      "syndrome": 8544,
      "blah": 8545,
      "guilty": 8546,
      "cracy": 8547,
      "obtain": 8548,
      "epi": 8549,
      "visually": 8550,
      "20s": 8551,
      "imagining": 8552,
      "1990": 8553,
      "parach": 8554,
      "lanes": 8555,
      "structural": 8556,
      "halfway": 8557,
      "charged": 8558,
      "steam": 8559,
      "stays": 8560,
      "appy": 8561,
      "forestation": 8562,
      "slip": 8563,
      "locally": 8564,
      "Geographic": 8565,
      "Anybody": 8566,
      "clinics": 8567,
      "calculations": 8568,
      "bulbs": 8569,
      "integration": 8570,
      "motivated": 8571,
      "Berlin": 8572,
      "selected": 8573,
      "crystal": 8574,
      "mammal": 8575,
      "fatal": 8576,
      "historically": 8577,
      "demonstrated": 8578,
      "batteries": 8579,
      "Lugo": 8580,
      "evolving": 8581,
      "installation": 8582,
      "Academy": 8583,
      "shifts": 8584,
      "penguin": 8585,
      "electrodes": 8586,
      "suspended": 8587,
      "Ariana": 8588,
      "barrier": 8589,
      "SETI": 8590,
      "hierarchy": 8591,
      "supplies": 8592,
      "legislation": 8593,
      "Monterey": 8594,
      "horses": 8595,
      "Friday": 8596,
      "Bleau": 8597,
      "Ireland": 8598,
      "38": 8599,
      "Bus": 8600,
      "Bos": 8601,
      "Er": 8602,
      "JA": 8603,
      "Mid": 8604,
      "Mich": 8605,
      "Nick": 8606,
      "Nord": 8607,
      "Nathan": 8608,
      "Rome": 8609,
      "Swit": 8610,
      "Still": 8611,
      "Water": 8612,
      "gt": 8613,
      "matic": 8614,
      "paste": 8615,
      "rance": 8616,
      "tiles": 8617,
      "voting": 8618,
      "wan": 8619,
      "independence": 8620,
      "ancing": 8621,
      "tos": 8622,
      "stad": 8623,
      "vet": 8624,
      "lia": 8625,
      "chill": 8626,
      "roles": 8627,
      "peare": 8628,
      "neo": 8629,
      "irts": 8630,
      "irony": 8631,
      "motors": 8632,
      "mobility": 8633,
      "dece": 8634,
      "deter": 8635,
      "deals": 8636,
      "deception": 8637,
      "ura": 8638,
      "conne": 8639,
      "thermal": 8640,
      "cathe": 8641,
      "comics": 8642,
      "explicit": 8643,
      "proposition": 8644,
      "proposal": 8645,
      "olic": 8646,
      "okes": 8647,
      "seemingly": 8648,
      "apps": 8649,
      "coverage": 8650,
      "spat": 8651,
      "bris": 8652,
      "kings": 8653,
      "prey": 8654,
      "observed": 8655,
      "manual": 8656,
      "manager": 8657,
      "smiling": 8658,
      "calm": 8659,
      "kespeare": 8660,
      "curves": 8661,
      "1900": 8662,
      "norms": 8663,
      "biosphere": 8664,
      "Security": 8665,
      "bedroom": 8666,
      "fisher": 8667,
      "predator": 8668,
      "communicating": 8669,
      "hormon": 8670,
      "purple": 8671,
      "Lego": 8672,
      "pencil": 8673,
      "medication": 8674,
      "lized": 8675,
      "concerns": 8676,
      "folded": 8677,
      "calculated": 8678,
      "striking": 8679,
      "laptops": 8680,
      "belly": 8681,
      "randomly": 8682,
      "honestly": 8683,
      "physicians": 8684,
      "taxes": 8685,
      "spinning": 8686,
      "Educ": 8687,
      "contrary": 8688,
      "Shakespeare": 8689,
      "missions": 8690,
      "punishment": 8691,
      "installed": 8692,
      "Parkinson": 8693,
      "binary": 8694,
      "estimated": 8695,
      "simpler": 8696,
      "recycling": 8697,
      "recycled": 8698,
      "renewable": 8699,
      "Rosling": 8700,
      "desperately": 8701,
      "ambitious": 8702,
      "Zealand": 8703,
      "Virginia": 8704,
      "Brooklyn": 8705,
      "schizophrenia": 8706,
      "Chile": 8707,
      "Govern": 8708,
      "enjoying": 8709,
      "magnificent": 8710,
      "Bangladesh": 8711,
      "Indonesia": 8712,
      "exposure": 8713,
      "72": 8714,
      "AK": 8715,
      "Cra": 8716,
      "ES": 8717,
      "IBM": 8718,
      "Khal": 8719,
      "Pas": 8720,
      "Pot": 8721,
      "USA": 8722,
      "Wi": 8723,
      "Wind": 8724,
      "Zim": 8725,
      "awe": 8726,
      "bis": 8727,
      "cows": 8728,
      "dawn": 8729,
      "figh": 8730,
      "hes": 8731,
      "hint": 8732,
      "lists": 8733,
      "mant": 8734,
      "pale": 8735,
      "tary": 8736,
      "ux": 8737,
      "wrest": 8738,
      "inth": 8739,
      "inal": 8740,
      "islands": 8741,
      "icult": 8742,
      "hail": 8743,
      "lips": 8744,
      "Social": 8745,
      "compromise": 8746,
      "ila": 8747,
      "owning": 8748,
      "wore": 8749,
      "overhead": 8750,
      "overnight": 8751,
      "intimate": 8752,
      "intensity": 8753,
      "specul": 8754,
      "possess": 8755,
      "manner": 8756,
      "compli": 8757,
      "faction": 8758,
      "biof": 8759,
      "helpless": 8760,
      "paired": 8761,
      "bably": 8762,
      "nett": 8763,
      "chef": 8764,
      "cheat": 8765,
      "relatives": 8766,
      "heading": 8767,
      "organiz": 8768,
      "publishing": 8769,
      "ashed": 8770,
      "Force": 8771,
      "metic": 8772,
      "tomato": 8773,
      "Someone": 8774,
      "excuse": 8775,
      "masses": 8776,
      "collectively": 8777,
      "predators": 8778,
      "planted": 8779,
      "approached": 8780,
      "safely": 8781,
      "Christi": 8782,
      "touching": 8783,
      "deadly": 8784,
      "ascular": 8785,
      "transformative": 8786,
      "occurring": 8787,
      "agreement": 8788,
      "strip": 8789,
      "remarkably": 8790,
      "petition": 8791,
      "1998": 8792,
      "reflected": 8793,
      "broader": 8794,
      "Iranian": 8795,
      "doubled": 8796,
      "claims": 8797,
      "officials": 8798,
      "iconic": 8799,
      "automobile": 8800,
      "reserves": 8801,
      "skeletal": 8802,
      "clubs": 8803,
      "accomplish": 8804,
      "cluster": 8805,
      "clusters": 8806,
      "width": 8807,
      "grocer": 8808,
      "ceremony": 8809,
      "boost": 8810,
      "subsid": 8811,
      "stunning": 8812,
      "enhance": 8813,
      "tropical": 8814,
      "dilemma": 8815,
      "Tanzania": 8816,
      "Bruno": 8817,
      "November": 8818,
      "algae": 8819,
      "Journal": 8820,
      "98": 8821,
      "Apri": 8822,
      "Civ": 8823,
      "Cape": 8824,
      "Ever": 8825,
      "HC": 8826,
      "IN": 8827,
      "Kids": 8828,
      "Pre": 8829,
      "Penn": 8830,
      "Ru": 8831,
      "bou": 8832,
      "eigh": 8833,
      "fus": 8834,
      "gus": 8835,
      "ipped": 8836,
      "jung": 8837,
      "kn": 8838,
      "mously": 8839,
      "pum": 8840,
      "rh": 8841,
      "sulf": 8842,
      "vascular": 8843,
      "yards": 8844,
      "inction": 8845,
      "anatom": 8846,
      "onaut": 8847,
      "enlight": 8848,
      "asters": 8849,
      "stunt": 8850,
      "staring": 8851,
      "icial": 8852,
      "hears": 8853,
      "gho": 8854,
      "irrational": 8855,
      "adian": 8856,
      "usage": 8857,
      "Soci": 8858,
      "trapped": 8859,
      "frames": 8860,
      "arten": 8861,
      "graf": 8862,
      "tile": 8863,
      "illa": 8864,
      "coin": 8865,
      "logging": 8866,
      "backyard": 8867,
      "clues": 8868,
      "intact": 8869,
      "criter": 8870,
      "downtown": 8871,
      "realization": 8872,
      "cribe": 8873,
      "landing": 8874,
      "computational": 8875,
      "corners": 8876,
      "hometown": 8877,
      "spacecraft": 8878,
      "angio": 8879,
      "rane": 8880,
      "programmers": 8881,
      "amazingly": 8882,
      "approx": 8883,
      "vocal": 8884,
      "namely": 8885,
      "shoe": 8886,
      "Dean": 8887,
      "reaches": 8888,
      "Lewis": 8889,
      "microbial": 8890,
      "sends": 8891,
      "consumed": 8892,
      "venture": 8893,
      "suggestion": 8894,
      "activists": 8895,
      "division": 8896,
      "ridge": 8897,
      "receiving": 8898,
      "bacterial": 8899,
      "Carl": 8900,
      "Hope": 8901,
      "synthesis": 8902,
      "sections": 8903,
      "Probably": 8904,
      "cision": 8905,
      "enjoyed": 8906,
      "tunnel": 8907,
      "retro": 8908,
      "Nigerian": 8909,
      "County": 8910,
      "diameter": 8911,
      "apore": 8912,
      "privileged": 8913,
      "chronic": 8914,
      "regardless": 8915,
      "simplest": 8916,
      "dictator": 8917,
      "deployed": 8918,
      "Singapore": 8919,
      "anticipate": 8920,
      "sketch": 8921,
      "genomes": 8922,
      "lonely": 8923,
      "Wilson": 8924,
      "intriguing": 8925,
      "chimps": 8926,
      "Clinton": 8927,
      "Brazilian": 8928,
      "DVD": 8929,
      "Business": 8930,
      "April": 8931,
      "Die": 8932,
      "Got": 8933,
      "Hind": 8934,
      "Jord": 8935,
      "Kim": 8936,
      "Lead": 8937,
      "Vi": 8938,
      "cine": 8939,
      "echo": 8940,
      "erect": 8941,
      "fired": 8942,
      "gia": 8943,
      "kers": 8944,
      "mask": 8945,
      "odo": 8946,
      "sions": 8947,
      "tz": 8948,
      "twin": 8949,
      "inser": 8950,
      "enna": 8951,
      "archa": 8952,
      "editor": 8953,
      "peers": 8954,
      "dood": 8955,
      "tear": 8956,
      "default": 8957,
      "config": 8958,
      "nowadays": 8959,
      "unseen": 8960,
      "likelihood": 8961,
      "agnet": 8962,
      "restor": 8963,
      "bleed": 8964,
      "osex": 8965,
      "blink": 8966,
      "ensus": 8967,
      "pread": 8968,
      "mankind": 8969,
      "maneu": 8970,
      "readers": 8971,
      "camel": 8972,
      "mono": 8973,
      "creator": 8974,
      "calories": 8975,
      "2020": 8976,
      "drain": 8977,
      "drunk": 8978,
      "criptions": 8979,
      "iously": 8980,
      "electrom": 8981,
      "incidence": 8982,
      "regis": 8983,
      "patents": 8984,
      "hopeful": 8985,
      "charming": 8986,
      "politically": 8987,
      "Brad": 8988,
      "lingu": 8989,
      "deepest": 8990,
      "literacy": 8991,
      "millimeter": 8992,
      "40s": 8993,
      "medicines": 8994,
      "consuming": 8995,
      "Christo": 8996,
      "Book": 8997,
      "burg": 8998,
      "spreads": 8999,
      "psychologists": 9000,
      "ethic": 9001,
      "clips": 9002,
      "synap": 9003,
      "bridges": 9004,
      "continuously": 9005,
      "sweep": 9006,
      "crossed": 9007,
      "emails": 9008,
      "juice": 9009,
      "tuned": 9010,
      "destroying": 9011,
      "boundary": 9012,
      "partnership": 9013,
      "electrons": 9014,
      "Keith": 9015,
      "hacking": 9016,
      "accelerating": 9017,
      "nitrogen": 9018,
      "Similar": 9019,
      "stimul": 9020,
      "observations": 9021,
      "lifted": 9022,
      "Julian": 9023,
      "accomplished": 9024,
      "informal": 9025,
      "frightening": 9026,
      "zerland": 9027,
      "barriers": 9028,
      "pouring": 9029,
      "aesthetic": 9030,
      "abundance": 9031,
      "abandoned": 9032,
      "theoretical": 9033,
      "stabili": 9034,
      "adequate": 9035,
      "fluorescent": 9036,
      "simplif": 9037,
      "Switzerland": 9038,
      "Craig": 9039,
      "electromagnet": 9040,
      "46": 9041,
      "BA": 9042,
      "Cer": 9043,
      "Cath": 9044,
      "Ka": 9045,
      "PR": 9046,
      "Show": 9047,
      "TM": 9048,
      "Top": 9049,
      "ego": 9050,
      "fuse": 9051,
      "jam": 9052,
      "mism": 9053,
      "pip": 9054,
      "pants": 9055,
      "racing": 9056,
      "sne": 9057,
      "vivid": 9058,
      "wins": 9059,
      "thors": 9060,
      "iner": 9061,
      "injuries": 9062,
      "retin": 9063,
      "rewards": 9064,
      "isions": 9065,
      "enzy": 9066,
      "arbit": 9067,
      "sta": 9068,
      "sty": 9069,
      "hemis": 9070,
      "lize": 9071,
      "kel": 9072,
      "soc": 9073,
      "imes": 9074,
      "depos": 9075,
      "urt": 9076,
      "actively": 9077,
      "proli": 9078,
      "odor": 9079,
      "agan": 9080,
      "apes": 9081,
      "spare": 9082,
      "evapor": 9083,
      "Young": 9084,
      "elabor": 9085,
      "bos": 9086,
      "spell": 9087,
      "obese": 9088,
      "cream": 9089,
      "marath": 9090,
      "marvel": 9091,
      "carpet": 9092,
      "fluct": 9093,
      "interrup": 9094,
      "compat": 9095,
      "2030": 9096,
      "1980": 9097,
      "Start": 9098,
      "parks": 9099,
      "reasure": 9100,
      "authors": 9101,
      "regulation": 9102,
      "passes": 9103,
      "untary": 9104,
      "chamber": 9105,
      "distinction": 9106,
      "nightm": 9107,
      "holders": 9108,
      "meets": 9109,
      "arrhea": 9110,
      "messy": 9111,
      "texture": 9112,
      "textbooks": 9113,
      "sensit": 9114,
      "totle": 9115,
      "picks": 9116,
      "cooling": 9117,
      "raine": 9118,
      "ventions": 9119,
      "measurements": 9120,
      "chemist": 9121,
      "cardio": 9122,
      "activated": 9123,
      "riding": 9124,
      "variations": 9125,
      "introduction": 9126,
      "semi": 9127,
      "Mean": 9128,
      "pulls": 9129,
      "temperatures": 9130,
      "phenomenal": 9131,
      "naive": 9132,
      "surgeries": 9133,
      "integrate": 9134,
      "matched": 9135,
      "mutation": 9136,
      "documented": 9137,
      "therapies": 9138,
      "regularly": 9139,
      "vaccines": 9140,
      "Keep": 9141,
      "vae": 9142,
      "gravit": 9143,
      "opinions": 9144,
      "murder": 9145,
      "knock": 9146,
      "cockro": 9147,
      "Ladies": 9148,
      "absorb": 9149,
      "administr": 9150,
      "overwhelming": 9151,
      "candidate": 9152,
      "asteroids": 9153,
      "labeled": 9154,
      "strands": 9155,
      "maximum": 9156,
      "sculptures": 9157,
      "volcano": 9158,
      "alphabet": 9159,
      "Spring": 9160,
      "Aristotle": 9161,
      "cylinder": 9162,
      "clopedia": 9163,
      "Cla": 9164,
      "Cont": 9165,
      "Dian": 9166,
      "Fred": 9167,
      "Greg": 9168,
      "Jacqu": 9169,
      "Ku": 9170,
      "Mi": 9171,
      "PI": 9172,
      "Pur": 9173,
      "Pret": 9174,
      "Rover": 9175,
      "cattle": 9176,
      "gical": 9177,
      "hated": 9178,
      "jar": 9179,
      "jack": 9180,
      "kit": 9181,
      "kiss": 9182,
      "mans": 9183,
      "mating": 9184,
      "nick": 9185,
      "wow": 9186,
      "thy": 9187,
      "inary": 9188,
      "inery": 9189,
      "erals": 9190,
      "isa": 9191,
      "ala": 9192,
      "heating": 9193,
      "lith": 9194,
      "idal": 9195,
      "outrage": 9196,
      "logo": 9197,
      "gevity": 9198,
      "nearest": 9199,
      "mob": 9200,
      "modest": 9201,
      "congest": 9202,
      "contem": 9203,
      "unks": 9204,
      "plum": 9205,
      "pra": 9206,
      "happily": 9207,
      "assure": 9208,
      "holy": 9209,
      "counts": 9210,
      "offs": 9211,
      "wrist": 9212,
      "irect": 9213,
      "systematically": 9214,
      "carries": 9215,
      "interventions": 9216,
      "comparing": 9217,
      "playful": 9218,
      "planned": 9219,
      "handful": 9220,
      "founder": 9221,
      "glu": 9222,
      "graphical": 9223,
      "livestock": 9224,
      "momentum": 9225,
      "Bruce": 9226,
      "freak": 9227,
      "ierra": 9228,
      "stein": 9229,
      "portraits": 9230,
      "banking": 9231,
      "digest": 9232,
      "trading": 9233,
      "horror": 9234,
      "exploit": 9235,
      "18th": 9236,
      "screaming": 9237,
      "ventil": 9238,
      "terrified": 9239,
      "visualize": 9240,
      "visualizations": 9241,
      "statistic": 9242,
      "wishes": 9243,
      "favorites": 9244,
      "confess": 9245,
      "Shir": 9246,
      "Comput": 9247,
      "responded": 9248,
      "index": 9249,
      "websites": 9250,
      "discussing": 9251,
      "infectious": 9252,
      "universes": 9253,
      "streams": 9254,
      "philosophical": 9255,
      "Charlie": 9256,
      "alternatives": 9257,
      "Arabia": 9258,
      "expressed": 9259,
      "centralized": 9260,
      "expanded": 9261,
      "welfare": 9262,
      "mutations": 9263,
      "sectors": 9264,
[...]
