{
  "version": "1.0",
  "truncation": null,
  "padding": null,
  "added_tokens": [
    {
      "id": 0,
      "content": "[PAD]",
      "single_word": false,
      "lstrip": false,
      "rstrip": false,
      "normalized": false,
      "special": true
    },
    {
      "id": 1,
      "content": "[SOS]",
      "single_word": false,
      "lstrip": false,
      "rstrip": false,
      "normalized": false,
      "special": true
    },
    {
      "id": 2,
      "content": "[EOS]",
      "single_word": false,
      "lstrip": false,
      "rstrip": false,
      "normalized": false,
      "special": true
    },
    {
      "id": 3,
      "content": "[UNK]",
      "single_word": false,
      "lstrip": false,
      "rstrip": false,
      "normalized": false,
      "special": true
    }
  ],
  "normalizer": null,
  "pre_tokenizer": {
    "type": "Whitespace"
  },
  "post_processor": {
    "type": "TemplateProcessing",
    "single": [
      {
        "SpecialToken": {
          "id": "[SOS]",
          "type_id": 0
        }
      },
      {
        "Sequence": {
          "id": "A",
          "type_id": 0
        }
      },
      {
        "SpecialToken": {
          "id": "[EOS]",
          "type_id": 0
        }
      }
    ],
    "pair": [
      {
        "Sequence": {
          "id": "A",
          "type_id": 0
        }
      },
      {
        "Sequence": {
          "id": "B",
          "type_id": 1
        }
      }
    ],
    "special_tokens": {
      "[EOS]": {
        "id": "[EOS]",
        "ids": [
          2
        ],
        "tokens": [
          "[EOS]"
        ]
      },
      "[SOS]": {
        "id": "[SOS]",
        "ids": [
          1
        ],
        "tokens": [
          "[SOS]"
        ]
      }
    }
  },
  "decoder": null,
  "model": {
    "type": "BPE",
    "dropout": null,
    "unk_token": "[UNK]",
    "continuing_subword_prefix": null,
    "end_of_word_suffix": null,
    "fuse_unk": false,
    "vocab": {
      "[PAD]": 0,
      "[SOS]": 1,
      "[EOS]": 2,
      "[UNK]": 3,
      "!": 4,
      "\"": 5,
      "#": 6,
      "$": 7,
      "%": 8,
      "&": 9,
      "'": 10,
      "(": 11,
      ")": 12,
      "*": 13,
      "+": 14,
      ",": 15,
      "-": 16,
      ".": 17,
      "/": 18,
      "0": 19,
      "1": 20,
      "2": 21,
      "3": 22,
      "4": 23,
      "5": 24,
      "6": 25,
      "7": 26,
      "8": 27,
      "9": 28,
      ":": 29,
      ";": 30,
      "<": 31,
      "=": 32,
      ">": 33,
      "?": 34,
      "@": 35,
      "A": 36,
      "B": 37,
      "C": 38,
      "D": 39,
      "E": 40,
      "F": 41,
      "G": 42,
      "H": 43,
      "I": 44,
      "J": 45,
      "K": 46,
      "L": 47,
      "M": 48,
      "N": 49,
      "O": 50,
      "P": 51,
      "Q": 52,
      "R": 53,
      "S": 54,
      "T": 55,
      "U": 56,
      "V": 57,
      "W": 58,
      "X": 59,
      "Y": 60,
      "Z": 61,
      "[": 62,
      "\\": 63,
      "]": 64,
      "^": 65,
      "_": 66,
      "`": 67,
      "a": 68,
      "b": 69,
      "c": 70,
      "d": 71,
      "e": 72,
      "f": 73,
      "g": 74,
      "h": 75,
      "i": 76,
      "j": 77,
      "k": 78,
      "l": 79,
      "m": 80,
      "n": 81,
      "o": 82,
      "p": 83,
      "q": 84,
      "r": 85,
      "s": 86,
      "t": 87,
      "u": 88,
      "v": 89,
      "w": 90,
      "x": 91,
      "y": 92,
      "z": 93,
      "en": 94,
      "er": 95,
      "ch": 96,
      "in": 97,
      "ie": 98,
      "un": 99,
      "ich": 100,
      "an": 101,
      "st": 102,
      "ein": 103,
      "as": 104,
      "es": 105,
      "ei": 106,
      "die": 107,
      "au": 108,
      "der": 109,
      "on": 110,
      "al": 111,
      "te": 112,
      "und": 113,
      "sch": 114,
      "ir": 115,
      "ar": 116,
      "ge": 117,
      "ur": 118,
      "den": 119,
      "das": 120,
      "at": 121,
      "gen": 122,
      "zu": 123,
      "or": 124,
      "el": 125,
      "hr": 126,
      "ten": 127,
      "de": 128,
      "it": 129,
      "ist": 130,
      "se": 131,
      "le": 132,
      "wir": 133,
      "ach": 134,
      "eine": 135,
      "ab": 136,
      "icht": 137,
      "ier": 138,
      "lich": 139,
      "ol": 140,
      "ss": 141,
      "ter": 142,
      "ung": 143,
      "ber": 144,
      "be": 145,
      "ver": 146,
      "am": 147,
      "ro": 148,
      "auf": 149,
      "sie": 150,
      "Un": 151,
      "so": 152,
      "Sie": 153,
      "ig": 154,
      "von": 155,
      "nen": 156,
      "um": 157,
      "nicht": 158,
      "im": 159,
      "dass": 160,
      "eit": 161,
      "et": 162,
      "ben": 163,
      "war": 164,
      "ann": 165,
      "ck": 166,
      "mit": 167,
      "men": 168,
      "Und": 169,
      "re": 170,
      "ser": 171,
      "len": 172,
      "hab": 173,
      "ion": 174,
      "aus": 175,
      "wie": 176,
      "il": 177,
      "ahr": 178,
      "ind": 179,
      "ut": 180,
      "om": 181,
      "isch": 182,
      "hen": 183,
      "and": 184,
      "wei": 185,
      "af": 186,
      "sich": 187,
      "ag": 188,
      "enn": 189,
      "was": 190,
      "kt": 191,
      "kon": 192,
      "Ich": 193,
      "is": 194,
      "ah": 195,
      "uber": 196,
      "eu": 197,
      "ent": 198,
      "wer": 199,
      "hat": 200,
      "sen": 201,
      "ste": 202,
      "man": 203,
      "ssen": 204,
      "sind": 205,
      "och": 206,
      "fur": 207,
      "sp": 208,
      "einen": 209,
      "haben": 210,
      "dem": 211,
      "iel": 212,
      "ander": 213,
      "diese": 214,
      "als": 215,
      "St": 216,
      "ik": 217,
      "us": 218,
      "des": 219,
      "Die": 220,
      "Das": 221,
      "all": 222,
      "In": 223,
      "Sch": 224,
      "me": 225,
      "Wir": 226,
      "einer": 227,
      "auch": 228,
      "Er": 229,
      "Es": 230,
      "ne": 231,
      "bei": 232,
      "Ge": 233,
      "wur": 234,
      "vor": 235,
      "sten": 236,
      "br": 237,
      "bt": 238,
      "ff": 239,
      "esch": 240,
      "og": 241,
      "ra": 242,
      "oll": 243,
      "ihr": 244,
      "je": 245,
      "uns": 246,
      "her": 247,
      "mach": 248,
      "ru": 249,
      "ern": 250,
      "elt": 251,
      "wenn": 252,
      "einem": 253,
      "Ver": 254,
      "ieren": 255,
      "ell": 256,
      "uch": 257,
      "ien": 258,
      "Ar": 259,
      "kom": 260,
      "nach": 261,
      "zen": 262,
      "rei": 263,
      "oder": 264,
      "kann": 265,
      "Pro": 266,
      "ort": 267,
      "mer": 268,
      "schen": 269,
      "unser": 270,
      "ang": 271,
      "konnen": 272,
      "werden": 273,
      "Al": 274,
      "Men": 275,
      "An": 276,
      "Jahr": 277,
      "schaf": 278,
      "ungen": 279,
      "ation": 280,
      "hal": 281,
      "iert": 282,
      "da": 283,
      "ken": 284,
      "oh": 285,
      "ot": 286,
      "em": 287,
      "aber": 288,
      "ing": 289,
      "kl": 290,
      "igen": 291,
      "ht": 292,
      "ige": 293,
      "fu": 294,
      "wi": 295,
      "zt": 296,
      "Aber": 297,
      "Ein": 298,
      "iv": 299,
      "Le": 300,
      "gan": 301,
      "dar": 302,
      "wurde": 303,
      "ze": 304,
      "nur": 305,
      "ischen": 306,
      "Be": 307,
      "wird": 308,
      "lo": 309,
      "sehr": 310,
      "hier": 311,
      "we": 312,
      "lie": 313,
      "ul": 314,
      "00": 315,
      "Menschen": 316,
      "gi": 317,
      "sehen": 318,
      "sein": 319,
      "hnen": 320,
      "--": 321,
      "gro": 322,
      "Re": 323,
      "gibt": 324,
      "fen": 325,
      "urch": 326,
      "viel": 327,
      "mich": 328,
      "uck": 329,
      "tr": 330,
      "dies": 331,
      "mu": 332,
      "ill": 333,
      "dann": 334,
      "ges": 335,
      "En": 336,
      "noch": 337,
      "also": 338,
      "lau": 339,
      "ft": 340,
      "schaft": 341,
      "eute": 342,
      "op": 343,
      "chen": 344,
      "mal": 345,
      "eil": 346,
      "Sp": 347,
      "alle": 348,
      "durch": 349,
      "ob": 350,
      "etwas": 351,
      "tet": 352,
      "Welt": 353,
      "hin": 354,
      "konn": 355,
      "zur": 356,
      "du": 357,
      "ass": 358,
      "he": 359,
      "unter": 360,
      "ran": 361,
      "habe": 362,
      "Was": 363,
      "mehr": 364,
      "agen": 365,
      "ellen": 366,
      "dieser": 367,
      "ger": 368,
      "heit": 369,
      "sag": 370,
      "ad": 371,
      "mir": 372,
      "ische": 373,
      "ke": 374,
      "Au": 375,
      "off": 376,
      "lichen": 377,
      ".\"": 378,
      "son": 379,
      "sam": 380,
      "gr": 381,
      "for": 382,
      "keit": 383,
      "os": 384,
      "fin": 385,
      "wen": 386,
      "Leben": 387,
      "Wenn": 388,
      "rie": 389,
      "assen": 390,
      "sel": 391,
      "eigen": 392,
      "gel": 393,
      "bes": 394,
      "liche": 395,
      "per": 396,
      "tel": 397,
      "gt": 398,
      "mein": 399,
      "lu": 400,
      "wirk": 401,
      "einf": 402,
      "auen": 403,
      "immer": 404,
      "kommen": 405,
      "lan": 406,
      "hatte": 407,
      "pt": 408,
      "machen": 409,
      "iele": 410,
      "fe": 411,
      "zum": 412,
      "aten": 413,
      "etzt": 414,
      "mt": 415,
      "Zeit": 416,
      "stell": 417,
      "such": 418,
      "ess": 419,
      "Gesch": 420,
      "Ihnen": 421,
      "inn": 422,
      "zwei": 423,
      "art": 424,
      "bst": 425,
      "ech": 426,
      "weil": 427,
      "einfach": 428,
      "wirklich": 429,
      "Gr": 430,
      "fahr": 431,
      "meine": 432,
      "ahl": 433,
      "gew": 434,
      "bar": 435,
      "wissen": 436,
      "wo": 437,
      "pro": 438,
      "olog": 439,
      "neu": 440,
      "ri": 441,
      "Kon": 442,
      "tun": 443,
      "bin": 444,
      "Din": 445,
      "atur": 446,
      "acht": 447,
      "hn": 448,
      "Also": 449,
      "tz": 450,
      "macht": 451,
      "ster": 452,
      "lei": 453,
      "dern": 454,
      "dam": 455,
      "bis": 456,
      "Ihr": 457,
      "gesch": 458,
      "hmen": 459,
      "ungs": 460,
      "wahr": 461,
      "tern": 462,
      "sagen": 463,
      "ktion": 464,
      "waren": 465,
      "iz": 466,
      "unsere": 467,
      "geb": 468,
      "end": 469,
      "dieses": 470,
      "eines": 471,
      "schie": 472,
      "ler": 473,
      "schon": 474,
      "ap": 475,
      "zie": 476,
      "leich": 477,
      "unden": 478,
      "ihre": 479,
      "eiten": 480,
      "leicht": 481,
      "fuhr": 482,
      "ast": 483,
      "diesem": 484,
      "keine": 485,
      "Leute": 486,
      "gehen": 487,
      "konnte": 488,
      "oren": 489,
      "ED": 490,
      "iger": 491,
      "Art": 492,
      "Wie": 493,
      "ble": 494,
      "viele": 495,
      "ater": 496,
      "ache": 497,
      "wurden": 498,
      "halten": 499,
      "soll": 500,
      "ant": 501,
      "mussen": 502,
      "che": 503,
      "Man": 504,
      "eln": 505,
      "Ges": 506,
      "arbei": 507,
      "weiter": 508,
      "Dinge": 509,
      "TED": 510,
      "ingen": 511,
      "age": 512,
      "alt": 513,
      "stand": 514,
      "kam": 515,
      "sagte": 516,
      "mus": 517,
      "sser": 518,
      "Me": 519,
      "diesen": 520,
      "stellen": 521,
      "Zu": 522,
      "fr": 523,
      "ild": 524,
      "Jahren": 525,
      "ats": 526,
      "erz": 527,
      "gab": 528,
      "geben": 529,
      "Vor": 530,
      "Der": 531,
      "Or": 532,
      "ollen": 533,
      "Kin": 534,
      "andere": 535,
      "alk": 536,
      "jetzt": 537,
      "itat": 538,
      "ielen": 539,
      "wieder": 540,
      "cken": 541,
      "glau": 542,
      "geht": 543,
      "ichtig": 544,
      "ionen": 545,
      "stehen": 546,
      "fer": 547,
      "Bei": 548,
      "anderen": 549,
      "Geschich": 550,
      "brauch": 551,
      "rau": 552,
      "det": 553,
      "wick": 554,
      "Unter": 555,
      "nie": 556,
      "Proble": 557,
      "Mit": 558,
      "finden": 559,
      "gleich": 560,
      "under": 561,
      "cht": 562,
      "nis": 563,
      "Auf": 564,
      "pp": 565,
      "selbst": 566,
      "alles": 567,
      "lang": 568,
      "nehmen": 569,
      "Aus": 570,
      "aft": 571,
      "Ent": 572,
      "erst": 573,
      "moch": 574,
      "spiel": 575,
      "gend": 576,
      "damit": 577,
      "Se": 578,
      "gut": 579,
      "les": 580,
      "Su": 581,
      "beit": 582,
      "inter": 583,
      "ale": 584,
      "fuh": 585,
      "ce": 586,
      "Mo": 587,
      "fun": 588,
      "oglich": 589,
      "hatten": 590,
      "Mill": 591,
      "We": 592,
      "So": 593,
      "leben": 594,
      "issen": 595,
      "Jahre": 596,
      "fol": 597,
      "nah": 598,
      "yste": 599,
      "denken": 600,
      "ragen": 601,
      "atz": 602,
      "zuruck": 603,
      "hei": 604,
      "gar": 605,
      "gros": 606,
      "bl": 607,
      "utzen": 608,
      "rit": 609,
      "zi": 610,
      "genau": 611,
      "ak": 612,
      "muss": 613,
      "beg": 614,
      "zent": 615,
      "Um": 616,
      "Dan": 617,
      "echn": 618,
      "reich": 619,
      "mei": 620,
      "igkeit": 621,
      "schn": 622,
      "unde": 623,
      "aut": 624,
      "ekt": 625,
      "elle": 626,
      "achlich": 627,
      "pass": 628,
      "ohn": 629,
      "Kinder": 630,
      "mochte": 631,
      "zei": 632,
      "aar": 633,
      "besser": 634,
      "heraus": 635,
      "zw": 636,
      "ganz": 637,
      "ok": 638,
      "denn": 639,
      "ick": 640,
      "denen": 641,
      "letz": 642,
      "ationen": 643,
      "Ide": 644,
      "zusam": 645,
      "Nun": 646,
      "..": 647,
      "zusammen": 648,
      "ihnen": 649,
      "lassen": 650,
      "vielleicht": 651,
      "Dies": 652,
      "versuch": 653,
      "weg": 654,
      "ahlen": 655,
      "drei": 656,
      "halb": 657,
      "pr": 658,
      "Techn": 659,
      "form": 660,
      "Wissen": 661,
      "fall": 662,
      "Mann": 663,
      "atsachlich": 664,
      "ment": 665,
      "Geschichte": 666,
      "ruck": 667,
      "kommt": 668,
      "konnten": 669,
      "alen": 670,
      "davon": 671,
      "ult": 672,
      "Ch": 673,
      "agt": 674,
      "wel": 675,
      "For": 676,
      "rage": 677,
      "Land": 678,
      "att": 679,
      "Ne": 680,
      "dort": 681,
      "rechen": 682,
      "Wer": 683,
      "ign": 684,
      "olle": 685,
      "ens": 686,
      "gegen": 687,
      "halt": 688,
      "dien": 689,
      "voll": 690,
      "Nach": 691,
      "ierte": 692,
      "Tag": 693,
      "aum": 694,
      "ho": 695,
      "ware": 696,
      "Hier": 697,
      "andern": 698,
      "weise": 699,
      "Teil": 700,
      "schein": 701,
      "heute": 702,
      "str": 703,
      "Arbeit": 704,
      "000": 705,
      "angen": 706,
      "Bild": 707,
      "pf": 708,
      "utz": 709,
      "Gen": 710,
      "achen": 711,
      "ex": 712,
      "iver": 713,
      "schw": 714,
      "achte": 715,
      "einige": 716,
      "amm": 717,
      "sst": 718,
      "pl": 719,
      "stim": 720,
      "ade": 721,
      "ologie": 722,
      "hir": 723,
      "kte": 724,
      "eld": 725,
      "bringen": 726,
      "allen": 727,
      "ihn": 728,
      "wor": 729,
      "ystem": 730,
      "Diese": 731,
      "ic": 732,
      "paar": 733,
      "qu": 734,
      "?\"": 735,
      "ohl": 736,
      "Mar": 737,
      "hand": 738,
      "nun": 739,
      "Wei": 740,
      "wollen": 741,
      "Per": 742,
      "daruber": 743,
      "will": 744,
      "ange": 745,
      "Ber": 746,
      "hm": 747,
      "teil": 748,
      "besch": 749,
      "woll": 750,
      "seine": 751,
      "zeu": 752,
      "spr": 753,
      "schl": 754,
      "omp": 755,
      "einz": 756,
      "meiner": 757,
      "ine": 758,
      "Fre": 759,
      "star": 760,
      "Fr": 761,
      "Tran": 762,
      "werde": 763,
      "Problem": 764,
      "tre": 765,
      "las": 766,
      "unst": 767,
      "set": 768,
      "wus": 769,
      "tatsachlich": 770,
      "Kor": 771,
      "mand": 772,
      "stellt": 773,
      "od": 774,
      "dan": 775,
      "luss": 776,
      "sc": 777,
      "neue": 778,
      "entwick": 779,
      "Im": 780,
      "uten": 781,
      "sondern": 782,
      "ive": 783,
      "20": 784,
      "weiss": 785,
      "ph": 786,
      "bede": 787,
      "anden": 788,
      "Gehir": 789,
      "sol": 790,
      "Beispiel": 791,
      "Stu": 792,
      "gross": 793,
      "unserer": 794,
      "zwischen": 795,
      "kur": 796,
      "iff": 797,
      "aturlich": 798,
      "wa": 799,
      "Aut": 800,
      "Ab": 801,
      "dazu": 802,
      "Wasser": 803,
      "akt": 804,
      "anz": 805,
      "ehen": 806,
      "unge": 807,
      "Als": 808,
      "irgend": 809,
      "Her": 810,
      "ogen": 811,
      "fl": 812,
      "ja": 813,
      "War": 814,
      "fuhl": 815,
      "aufen": 816,
      "gie": 817,
      "klar": 818,
      "vom": 819,
      "Geb": 820,
      "eite": 821,
      "ras": 822,
      "denke": 823,
      "Bl": 824,
      "Gro": 825,
      "doch": 826,
      "achten": 827,
      "Hand": 828,
      "ins": 829,
      "Des": 830,
      "gemacht": 831,
      "daf": 832,
      "ahn": 833,
      "19": 834,
      "Grund": 835,
      "Mon": 836,
      "funktion": 837,
      "sicher": 838,
      "los": 839,
      "inner": 840,
      "Da": 841,
      "sprechen": 842,
      "di": 843,
      "sogar": 844,
      "schei": 845,
      "nam": 846,
      "uter": 847,
      "wichtig": 848,
      "einmal": 849,
      "kein": 850,
      "Gehirn": 851,
      "etz": 852,
      "ohne": 853,
      "vol": 854,
      "zeigen": 855,
      "ate": 856,
      "gerade": 857,
      "Uber": 858,
      "sieht": 859,
      "ute": 860,
      "arbeiten": 861,
      "Frauen": 862,
      "Stad": 863,
      "ika": 864,
      "gl": 865,
      "ierung": 866,
      "wohl": 867,
      "moglich": 868,
      "keiten": 869,
      "get": 870,
      "kennen": 871,
      "interess": 872,
      "glaube": 873,
      "Frage": 874,
      "geh": 875,
      "rank": 876,
      "gef": 877,
      "grosse": 878,
      "wegen": 879,
      "verschie": 880,
      "tlich": 881,
      "ys": 882,
      "dr": 883,
      "10": 884,
      "let": 885,
      "ele": 886,
      "eich": 887,
      "letzten": 888,
      "ffen": 889,
      "Mal": 890,
      "alks": 891,
      "hau": 892,
      "dafur": 893,
      "Eine": 894,
      "ersten": 895,
      "jeder": 896,
      "Daten": 897,
      "ihren": 898,
      "Lebens": 899,
      "esen": 900,
      "Ex": 901,
      "tschaft": 902,
      "Reg": 903,
      "Prozent": 904,
      "seit": 905,
      "steht": 906,
      "ay": 907,
      "nichts": 908,
      "zeigt": 909,
      "Ph": 910,
      "ikan": 911,
      "passiert": 912,
      "utter": 913,
      "welt": 914,
      "ide": 915,
      "licher": 916,
      "wahrend": 917,
      "zeit": 918,
      "Kl": 919,
      "talks": 920,
      "innen": 921,
      "unft": 922,
      "unkt": 923,
      "ivers": 924,
      "Buch": 925,
      "wort": 926,
      "ingt": 927,
      "dig": 928,
      "ischer": 929,
      "Person": 930,
      "verstehen": 931,
      "warum": 932,
      "abei": 933,
      "Millionen": 934,
      "meisten": 935,
      "meinen": 936,
      "sagt": 937,
      "daran": 938,
      "chn": 939,
      "schaffen": 940,
      "mensch": 941,
      "erste": 942,
      "Ihre": 943,
      "Ant": 944,
      "vier": 945,
      "est": 946,
      "weit": 947,
      "Hau": 948,
      "richt": 949,
      "Talk": 950,
      "essen": 951,
      "rupp": 952,
      "Bo": 953,
      "grund": 954,
      "lichkeit": 955,
      "kunft": 956,
      "sollte": 957,
      "Idee": 958,
      "Je": 959,
      "mlich": 960,
      "Ger": 961,
      "wach": 962,
      "gest": 963,
      "ript": 964,
      "jekt": 965,
      "naturlich": 966,
      "ergie": 967,
      "enz": 968,
      "etwa": 969,
      "betr": 970,
      "ultur": 971,
      "Schu": 972,
      "lung": 973,
      "einander": 974,
      "ausser": 975,
      "bekommen": 976,
      "ging": 977,
      "Subt": 978,
      "Plan": 979,
      "ett": 980,
      "sollten": 981,
      "Wahr": 982,
      "zahl": 983,
      "bs": 984,
      "50": 985,
      "ker": 986,
      "hem": 987,
      "itles": 988,
      "Transc": 989,
      "Subtitles": 990,
      "Transcript": 991,
      "Weg": 992,
      "Geld": 993,
      "iere": 994,
      "Raum": 995,
      "De": 996,
      "schnell": 997,
      "olit": 998,
      "kr": 999,
      "wollte": 1000,
      "Kunst": 1001,
      "ord": 1002,
      "ihrer": 1003,
      "ack": 1004,
      "Comp": 1005,
      "dabei": 1006,
      "ganze": 1007,
      "oten": 1008,
      "Inform": 1009,
      "schied": 1010,
      "meinem": 1011,
      "fahren": 1012,
      "Wissenschaft": 1013,
      "yp": 1014,
      "grosser": 1015,
      "bereit": 1016,
      "eilen": 1017,
      "bauen": 1018,
      "Mus": 1019,
      "Univers": 1020,
      "Doll": 1021,
      "ziemlich": 1022,
      "ug": 1023,
      "io": 1024,
      "hoch": 1025,
      "Kre": 1026,
      "ert": 1027,
      "Dollar": 1028,
      "Pl": 1029,
      "ativ": 1030,
      "legen": 1031,
      "darauf": 1032,
      "Str": 1033,
      "gesehen": 1034,
      "setzen": 1035,
      "hunder": 1036,
      "ial": 1037,
      "onder": 1038,
      "fuhren": 1039,
      "bal": 1040,
      "fang": 1041,
      "ktur": 1042,
      "utet": 1043,
      "schlie": 1044,
      "\".": 1045,
      "satz": 1046,
      "Technologie": 1047,
      "gang": 1048,
      "iss": 1049,
      "Min": 1050,
      "amil": 1051,
      "Kind": 1052,
      "Ende": 1053,
      "Dank": 1054,
      "welche": 1055,
      "reiben": 1056,
      "brauchen": 1057,
      "hang": 1058,
      "uss": 1059,
      "net": 1060,
      "kleinen": 1061,
      "grossen": 1062,
      "weniger": 1063,
      "ts": 1064,
      "are": 1065,
      "mittel": 1066,
      "uh": 1067,
      "Lie": 1068,
      "wand": 1069,
      "igt": 1070,
      "laub": 1071,
      "opf": 1072,
      "Rei": 1073,
      "Computer": 1074,
      "rad": 1075,
      "Qu": 1076,
      "ierten": 1077,
      "dir": 1078,
      "id": 1079,
      "Spr": 1080,
      "ichten": 1081,
      "jemand": 1082,
      "bedeutet": 1083,
      "unseren": 1084,
      "ommen": 1085,
      "\",": 1086,
      "Ja": 1087,
      "ia": 1088,
      "ner": 1089,
      "Warum": 1090,
      "dachte": 1091,
      "verl": 1092,
      "Dann": 1093,
      "US": 1094,
      "Sache": 1095,
      "Famil": 1096,
      "folg": 1097,
      "Mein": 1098,
      "Denn": 1099,
      "verwen": 1100,
      "ganis": 1101,
      "offent": 1102,
      "orgen": 1103,
      "zeich": 1104,
      "Korper": 1105,
      "land": 1106,
      "Ok": 1107,
      "Moglich": 1108,
      "statt": 1109,
      "ihm": 1110,
      "Spiel": 1111,
      "ma": 1112,
      "horen": 1113,
      "bestim": 1114,
      "aden": 1115,
      "Inter": 1116,
      "Energie": 1117,
      "alten": 1118,
      "sei": 1119,
      "Wor": 1120,
      "Design": 1121,
      "Kr": 1122,
      "200": 1123,
      "Pr": 1124,
      "hor": 1125,
      "Kar": 1126,
      "fuhrt": 1127,
      ",,": 1128,
      "eigentlich": 1129,
      "ition": 1130,
      "kleine": 1131,
      "Seite": 1132,
      "...": 1133,
      "hel": 1134,
      "Kam": 1135,
      "fest": 1136,
      "Fil": 1137,
      "lin": 1138,
      "recht": 1139,
      "liegen": 1140,
      "lernen": 1141,
      "Fall": 1142,
      "reichen": 1143,
      "utzt": 1144,
      "ko": 1145,
      "techn": 1146,
      "ution": 1147,
      "Weise": 1148,
      "Du": 1149,
      "komp": 1150,
      "andert": 1151,
      "fangen": 1152,
      "wenig": 1153,
      "schle": 1154,
      "ganzen": 1155,
      "jeden": 1156,
      "Mutter": 1157,
      "Licht": 1158,
      "tete": 1159,
      "ott": 1160,
      "Zukunft": 1161,
      "Kom": 1162,
      "wunder": 1163,
      "imm": 1164,
      "sy": 1165,
      "mals": 1166,
      "besonder": 1167,
      "Intern": 1168,
      "druck": 1169,
      "schauen": 1170,
      "schaften": 1171,
      "El": 1172,
      "verb": 1173,
      "heisst": 1174,
      "Frau": 1175,
      "Lu": 1176,
      "rat": 1177,
      "Schul": 1178,
      "bel": 1179,
      "ard": 1180,
      "amen": 1181,
      "gemein": 1182,
      "kten": 1183,
      "scheinlich": 1184,
      "Viel": 1185,
      "hol": 1186,
      "kenn": 1187,
      "lex": 1188,
      "Grupp": 1189,
      "ckt": 1190,
      "Entwick": 1191,
      "asch": 1192,
      "rech": 1193,
      "Menge": 1194,
      "gesagt": 1195,
      "glo": 1196,
      "forder": 1197,
      "Vort": 1198,
      "lange": 1199,
      "keinen": 1200,
      "stoff": 1201,
      "ernt": 1202,
      "versuchen": 1203,
      "stellung": 1204,
      "kurz": 1205,
      "wicht": 1206,
      "Pat": 1207,
      "bo": 1208,
      "eist": 1209,
      "ip": 1210,
      "System": 1211,
      "Woch": 1212,
      "Afr": 1213,
      "Den": 1214,
      "fru": 1215,
      "iar": 1216,
      "funf": 1217,
      "Natur": 1218,
      "indem": 1219,
      "sozi": 1220,
      "Stadt": 1221,
      "Ort": 1222,
      "glauben": 1223,
      "iker": 1224,
      "ud": 1225,
      "Augen": 1226,
      "Son": 1227,
      "The": 1228,
      "iges": 1229,
      "mog": 1230,
      "Gemein": 1231,
      "unglaub": 1232,
      "Te": 1233,
      "At": 1234,
      "auft": 1235,
      "seiner": 1236,
      "vielen": 1237,
      "spater": 1238,
      "Bil": 1239,
      "Verb": 1240,
      "30": 1241,
      "Ele": 1242,
      "ite": 1243,
      "ande": 1244,
      "nung": 1245,
      "eigenen": 1246,
      "Ob": 1247,
      "undheit": 1248,
      "rag": 1249,
      "ans": 1250,
      "Bur": 1251,
      "spielen": 1252,
      "Internet": 1253,
      "Jetzt": 1254,
      "itt": 1255,
      "beim": 1256,
      "Produ": 1257,
      "Moment": 1258,
      "Vide": 1259,
      "nutzen": 1260,
      "hren": 1261,
      "Vielen": 1262,
      "aller": 1263,
      "oft": 1264,
      "Danke": 1265,
      "jen": 1266,
      "deut": 1267,
      "funktioniert": 1268,
      "wert": 1269,
      "helfen": 1270,
      "Milliar": 1271,
      "nor": 1272,
      "mut": 1273,
      "ammen": 1274,
      "lug": 1275,
      "eten": 1276,
      "verbr": 1277,
      "wahrscheinlich": 1278,
      "zeug": 1279,
      "Pf": 1280,
      "ismus": 1281,
      "anders": 1282,
      "gestellt": 1283,
      "ruktur": 1284,
      "reis": 1285,
      "luck": 1286,
      "Los": 1287,
      "ov": 1288,
      "volution": 1289,
      "fast": 1290,
      "anzu": 1291,
      "alitat": 1292,
      "Erde": 1293,
      "Stel": 1294,
      "Probleme": 1295,
      "Par": 1296,
      "gute": 1297,
      "jedes": 1298,
      "wusst": 1299,
      "Haus": 1300,
      "ellschaft": 1301,
      "Sel": 1302,
      "produ": 1303,
      "Mensch": 1304,
      "Rob": 1305,
      "dent": 1306,
      "schwer": 1307,
      "verschieden": 1308,
      "Mu": 1309,
      "liegt": 1310,
      "neuen": 1311,
      "Amer": 1312,
      "kel": 1313,
      "tro": 1314,
      "ren": 1315,
      "erzahlen": 1316,
      "herum": 1317,
      "folgen": 1318,
      "isches": 1319,
      "sah": 1320,
      "fort": 1321,
      "frei": 1322,
      "Gesundheit": 1323,
      "eile": 1324,
      "Met": 1325,
      "sicht": 1326,
      "Med": 1327,
      "nisse": 1328,
      "ziehen": 1329,
      "Form": 1330,
      "liches": 1331,
      "Ro": 1332,
      "alter": 1333,
      "wachsen": 1334,
      "Fot": 1335,
      "Lehr": 1336,
      "eben": 1337,
      "Projekt": 1338,
      "Musik": 1339,
      "musste": 1340,
      "dich": 1341,
      "losen": 1342,
      "Mad": 1343,
      "sse": 1344,
      "Sta": 1345,
      "fal": 1346,
      "gangen": 1347,
      "zehn": 1348,
      "Bi": 1349,
      "dung": 1350,
      "dre": 1351,
      "genommen": 1352,
      "100": 1353,
      "Bau": 1354,
      "blei": 1355,
      "suchen": 1356,
      "fragen": 1357,
      "heiten": 1358,
      "unserem": 1359,
      "genug": 1360,
      "sor": 1361,
      "braucht": 1362,
      "Leu": 1363,
      "erzahl": 1364,
      "richtig": 1365,
      "zug": 1366,
      "dessen": 1367,
      "Ideen": 1368,
      "tag": 1369,
      "verk": 1370,
      "nachsten": 1371,
      "Gegen": 1372,
      "zentr": 1373,
      "begann": 1374,
      "Selbst": 1375,
      "rieg": 1376,
      "chmal": 1377,
      "zess": 1378,
      "fre": 1379,
      "isten": 1380,
      "bisschen": 1381,
      "Forsch": 1382,
      "hung": 1383,
      "seinen": 1384,
      "zer": 1385,
      "Res": 1386,
      "jahr": 1387,
      "verandern": 1388,
      "Fah": 1389,
      "Schw": 1390,
      "New": 1391,
      "gehort": 1392,
      "haupt": 1393,
      "USA": 1394,
      "Dar": 1395,
      "mass": 1396,
      "ums": 1397,
      "ungefahr": 1398,
      "Mater": 1399,
      "welch": 1400,
      "igkeiten": 1401,
      "ks": 1402,
      "Kopf": 1403,
      "bevor": 1404,
      "Fe": 1405,
      "aun": 1406,
      "bau": 1407,
      "euch": 1408,
      "Geschichten": 1409,
      "Schule": 1410,
      "Am": 1411,
      "Zus": 1412,
      "uhr": 1413,
      "asse": 1414,
      "Nicht": 1415,
      "onen": 1416,
      "gramm": 1417,
      "win": 1418,
      "Exper": 1419,
      "Br": 1420,
      "raum": 1421,
      "Di": 1422,
      "gleichen": 1423,
      "Con": 1424,
      "jede": 1425,
      "Planeten": 1426,
      "To": 1427,
      "mun": 1428,
      "licht": 1429,
      "chs": 1430,
      "Erfahr": 1431,
      "Informationen": 1432,
      "Fur": 1433,
      "gewohn": 1434,
      "itu": 1435,
      "grossart": 1436,
      "Arten": 1437,
      "ritt": 1438,
      "normal": 1439,
      "Lin": 1440,
      "Unternehmen": 1441,
      "bil": 1442,
      "bi": 1443,
      "bit": 1444,
      "bekann": 1445,
      "ktiv": 1446,
      "entwickelt": 1447,
      "Fl": 1448,
      "kre": 1449,
      "hinter": 1450,
      "ihrem": 1451,
      "Ma": 1452,
      "Sy": 1453,
      "min": 1454,
      "tie": 1455,
      "Afrika": 1456,
      "falls": 1457,
      "seinem": 1458,
      "Mod": 1459,
      "Leuten": 1460,
      "itzen": 1461,
      "ome": 1462,
      "Punkt": 1463,
      "reden": 1464,
      "frag": 1465,
      "ere": 1466,
      "Chin": 1467,
      "oben": 1468,
      "Fragen": 1469,
      "walt": 1470,
      "ende": 1471,
      "stab": 1472,
      "Gebau": 1473,
      "Antwort": 1474,
      "entde": 1475,
      "ubl": 1476,
      "uberall": 1477,
      "tell": 1478,
      "teilen": 1479,
      "Milliarden": 1480,
      "one": 1481,
      "Wirtschaft": 1482,
      "ity": 1483,
      "findet": 1484,
      "arbeitet": 1485,
      "Schl": 1486,
      "darum": 1487,
      "kamen": 1488,
      "hundert": 1489,
      "standen": 1490,
      "Gluck": 1491,
      "richten": 1492,
      "sagten": 1493,
      "Madchen": 1494,
      "Bet": 1495,
      "gesam": 1496,
      "Gross": 1497,
      "Meine": 1498,
      "Gott": 1499,
      "schau": 1500,
      "erkennen": 1501,
      "wirtschaft": 1502,
      "Manner": 1503,
      "fte": 1504,
      "ilfe": 1505,
      "Netz": 1506,
      "offen": 1507,
      "fand": 1508,
      "alis": 1509,
      "nennen": 1510,
      "All": 1511,
      "Ang": 1512,
      "Grunde": 1513,
      "Video": 1514,
      "fas": 1515,
      "polit": 1516,
      "ure": 1517,
      "15": 1518,
      "schwier": 1519,
      "immt": 1520,
      "nahmen": 1521,
      "zept": 1522,
      "mar": 1523,
      "izin": 1524,
      "Dieses": 1525,
      "lasst": 1526,
      "machte": 1527,
      "anderes": 1528,
      "Auto": 1529,
      "sche": 1530,
      "eren": 1531,
      "Far": 1532,
      "co": 1533,
      "Ste": 1534,
      "kor": 1535,
      "mag": 1536,
      "Vater": 1537,
      "Ur": 1538,
      "itz": 1539,
      "leb": 1540,
      "Minuten": 1541,
      "Zusammen": 1542,
      "Co": 1543,
      "Nein": 1544,
      "pen": 1545,
      "uren": 1546,
      "Indien": 1547,
      "Zwei": 1548,
      "aren": 1549,
      "sych": 1550,
      "han": 1551,
      "bereits": 1552,
      "ager": 1553,
      "gabe": 1554,
      "gluck": 1555,
      "Macht": 1556,
      "Stuck": 1557,
      "Gesellschaft": 1558,
      "Wo": 1559,
      "Bilder": 1560,
      "Richt": 1561,
      "ont": 1562,
      "wissenschaft": 1563,
      "Entschei": 1564,
      "Film": 1565,
      "benutzen": 1566,
      "Robo": 1567,
      "Verhalten": 1568,
      "Krank": 1569,
      "indung": 1570,
      "Beweg": 1571,
      "besonders": 1572,
      "ust": 1573,
      "spe": 1574,
      "sslich": 1575,
      "Familie": 1576,
      "erreichen": 1577,
      "bewegen": 1578,
      "Wort": 1579,
      "bild": 1580,
      "eig": 1581,
      "orden": 1582,
      "euer": 1583,
      "bare": 1584,
      "Bru": 1585,
      "Fir": 1586,
      "dah": 1587,
      "lossen": 1588,
      "verschiedene": 1589,
      "raf": 1590,
      "namens": 1591,
      "dest": 1592,
      "ienten": 1593,
      "amer": 1594,
      "gerne": 1595,
      "Kur": 1596,
      "setz": 1597,
      "affen": 1598,
      "Ol": 1599,
      "darin": 1600,
      "echt": 1601,
      "Flug": 1602,
      "geln": 1603,
      "ology": 1604,
      "Gruppe": 1605,
      "auszu": 1606,
      "dau": 1607,
      "hl": 1608,
      "gefunden": 1609,
      "Lei": 1610,
      "akter": 1611,
      "Sich": 1612,
      "person": 1613,
      "mo": 1614,
      "gebr": 1615,
      "Organis": 1616,
      "Sprache": 1617,
      "Ander": 1618,
      "entwickeln": 1619,
      "Weil": 1620,
      "einigen": 1621,
      "treffen": 1622,
      "Fol": 1623,
      "Herz": 1624,
      "Kultur": 1625,
      "Masch": 1626,
      "Ergeb": 1627,
      "tat": 1628,
      "auss": 1629,
      "Oh": 1630,
      "Oder": 1631,
      "ub": 1632,
      "erwar": 1633,
      "rom": 1634,
      "Luft": 1635,
      "Dem": 1636,
      "griff": 1637,
      "punkt": 1638,
      "Gefuhl": 1639,
      "Doch": 1640,
      "fert": 1641,
      "fuhlen": 1642,
      "Eltern": 1643,
      "Vielleicht": 1644,
      "ium": 1645,
      "to": 1646,
      "cke": 1647,
      "jedem": 1648,
      "ries": 1649,
      "Em": 1650,
      "alte": 1651,
      "leg": 1652,
      "ull": 1653,
      "Ko": 1654,
      "Arch": 1655,
      "sechs": 1656,
      "Unser": 1657,
      "Gener": 1658,
      "Angst": 1659,
      "sage": 1660,
      "Vortrag": 1661,
      "Gedan": 1662,
      "rieben": 1663,
      "ase": 1664,
      "Durch": 1665,
      "zin": 1666,
      "une": 1667,
      "genann": 1668,
      "vorher": 1669,
      "th": 1670,
      "taus": 1671,
      "ausge": 1672,
      "scheiden": 1673,
      "mussten": 1674,
      "kraft": 1675,
      "Roboter": 1676,
      "Chr": 1677,
      "Stunden": 1678,
      "iken": 1679,
      "gebaut": 1680,
      "esse": 1681,
      "feren": 1682,
      "Eigen": 1683,
      "ieht": 1684,
      "tragen": 1685,
      "achst": 1686,
      "werk": 1687,
      "ings": 1688,
      "ublik": 1689,
      "reg": 1690,
      "Regierung": 1691,
      "dru": 1692,
      "fern": 1693,
      "bemer": 1694,
      "erhalten": 1695,
      "besten": 1696,
      "vorstellen": 1697,
      "Moglichkeit": 1698,
      "pfen": 1699,
      "urop": 1700,
      "abor": 1701,
      "40": 1702,
      "rate": 1703,
      "dur": 1704,
      "iet": 1705,
      "ziel": 1706,
      "irgendwie": 1707,
      "enden": 1708,
      "tem": 1709,
      "lebt": 1710,
      "verschiedenen": 1711,
      "ranken": 1712,
      "Sicher": 1713,
      "Mat": 1714,
      "menschlichen": 1715,
      "Okay": 1716,
      "okrat": 1717,
      "Bereich": 1718,
      "Freund": 1719,
      "Ruck": 1720,
      "if": 1721,
      "bestimm": 1722,
      "Verander": 1723,
      "Werk": 1724,
      "He": 1725,
      "Sol": 1726,
      "zieren": 1727,
      "hemat": 1728,
      "Yor": 1729,
      "Patienten": 1730,
      "ha": 1731,
      "Sau": 1732,
      "manchmal": 1733,
      "gaben": 1734,
      "Neu": 1735,
      "umm": 1736,
      "bringt": 1737,
      "samm": 1738,
      "verwenden": 1739,
      "Sinn": 1740,
      "wusste": 1741,
      "ank": 1742,
      "Kindern": 1743,
      "unterschied": 1744,
      "einzige": 1745,
      "Bab": 1746,
      "Fahr": 1747,
      "versch": 1748,
      "vest": 1749,
      "aktion": 1750,
      "Gesicht": 1751,
      "Part": 1752,
      "haus": 1753,
      "Sachen": 1754,
      "ian": 1755,
      "Stim": 1756,
      "beiden": 1757,
      "heut": 1758,
      "wollten": 1759,
      "Krebs": 1760,
      "Gebaude": 1761,
      "ucht": 1762,
      "reifen": 1763,
      "eher": 1764,
      "laufen": 1765,
      "ikro": 1766,
      "Hause": 1767,
      "chte": 1768,
      "verandert": 1769,
      "baren": 1770,
      "NA": 1771,
      "bie": 1772,
      "Bezie": 1773,
      "Krieg": 1774,
      "Po": 1775,
      "zustellen": 1776,
      "neh": 1777,
      "getan": 1778,
      "gemeinsam": 1779,
      "Ha": 1780,
      "dacht": 1781,
      "inen": 1782,
      "namlich": 1783,
      "hiel": 1784,
      "ograf": 1785,
      "18": 1786,
      "Bes": 1787,
      "Meer": 1788,
      "innerhalb": 1789,
      "stens": 1790,
      "stellte": 1791,
      "schliesslich": 1792,
      "Pol": 1793,
      "omen": 1794,
      "sk": 1795,
      "Publik": 1796,
      "jeman": 1797,
      "buch": 1798,
      "Umwelt": 1799,
      "Fun": 1800,
      "Gleich": 1801,
      "beginnen": 1802,
      "einzel": 1803,
      "gebracht": 1804,
      "Na": 1805,
      "mat": 1806,
      "merk": 1807,
      "60": 1808,
      "Lehrer": 1809,
      "schreiben": 1810,
      "tens": 1811,
      "unglaublich": 1812,
      "tu": 1813,
      "zahlen": 1814,
      "erklar": 1815,
      "nimmt": 1816,
      "erweise": 1817,
      "aufzu": 1818,
      "standig": 1819,
      "Ziel": 1820,
      "Lander": 1821,
      "reicht": 1822,
      "Dieser": 1823,
      "uropa": 1824,
      "ald": 1825,
      "kennt": 1826,
      "ain": 1827,
      "rot": 1828,
      "ument": 1829,
      "Anfang": 1830,
      "eins": 1831,
      "gegeben": 1832,
      "Universum": 1833,
      "Material": 1834,
      "Pap": 1835,
      "beob": 1836,
      "Wirk": 1837,
      "Conferen": 1838,
      "Conference": 1839,
      "fluss": 1840,
      "ipp": 1841,
      "wasser": 1842,
      "spir": 1843,
      "Heraus": 1844,
      "Ho": 1845,
      "fah": 1846,
      "enzen": 1847,
      "denten": 1848,
      "bewusst": 1849,
      "Nahr": 1850,
      "Entwicklung": 1851,
      "par": 1852,
      "rieb": 1853,
      "versucht": 1854,
      "Essen": 1855,
      "zwar": 1856,
      "scheint": 1857,
      "ative": 1858,
      "uberhaupt": 1859,
      "kehr": 1860,
      "bet": 1861,
      "Rest": 1862,
      "plan": 1863,
      "Prozess": 1864,
      "Experim": 1865,
      "amerikan": 1866,
      "arm": 1867,
      "afte": 1868,
      "mogen": 1869,
      "pe": 1870,
      "wart": 1871,
      "blick": 1872,
      "volker": 1873,
      "Dam": 1874,
      "lauf": 1875,
      "onnen": 1876,
      "kleiner": 1877,
      "igten": 1878,
      "lieben": 1879,
      "sterben": 1880,
      "Lage": 1881,
      "ron": 1882,
      "Spe": 1883,
      "China": 1884,
      "Go": 1885,
      "orie": 1886,
      "lern": 1887,
      "met": 1888,
      "anten": 1889,
      "deren": 1890,
      "arten": 1891,
      "nahme": 1892,
      "Ober": 1893,
      "ffekt": 1894,
      "fanden": 1895,
      "ib": 1896,
      "ersch": 1897,
      "els": 1898,
      "Erfahrung": 1899,
      "Herausforder": 1900,
      "haft": 1901,
      "ante": 1902,
      "med": 1903,
      "ful": 1904,
      "allem": 1905,
      "Eis": 1906,
      "Frei": 1907,
      "Nacht": 1908,
      "lesen": 1909,
      "Stellen": 1910,
      "ivi": 1911,
      "nachste": 1912,
      "erzeu": 1913,
      "icken": 1914,
      "spricht": 1915,
      "falsch": 1916,
      "Tier": 1917,
      "ca": 1918,
      "eg": 1919,
      "erlau": 1920,
      "trag": 1921,
      "Geschaft": 1922,
      "erstaun": 1923,
      "Kap": 1924,
      "ala": 1925,
      "Mittel": 1926,
      "nahm": 1927,
      "Publikum": 1928,
      "bekam": 1929,
      "Wochen": 1930,
      "ve": 1931,
      "Team": 1932,
      "abhang": 1933,
      "Inst": 1934,
      "ations": 1935,
      "heim": 1936,
      "Klim": 1937,
      "Sicherheit": 1938,
      "nutz": 1939,
      "arbeit": 1940,
      "fug": 1941,
      "dungen": 1942,
      "teten": 1943,
      "ital": 1944,
      "otz": 1945,
      "Situ": 1946,
      "Zum": 1947,
      "aktiv": 1948,
      "elten": 1949,
      "Tages": 1950,
      "hema": 1951,
      "Hilfe": 1952,
      "elig": 1953,
      "flache": 1954,
      "Haupt": 1955,
      "moglichen": 1956,
      "bed": 1957,
      "menschliche": 1958,
      "gefuhl": 1959,
      "innern": 1960,
      "80": 1961,
      "Tiere": 1962,
      "interessant": 1963,
      "err": 1964,
      "lanzen": 1965,
      "global": 1966,
      "12": 1967,
      "vis": 1968,
      "ausch": 1969,
      "langsam": 1970,
      "Sk": 1971,
      "ow": 1972,
      "unten": 1973,
      "design": 1974,
      "iziert": 1975,
      "Freunde": 1976,
      "umen": 1977,
      "Dingen": 1978,
      "Denken": 1979,
      "rum": 1980,
      "ational": 1981,
      "asst": 1982,
      "Ist": 1983,
      "hoff": 1984,
      "inger": 1985,
      "bald": 1986,
      "uf": 1987,
      "atten": 1988,
      "atze": 1989,
      "Jo": 1990,
      "eigene": 1991,
      "Polit": 1992,
      "Sa": 1993,
      "Struktur": 1994,
      "Markt": 1995,
      "tut": 1996,
      "dun": 1997,
      "rieden": 1998,
      "weitere": 1999,
      "Boden": 2000,
      "gleiche": 2001,
      "grosste": 2002,
      "bleiben": 2003,
      "not": 2004,
      "stark": 2005,
      "Wur": 2006,
      "langen": 2007,
      "ku": 2008,
      "meines": 2009,
      "ct": 2010,
      "ven": 2011,
      "hervor": 2012,
      "schliessen": 2013,
      "direkt": 2014,
      "Lassen": 2015,
      "Typ": 2016,
      "sa": 2017,
      "Alter": 2018,
      "Moglichkeiten": 2019,
      "itze": 2020,
      "Inn": 2021,
      "Gedanken": 2022,
      "Archite": 2023,
      "drau": 2024,
      "letzte": 2025,
      "achtet": 2026,
      "spiele": 2027,
      "rakt": 2028,
      "exist": 2029,
      "Grosse": 2030,
      "Elekt": 2031,
      "elte": 2032,
      "Verein": 2033,
      "York": 2034,
      "ologien": 2035,
      "Unterschied": 2036,
      "ysteme": 2037,
      "treten": 2038,
      "antwort": 2039,
      "Gol": 2040,
      "Job": 2041,
      "behand": 2042,
      "spro": 2043,
      "worden": 2044,
      "weisen": 2045,
      "troll": 2046,
      "Oze": 2047,
      "fliegen": 2048,
      "kaufen": 2049,
      "line": 2050,
      "aben": 2051,
      "fragt": 2052,
      "langer": 2053,
      "Losung": 2054,
      "Hal": 2055,
      "Ster": 2056,
      "mann": 2057,
      "gefuhrt": 2058,
      "innt": 2059,
      "antwor": 2060,
      "Neur": 2061,
      "zogen": 2062,
      "jedoch": 2063,
      "vollig": 2064,
      "gesetzt": 2065,
      "izieren": 2066,
      "ritte": 2067,
      "Thema": 2068,
      "isk": 2069,
      "Komp": 2070,
      "Mil": 2071,
      "Zahl": 2072,
      "hoh": 2073,
      "tot": 2074,
      "eitet": 2075,
      "absol": 2076,
      "Kont": 2077,
      "solche": 2078,
      "Modell": 2079,
      "krank": 2080,
      "Staaten": 2081,
      "fragte": 2082,
      "etten": 2083,
      "afen": 2084,
      "Kraft": 2085,
      "Wand": 2086,
      "lungs": 2087,
      "schnitt": 2088,
      "Mikro": 2089,
      "obwohl": 2090,
      "ummer": 2091,
      "liebe": 2092,
      "Sek": 2093,
      "Erfolg": 2094,
      "niemand": 2095,
      "teilt": 2096,
      "Tage": 2097,
      "Schluss": 2098,
      "otzlich": 2099,
      "draussen": 2100,
      "Prin": 2101,
      "glob": 2102,
      "uer": 2103,
      "erinner": 2104,
      "damals": 2105,
      "anderer": 2106,
      "zip": 2107,
      "Char": 2108,
      "komplex": 2109,
      "Bewegung": 2110,
      "Wahl": 2111,
      "fallen": 2112,
      "stet": 2113,
      "ience": 2114,
      "Liebe": 2115,
      "Woche": 2116,
      "Kranken": 2117,
      "sollen": 2118,
      "verbesser": 2119,
      "entscheiden": 2120,
      "Dor": 2121,
      "bas": 2122,
      "fel": 2123,
      "betrachten": 2124,
      "telligen": 2125,
      "besteht": 2126,
      "uberras": 2127,
      "bung": 2128,
      "hil": 2129,
      "einzu": 2130,
      "funktionieren": 2131,
      "Labor": 2132,
      "jung": 2133,
      "selben": 2134,
      "Bildung": 2135,
      "ikaner": 2136,
      "unsch": 2137,
      "Programm": 2138,
      "Vir": 2139,
      "agieren": 2140,
      "werfen": 2141,
      "Viele": 2142,
      "Dr": 2143,
      "Fern": 2144,
      "Is": 2145,
      "opp": 2146,
      "genauso": 2147,
      "pras": 2148,
      "Innov": 2149,
      "atzen": 2150,
      "itiv": 2151,
      "jekte": 2152,
      "Wissenschaftler": 2153,
      "tief": 2154,
      "ace": 2155,
      "ient": 2156,
      "lt": 2157,
      "mor": 2158,
      "wann": 2159,
      "gefahr": 2160,
      "bene": 2161,
      "benot": 2162,
      "gebung": 2163,
      "zeuge": 2164,
      "Landern": 2165,
      "zuvor": 2166,
      "Monate": 2167,
      "komplet": 2168,
      "Namen": 2169,
      "Engl": 2170,
      "gelernt": 2171,
      "setzt": 2172,
      "sieben": 2173,
      "spekt": 2174,
      "Tat": 2175,
      "legt": 2176,
      "technology": 2177,
      "cen": 2178,
      "nt": 2179,
      "stie": 2180,
      "verbunden": 2181,
      "drucken": 2182,
      "Sehen": 2183,
      "falt": 2184,
      "urt": 2185,
      "schwierig": 2186,
      "inne": 2187,
      "arr": 2188,
      "Stand": 2189,
      "Familien": 2190,
      "urs": 2191,
      "reibt": 2192,
      "loss": 2193,
      "forsch": 2194,
      "Tats": 2195,
      "fassen": 2196,
      "Ihren": 2197,
      "Nor": 2198,
      "samkeit": 2199,
      "schlecht": 2200,
      "schwar": 2201,
      "Versuch": 2202,
      "unseres": 2203,
      "geboren": 2204,
      "grossten": 2205,
      "Wert": 2206,
      "ifft": 2207,
      "kosten": 2208,
      "Fuhr": 2209,
      "rain": 2210,
      "wesen": 2211,
      "ichte": 2212,
      "sehe": 2213,
      "Gemeinschaft": 2214,
      "entf": 2215,
      "CA": 2216,
      "Tur": 2217,
      "wohn": 2218,
      "stad": 2219,
      "tert": 2220,
      "Bedeut": 2221,
      "Autos": 2222,
      "Fahigkeit": 2223,
      "ond": 2224,
      "ikal": 2225,
      "hoher": 2226,
      "bitte": 2227,
      "ock": 2228,
      "pos": 2229,
      "zweite": 2230,
      "Technologien": 2231,
      "welches": 2232,
      "Mass": 2233,
      "oss": 2234,
      "trotz": 2235,
      "Blick": 2236,
      "Metho": 2237,
      "unehmen": 2238,
      "ober": 2239,
      "herauszu": 2240,
      "Sym": 2241,
      "Zellen": 2242,
      "Ozean": 2243,
      "Gut": 2244,
      "Ku": 2245,
      "erfolg": 2246,
      "erzahlt": 2247,
      "gern": 2248,
      "moder": 2249,
      "gewesen": 2250,
      "erw": 2251,
      "lagen": 2252,
      "messen": 2253,
      "erschaffen": 2254,
      "rift": 2255,
      "Technik": 2256,
      "eng": 2257,
      "Fort": 2258,
      "La": 2259,
      "trie": 2260,
      "Medien": 2261,
      "stimmt": 2262,
      "Muster": 2263,
      "Klima": 2264,
      "Hin": 2265,
      "Heute": 2266,
      "Pras": 2267,
      "auber": 2268,
      "ohlen": 2269,
      "prochen": 2270,
      "Verbindung": 2271,
      "Fuss": 2272,
      "hast": 2273,
      "vent": 2274,
      "erinnern": 2275,
      "elbe": 2276,
      "igung": 2277,
      "glucklich": 2278,
      "Vo": 2279,
      "mochten": 2280,
      "beeinf": 2281,
      "sph": 2282,
      "ensicht": 2283,
      "gegenuber": 2284,
      "90": 2285,
      "Schritt": 2286,
      "Naturlich": 2287,
      "imp": 2288,
      "uche": 2289,
      "weder": 2290,
      "Studenten": 2291,
      "Reihe": 2292,
      "Burger": 2293,
      "volkerung": 2294,
      "fallt": 2295,
      "Test": 2296,
      "la": 2297,
      "25": 2298,
      "ident": 2299,
      "konzentr": 2300,
      "ienen": 2301,
      "lust": 2302,
      "gewalt": 2303,
      "utzung": 2304,
      "Strassen": 2305,
      "organis": 2306,
      "Jeder": 2307,
      "Forschung": 2308,
      "hler": 2309,
      "aussehen": 2310,
      "phys": 2311,
      "offentlich": 2312,
      "Unsere": 2313,
      "Hei": 2314,
      "ehr": 2315,
      "ament": 2316,
      "trauen": 2317,
      "Mot": 2318,
      "Vol": 2319,
      "passen": 2320,
      "emp": 2321,
      "unterst": 2322,
      "olz": 2323,
      "jemals": 2324,
      "Alle": 2325,
      "Alles": 2326,
      "zeige": 2327,
      "sprach": 2328,
      "wes": 2329,
      "iko": 2330,
      "brachte": 2331,
      "geworden": 2332,
      "Gewalt": 2333,
      "Verstand": 2334,
      "Platz": 2335,
      "erklaren": 2336,
      "prasent": 2337,
      "Fru": 2338,
      "Tr": 2339,
      "Jahrhundert": 2340,
      "Wahrheit": 2341,
      "bekannt": 2342,
      "Zent": 2343,
      "verschw": 2344,
      "raph": 2345,
      "Kamer": 2346,
      "Hoff": 2347,
      "chten": 2348,
      "mache": 2349,
      "passieren": 2350,
      "ubr": 2351,
      "verbin": 2352,
      "weis": 2353,
      "Mag": 2354,
      "Tele": 2355,
      "ore": 2356,
      "Recht": 2357,
      "holen": 2358,
      "ativen": 2359,
      "bist": 2360,
      "tage": 2361,
      "rasse": 2362,
      "Ris": 2363,
      "kleines": 2364,
      "beginnt": 2365,
      "ics": 2366,
      "Mathemat": 2367,
      "anfangen": 2368,
      "miteinander": 2369,
      "Tatsache": 2370,
      "gessen": 2371,
      "sonst": 2372,
      "sucht": 2373,
      "Ju": 2374,
      "gingen": 2375,
      "kn": 2376,
      "stre": 2377,
      "verstand": 2378,
      "dlich": 2379,
      "stes": 2380,
      "ator": 2381,
      "genie": 2382,
      "bilden": 2383,
      "11": 2384,
      "Europa": 2385,
      "daraus": 2386,
      "fuhle": 2387,
      "Richtung": 2388,
      "Krankheit": 2389,
      "schrieb": 2390,
      "itaten": 2391,
      "deshalb": 2392,
      "nachdem": 2393,
      "Blut": 2394,
      "verloren": 2395,
      "Situation": 2396,
      "Aktiv": 2397,
      "system": 2398,
      "elekt": 2399,
      "verwendet": 2400,
      "Medik": 2401,
      "struktur": 2402,
      "Anzahl": 2403,
      "hinaus": 2404,
      "letzt": 2405,
      "Aben": 2406,
      "Sicht": 2407,
      "zellen": 2408,
      "aur": 2409,
      "denkt": 2410,
      "bekommt": 2411,
      "Dro": 2412,
      "ichtet": 2413,
      "stat": 2414,
      "ime": 2415,
      "neben": 2416,
      "Reise": 2417,
      "Strasse": 2418,
      "uberzeu": 2419,
      "natur": 2420,
      "verwand": 2421,
      "kontroll": 2422,
      "ahe": 2423,
      "zeig": 2424,
      "Stimme": 2425,
      "DNA": 2426,
      "John": 2427,
      "blau": 2428,
      "ance": 2429,
      "gezeigt": 2430,
      "liessen": 2431,
      "hinein": 2432,
      "plotzlich": 2433,
      "danach": 2434,
      "Besch": 2435,
      "Tatsachlich": 2436,
      "fon": 2437,
      "sitzen": 2438,
      "Ihrem": 2439,
      "beschaft": 2440,
      "Wahrend": 2441,
      "Ru": 2442,
      "genannt": 2443,
      "Teile": 2444,
      "schluss": 2445,
      "sour": 2446,
      "nachzu": 2447,
      "faszin": 2448,
      "70": 2449,
      "Rat": 2450,
      "verste": 2451,
      "Beg": 2452,
      "ividu": 2453,
      "ennen": 2454,
      "Stat": 2455,
      "Einige": 2456,
      "perfe": 2457,
      "Aufgabe": 2458,
      "Bedeutung": 2459,
      "amp": 2460,
      "stelle": 2461,
      "klein": 2462,
      "lieb": 2463,
      "Ihrer": 2464,
      "zeitig": 2465,
      "radition": 2466,
      "no": 2467,
      "isse": 2468,
      "geschrieben": 2469,
      "Umgebung": 2470,
      "Kunstler": 2471,
      "itar": 2472,
      "benutzt": 2473,
      "reck": 2474,
      "trolle": 2475,
      "seln": 2476,
      "Genau": 2477,
      "Fin": 2478,
      "guten": 2479,
      "itel": 2480,
      "na": 2481,
      "iste": 2482,
      "gesp": 2483,
      "Bel": 2484,
      "Sc": 2485,
      "beste": 2486,
      "Foto": 2487,
      "Nie": 2488,
      "eister": 2489,
      "Vorstellung": 2490,
      "Instit": 2491,
      "fil": 2492,
      "Schwe": 2493,
      "ossen": 2494,
      "zerst": 2495,
      "aler": 2496,
      "Sonnen": 2497,
      "Deshalb": 2498,
      "App": 2499,
      "bewe": 2500,
      "entfernt": 2501,
      "Do": 2502,
      "fing": 2503,
      "mod": 2504,
      "sinn": 2505,
      "Entwicklungs": 2506,
      "Demokrat": 2507,
      "sofort": 2508,
      "liess": 2509,
      "sorg": 2510,
      "Veranderung": 2511,
      "Rolle": 2512,
      "iten": 2513,
      "Schon": 2514,
      "Arm": 2515,
      "ame": 2516,
      "machten": 2517,
      "eller": 2518,
      "ssystem": 2519,
      "imens": 2520,
      "Dav": 2521,
      "Phys": 2522,
      "Amerika": 2523,
      "egal": 2524,
      "gesprochen": 2525,
      "soziale": 2526,
      "erfolgreich": 2527,
      "Preis": 2528,
      "niemals": 2529,
      "Information": 2530,
      "uchen": 2531,
      "lage": 2532,
      "unkte": 2533,
      "stuck": 2534,
      "ierungen": 2535,
      "Strom": 2536,
      "nachdenken": 2537,
      "Maschine": 2538,
      "Generation": 2539,
      "Herausforderung": 2540,
      "hoffe": 2541,
      "Tod": 2542,
      "verruck": 2543,
      "Ind": 2544,
      "voller": 2545,
      "cultur": 2546,
      "erv": 2547,
      "zutage": 2548,
      "rop": 2549,
      "wussten": 2550,
      "weltweit": 2551,
      "Medizin": 2552,
      "hielt": 2553,
      "komplett": 2554,
      "ften": 2555,
      "raus": 2556,
      "gekommen": 2557,
      "beide": 2558,
      "neues": 2559,
      "Mitgefuhl": 2560,
      "Kolle": 2561,
      "iness": 2562,
      "Halfte": 2563,
      "Prinzip": 2564,
      "erreicht": 2565,
      "offensicht": 2566,
      "Papier": 2567,
      "bein": 2568,
      "usse": 2569,
      "Geist": 2570,
      "Hoch": 2571,
      "Rad": 2572,
      "David": 2573,
      "Wachst": 2574,
      "fant": 2575,
      "of": 2576,
      "ese": 2577,
      "Meinung": 2578,
      "Erd": 2579,
      "Chem": 2580,
      "extre": 2581,
      "Wohl": 2582,
      "ktor": 2583,
      "Phil": 2584,
      "Bewusst": 2585,
      "Nachrichten": 2586,
      "Studie": 2587,
      "Entscheidungen": 2588,
      "Goog": 2589,
      "culture": 2590,
      "Zahlen": 2591,
      "kul": 2592,
      "Mitte": 2593,
      "schlagen": 2594,
      "Fahigkeiten": 2595,
      "jemanden": 2596,
      "Fluss": 2597,
      "Zeu": 2598,
      "toll": 2599,
      "anal": 2600,
      "vers": 2601,
      "einfache": 2602,
      "ritten": 2603,
      "bestimmt": 2604,
      "Druck": 2605,
      "ile": 2606,
      "zunehmen": 2607,
      "gebe": 2608,
      "ffiz": 2609,
      "ierend": 2610,
      "Ding": 2611,
      "kop": 2612,
      "ansp": 2613,
      "ftware": 2614,
      "app": 2615,
      "sphare": 2616,
      "Hinter": 2617,
      "sex": 2618,
      "wider": 2619,
      "Firma": 2620,
      "kauf": 2621,
      "wind": 2622,
      "ister": 2623,
      "istan": 2624,
      "Arz": 2625,
      "wenden": 2626,
      "science": 2627,
      "Kosten": 2628,
      "Bakter": 2629,
      "Kil": 2630,
      "lok": 2631,
      "Revolution": 2632,
      "Bucher": 2633,
      "absolut": 2634,
      "abzu": 2635,
      "Einz": 2636,
      "lose": 2637,
      "daher": 2638,
      "OK": 2639,
      "schul": 2640,
      "defin": 2641,
      "schlag": 2642,
      "Hel": 2643,
      "vir": 2644,
      "finde": 2645,
      "stellten": 2646,
      "Car": 2647,
      "Sh": 2648,
      "lauft": 2649,
      "psych": 2650,
      "ina": 2651,
      "hinzu": 2652,
      "TEDx": 2653,
      "zial": 2654,
      "Stadte": 2655,
      "jenigen": 2656,
      "Et": 2657,
      "Von": 2658,
      "dachten": 2659,
      "Schauen": 2660,
      "Bed": 2661,
      "geschieht": 2662,
      "Super": 2663,
      "Kat": 2664,
      "Nur": 2665,
      "Psych": 2666,
      "ana": 2667,
      "nennt": 2668,
      "allein": 2669,
      "Arbeits": 2670,
      "bedeuten": 2671,
      "nehmer": 2672,
      "Experiment": 2673,
      "medizin": 2674,
      "Politik": 2675,
      "Evolution": 2676,
      "nein": 2677,
      "Ton": 2678,
      "digen": 2679,
      "inspir": 2680,
      "gearbeitet": 2681,
      "befinden": 2682,
      "aufge": 2683,
      "Realitat": 2684,
      "Gesundheits": 2685,
      "!\"": 2686,
      "Tro": 2687,
      "daten": 2688,
      "amme": 2689,
      "habt": 2690,
      "isst": 2691,
      "Indu": 2692,
      "interessiert": 2693,
      "Kommun": 2694,
      "wichtiger": 2695,
      "Sonne": 2696,
      "Fehler": 2697,
      "frage": 2698,
      "schneller": 2699,
      "Karte": 2700,
      "Tex": 2701,
      "hy": 2702,
      "tex": 2703,
      "sprung": 2704,
      "bildung": 2705,
      "lam": 2706,
      "lus": 2707,
      "ers": 2708,
      "bewer": 2709,
      "Schn": 2710,
      "ograph": 2711,
      "halte": 2712,
      "lussen": 2713,
      "Bill": 2714,
      "Hoh": 2715,
      "Wind": 2716,
      "az": 2717,
      "kunst": 2718,
      "komme": 2719,
      "herauszufinden": 2720,
      "Bewusstsein": 2721,
      "Google": 2722,
      "Zeich": 2723,
      "deck": 2724,
      "fahrt": 2725,
      "Mole": 2726,
      "Leiden": 2727,
      "Beziehung": 2728,
      "sahen": 2729,
      "Ben": 2730,
      "bus": 2731,
      "krei": 2732,
      "fruher": 2733,
      "Vereinigten": 2734,
      "kle": 2735,
      "gedacht": 2736,
      "issu": 2737,
      "Pe": 2738,
      "pfer": 2739,
      "sta": 2740,
      "steigen": 2741,
      "itzt": 2742,
      "Produkt": 2743,
      "gesamte": 2744,
      "bewegt": 2745,
      "Gruppen": 2746,
      "fach": 2747,
      "glie": 2748,
      "volle": 2749,
      "anstatt": 2750,
      "indungen": 2751,
      "kompl": 2752,
      "Ergebnis": 2753,
      "HI": 2754,
      "Hir": 2755,
      "hungen": 2756,
      "erkann": 2757,
      "began": 2758,
      "ahnlich": 2759,
      "Glau": 2760,
      "oso": 2761,
      "fuhrte": 2762,
      "ikation": 2763,
      "anges": 2764,
      "leist": 2765,
      "Pflanzen": 2766,
      "ernst": 2767,
      "Jahrzehn": 2768,
      "Behand": 2769,
      "finanz": 2770,
      "Wieder": 2771,
      "Dorf": 2772,
      "schaut": 2773,
      "beru": 2774,
      "Erinner": 2775,
      "Regeln": 2776,
      "Auswirk": 2777,
      "Hoffnung": 2778,
      "Ahn": 2779,
      "bur": 2780,
      "ix": 2781,
      "junge": 2782,
      "kultur": 2783,
      "uelle": 2784,
      "yn": 2785,
      "enor": 2786,
      "mente": 2787,
      "schieden": 2788,
      "zeichnet": 2789,
      "Chris": 2790,
      "Rau": 2791,
      "lag": 2792,
      "ologen": 2793,
      "brit": 2794,
      "Schulen": 2795,
      "offentlichen": 2796,
      "wichtige": 2797,
      "merksamkeit": 2798,
      "Vogel": 2799,
      "ziert": 2800,
      "darf": 2801,
      "Software": 2802,
      "irgendwo": 2803,
      "issues": 2804,
      "Seiten": 2805,
      "lungen": 2806,
      "tler": 2807,
      "dete": 2808,
      "verurs": 2809,
      "Einfluss": 2810,
      "dienen": 2811,
      "Oberflache": 2812,
      "begannen": 2813,
      "ift": 2814,
      "iegel": 2815,
      "Regen": 2816,
      "Spass": 2817,
      "Aufmerksamkeit": 2818,
      "zahlt": 2819,
      "stern": 2820,
      "testen": 2821,
      "ette": 2822,
      "Meter": 2823,
      "Lauf": 2824,
      "go": 2825,
      "invest": 2826,
      "rufen": 2827,
      "Gel": 2828,
      "fess": 2829,
      "ikel": 2830,
      "formen": 2831,
      "Kop": 2832,
      "Loch": 2833,
      "hort": 2834,
      "res": 2835,
      "Kontrolle": 2836,
      "ama": 2837,
      "ail": 2838,
      "ilis": 2839,
      "uhne": 2840,
      "sozialen": 2841,
      "Off": 2842,
      "Th": 2843,
      "prakt": 2844,
      "schu": 2845,
      "igens": 2846,
      "gleichzeitig": 2847,
      "naher": 2848,
      "produzieren": 2849,
      "Menschheit": 2850,
      "Demokratie": 2851,
      "Bot": 2852,
      "gegangen": 2853,
      "Bevolkerung": 2854,
      "dy": 2855,
      "zuerst": 2856,
      "opt": 2857,
      "Not": 2858,
      "po": 2859,
      "ruf": 2860,
      "fordern": 2861,
      "Fortsch": 2862,
      "rein": 2863,
      "stande": 2864,
      "igte": 2865,
      "umor": 2866,
      "vorbei": 2867,
      "Zugang": 2868,
      "nahe": 2869,
      "Worter": 2870,
      "rechts": 2871,
      "Himm": 2872,
      "hauf": 2873,
      "intern": 2874,
      "ansehen": 2875,
      "ille": 2876,
      "nete": 2877,
      "eltsam": 2878,
      "Af": 2879,
      "Kn": 2880,
      "Mich": 2881,
      "Sohn": 2882,
      "indest": 2883,
      "anne": 2884,
      "stadt": 2885,
      "Miss": 2886,
      "brechen": 2887,
      "arch": 2888,
      "verlassen": 2889,
      "Reaktion": 2890,
      "arbeitete": 2891,
      "glaub": 2892,
      "Webs": 2893,
      "Studien": 2894,
      "grosses": 2895,
      "Baum": 2896,
      "Sand": 2897,
      "ihres": 2898,
      "Theorie": 2899,
      "500": 2900,
      "On": 2901,
      "afr": 2902,
      "Vers": 2903,
      "Jahrhunder": 2904,
      "wech": 2905,
      "passierte": 2906,
      "bleibt": 2907,
      "Ressour": 2908,
      "bestimmten": 2909,
      "sammeln": 2910,
      "moral": 2911,
      "Fisch": 2912,
      "ath": 2913,
      "begr": 2914,
      "rise": 2915,
      "Gesetz": 2916,
      "Sex": 2917,
      "wachst": 2918,
      "fantast": 2919,
      "Auch": 2920,
      "ines": 2921,
      "Armut": 2922,
      "gewinnen": 2923,
      "Funktion": 2924,
      "HIV": 2925,
      "Hig": 2926,
      "Vis": 2927,
      "greifen": 2928,
      "stud": 2929,
      "beweg": 2930,
      "Star": 2931,
      "Arbei": 2932,
      "Konzept": 2933,
      "zies": 2934,
      "tausende": 2935,
      ">>": 2936,
      "beobachten": 2937,
      "Terr": 2938,
      "abel": 2939,
      "illen": 2940,
      "Grenzen": 2941,
      "lost": 2942,
      "apan": 2943,
      "versuchte": 2944,
      "bemerken": 2945,
      "14": 2946,
      "Tri": 2947,
      "cher": 2948,
      "herap": 2949,
      "Orte": 2950,
      "zeichnen": 2951,
      "speziel": 2952,
      "Hu": 2953,
      "abge": 2954,
      "aher": 2955,
      "ierende": 2956,
      "folgt": 2957,
      "lasse": 2958,
      "feld": 2959,
      "ies": 2960,
      "Konnen": 2961,
      "einzelne": 2962,
      "alax": 2963,
      "16": 2964,
      "<<": 2965,
      "Hor": 2966,
      "schrei": 2967,
      "affe": 2968,
      "spielt": 2969,
      "Innovation": 2970,
      "wahl": 2971,
      "inge": 2972,
      "stein": 2973,
      "elegen": 2974,
      "Amerikaner": 2975,
      "Mathematik": 2976,
      "Morgen": 2977,
      "morgen": 2978,
      "omat": 2979,
      "ielle": 2980,
      "Ausser": 2981,
      "Mehr": 2982,
      "richtigen": 2983,
      "stieg": 2984,
      "Zeug": 2985,
      "Bro": 2986,
      "sum": 2987,
      "atter": 2988,
      "verstanden": 2989,
      "Ern": 2990,
      "richtige": 2991,
      "offensichtlich": 2992,
      "Mob": 2993,
      "krie": 2994,
      "bessere": 2995,
      "Universitat": 2996,
      "Kal": 2997,
      "My": 2998,
      "Eines": 2999,
      "ferenz": 3000,
      "Gebiet": 3001,
      "Monaten": 3002,
      "Folgen": 3003,
      "Bas": 3004,
      "ka": 3005,
      "massen": 3006,
      "anschauen": 3007,
      "Stelle": 3008,
      "Nahrung": 3009,
      "verbessern": 3010,
      "windigkeit": 3011,
      "mel": 3012,
      "woh": 3013,
      "schir": 3014,
      "ahmen": 3015,
      "press": 3016,
      "handelt": 3017,
      "Fran": 3018,
      "kannst": 3019,
      "versuche": 3020,
      "Schuler": 3021,
      "Frieden": 3022,
      "vergessen": 3023,
      "fertig": 3024,
      "Poliz": 3025,
      "Orten": 3026,
      "verlieren": 3027,
      "Galax": 3028,
      "Ra": 3029,
      "wahlen": 3030,
      "itter": 3031,
      "Vergangen": 3032,
      "Dien": 3033,
      "Uhr": 3034,
      "Arzt": 3035,
      "Prot": 3036,
      "ologische": 3037,
      "Nachbar": 3038,
      "quenz": 3039,
      "Personen": 3040,
      "Krankheiten": 3041,
      "Firmen": 3042,
      "Baby": 3043,
      "Terror": 3044,
      "Ebene": 3045,
      "Tre": 3046,
      "ue": 3047,
      "istor": 3048,
      "Beispiele": 3049,
      "Trau": 3050,
      "Wol": 3051,
      "erkl": 3052,
      "nachzudenken": 3053,
      "Har": 3054,
      "Ker": 3055,
      "Tagen": 3056,
      "Wal": 3057,
      "sweise": 3058,
      "herr": 3059,
      "anger": 3060,
      "hohen": 3061,
      "Spezies": 3062,
      "erlaubt": 3063,
      "Ir": 3064,
      "Mor": 3065,
      "deine": 3066,
      "taten": 3067,
      "schreck": 3068,
      "Konfl": 3069,
      "Gerat": 3070,
      "links": 3071,
      "Kern": 3072,
      "raten": 3073,
      "atte": 3074,
      "kommun": 3075,
      "Objekt": 3076,
      "Feuer": 3077,
      "nu": 3078,
      "roh": 3079,
      "aussieht": 3080,
      "Bakterien": 3081,
      "Vergangenheit": 3082,
      "17": 3083,
      "Buhne": 3084,
      "erk": 3085,
      "ierter": 3086,
      "nehm": 3087,
      "danke": 3088,
      "dia": 3089,
      "amerikanischen": 3090,
      "CO": 3091,
      "retten": 3092,
      "seltsam": 3093,
      "inden": 3094,
      "stru": 3095,
      "ari": 3096,
      "Stamm": 3097,
      "zumindest": 3098,
      "Architektur": 3099,
      "Gan": 3100,
      "Pau": 3101,
      "Sign": 3102,
      "Wohn": 3103,
      "the": 3104,
      "199": 3105,
      "Fotos": 3106,
      "Wirklichkeit": 3107,
      "Oper": 3108,
      "inken": 3109,
      "ons": 3110,
      "iven": 3111,
      "fordert": 3112,
      "Geschafts": 3113,
      "Leist": 3114,
      "traf": 3115,
      "Ord": 3116,
      "Nachricht": 3117,
      "Det": 3118,
      "Hande": 3119,
      "alien": 3120,
      "vert": 3121,
      "oper": 3122,
      "grossartige": 3123,
      "Sekunden": 3124,
      "Bienen": 3125,
      "Kampf": 3126,
      "Entscheidung": 3127,
      "Ergebnisse": 3128,
      "erzeugen": 3129,
      "hilft": 3130,
      "Lo": 3131,
      "Nord": 3132,
      "Systeme": 3133,
      "ac": 3134,
      "su": 3135,
      "stei": 3136,
      "lehr": 3137,
      "fehl": 3138,
      "Maschinen": 3139,
      "abhangig": 3140,
      "uberraschen": 3141,
      "Telefon": 3142,
      "Pos": 3143,
      "Som": 3144,
      "ed": 3145,
      "ider": 3146,
      "mot": 3147,
      "annen": 3148,
      "gener": 3149,
      "itte": 3150,
      "wendung": 3151,
      "Entdeck": 3152,
      "entdecken": 3153,
      "gesamten": 3154,
      "far": 3155,
      "dreht": 3156,
      "winz": 3157,
      "heutzutage": 3158,
      "umzu": 3159,
      "ffe": 3160,
      "digit": 3161,
      "Ser": 3162,
      "etze": 3163,
      "Worte": 3164,
      "extrem": 3165,
      "Wel": 3166,
      "gor": 3167,
      "jungen": 3168,
      "zimmer": 3169,
      "erfahren": 3170,
      "warten": 3171,
      "werke": 3172,
      "geschlossen": 3173,
      "effekt": 3174,
      "eiden": 3175,
      "scheinen": 3176,
      "nenne": 3177,
      "merz": 3178,
      "ickt": 3179,
      "interessante": 3180,
      "Medikamen": 3181,
      "Bu": 3182,
      "Daher": 3183,
      "grupp": 3184,
      "einge": 3185,
      "Invest": 3186,
      "Gefang": 3187,
      "hinder": 3188,
      "bieten": 3189,
      "trotzdem": 3190,
      "Methode": 3191,
      "Bar": 3192,
      "Ler": 3193,
      "National": 3194,
      "Relig": 3195,
      "ane": 3196,
      "manche": 3197,
      "leisten": 3198,
      "zif": 3199,
      "grossartig": 3200,
      "Linie": 3201,
      "einzelnen": 3202,
      "Glauben": 3203,
      "ball": 3204,
      "mung": 3205,
      "wuch": 3206,
      "genet": 3207,
      "abr": 3208,
      "roffen": 3209,
      "ckte": 3210,
      "fugen": 3211,
      "Herr": 3212,
      "Diag": 3213,
      "Ressourcen": 3214,
      "Toch": 3215,
      "geschehen": 3216,
      "solchen": 3217,
      "ausserhalb": 3218,
      "riesige": 3219,
      "bestimmte": 3220,
      "Kollegen": 3221,
      "Mut": 3222,
      "keiner": 3223,
      "rund": 3224,
      "wirken": 3225,
      "sowohl": 3226,
      "redu": 3227,
      "altung": 3228,
      "Regierungen": 3229,
      "entdeckt": 3230,
      "verbinden": 3231,
      "Hohe": 3232,
      "unmoglich": 3233,
      "iti": 3234,
      "Inf": 3235,
      "auchen": 3236,
      "heben": 3237,
      "offnen": 3238,
      "Park": 3239,
      "erklart": 3240,
      "Haut": 3241,
      "nungen": 3242,
      "anter": 3243,
      "Ingenie": 3244,
      "ationalen": 3245,
      "Landes": 3246,
      "Geburt": 3247,
      "Wachstum": 3248,
      "Auswirkungen": 3249,
      "masch": 3250,
      "runter": 3251,
      "ym": 3252,
      "Stre": 3253,
      "Bezug": 3254,
      "trifft": 3255,
      "prob": 3256,
      "Formen": 3257,
      "licherweise": 3258,
      "Meeres": 3259,
      "Bus": 3260,
      "Mc": 3261,
      "kaum": 3262,
      "schutz": 3263,
      "bert": 3264,
      "sodass": 3265,
      "Gespr": 3266,
      "arbeite": 3267,
      "horte": 3268,
      "globalen": 3269,
      "Institut": 3270,
      "hlen": 3271,
      "miss": 3272,
      "erin": 3273,
      "ermog": 3274,
      "Schwar": 3275,
      "rief": 3276,
      "einfachen": 3277,
      "zieht": 3278,
      "dopp": 3279,
      "lock": 3280,
      "astrop": 3281,
      "Mars": 3282,
      "Monat": 3283,
      "Sinne": 3284,
      "har": 3285,
      "passt": 3286,
      "tradition": 3287,
      "anomen": 3288,
      "aufgrund": 3289,
      "peratur": 3290,
      "ermoglicht": 3291,
      "Kohlen": 3292,
      "our": 3293,
      "chter": 3294,
      "itionen": 3295,
      "Verantwort": 3296,
      "schafft": 3297,
      "programm": 3298,
      "fallig": 3299,
      "Berg": 3300,
      "einzig": 3301,
      "haup": 3302,
      "Krankenhaus": 3303,
      "Himmel": 3304,
      "lass": 3305,
      "schutzen": 3306,
      "immen": 3307,
      "Jahres": 3308,
      "dadurch": 3309,
      "transp": 3310,
      "13": 3311,
      "erf": 3312,
      "Geheim": 3313,
      "Konig": 3314,
      "aussergewohn": 3315,
      "mitteln": 3316,
      "Freiheit": 3317,
      "zeigte": 3318,
      "Amei": 3319,
      "Tie": 3320,
      "vollen": 3321,
      "bestehen": 3322,
      "otion": 3323,
      "Regel": 3324,
      "untersuchen": 3325,
      "Gene": 3326,
      "Netzwerk": 3327,
      "Organisation": 3328,
      "Erwachsen": 3329,
      "herstellen": 3330,
      "ologischen": 3331,
      "Sud": 3332,
      "Chance": 3333,
      "Transp": 3334,
      "grundlegen": 3335,
      "Flugzeug": 3336,
      "dauer": 3337,
      "Ordnung": 3338,
      "Tochter": 3339,
      "Finger": 3340,
      "Gelegen": 3341,
      "Ziv": 3342,
      "ghan": 3343,
      "uell": 3344,
      "gewi": 3345,
      "gefragt": 3346,
      "ationale": 3347,
      "schone": 3348,
      "arbeiter": 3349,
      "niedr": 3350,
      "Lernen": 3351,
      "Gi": 3352,
      "zog": 3353,
      "altet": 3354,
      "schicken": 3355,
      "deten": 3356,
      "ingungen": 3357,
      "Einkommen": 3358,
      "leiden": 3359,
      "platz": 3360,
      "betrachtet": 3361,
      "ativitat": 3362,
      "Hy": 3363,
      "ai": 3364,
      "com": 3365,
      "entschieden": 3366,
      "Schrift": 3367,
      "grun": 3368,
      "Million": 3369,
      "belie": 3370,
      "Indust": 3371,
      "vel": 3372,
      "Einer": 3373,
      "endlich": 3374,
      "ID": 3375,
      "beein": 3376,
      "ennt": 3377,
      "neun": 3378,
      "lebens": 3379,
      "dio": 3380,
      "Buro": 3381,
      "Schlussel": 3382,
      "mon": 3383,
      "reche": 3384,
      "Gew": 3385,
      "normalerweise": 3386,
      "Li": 3387,
      "stag": 3388,
      "Freu": 3389,
      "schlechte": 3390,
      "druckt": 3391,
      "drehen": 3392,
      "Drogen": 3393,
      "herausfinden": 3394,
      "Muse": 3395,
      "erzahlte": 3396,
      "ometer": 3397,
      "Brust": 3398,
      "Partner": 3399,
      "hart": 3400,
      "rochen": 3401,
      "ilien": 3402,
      "Verfug": 3403,
      "Anal": 3404,
      "gebil": 3405,
      "Wege": 3406,
      "Quad": 3407,
      "ubrigens": 3408,
      "haf": 3409,
      "rel": 3410,
      "intelligen": 3411,
      "stu": 3412,
      "asen": 3413,
      "diejenigen": 3414,
      "ierenden": 3415,
      "ulation": 3416,
      "zweiten": 3417,
      "handeln": 3418,
      "Ach": 3419,
      "krieg": 3420,
      "laden": 3421,
      "Inse": 3422,
      "geschaffen": 3423,
      "Farbe": 3424,
      "Englisch": 3425,
      "Schonheit": 3426,
      "imension": 3427,
      "Behandlung": 3428,
      "Haben": 3429,
      "Kreis": 3430,
      "guter": 3431,
      "kap": 3432,
      "imin": 3433,
      "iellen": 3434,
      "folge": 3435,
      "Jungen": 3436,
      "km": 3437,
      "kar": 3438,
      "west": 3439,
      "alth": 3440,
      "Designer": 3441,
      "Komplex": 3442,
      "Klimawand": 3443,
      "unterstutzen": 3444,
      "Kamera": 3445,
      "Bis": 3446,
      "Wunder": 3447,
      "falle": 3448,
      "befindet": 3449,
      "verhalten": 3450,
      "ruh": 3451,
      "stoffe": 3452,
      "Beziehungen": 3453,
      "business": 3454,
      "Fakt": 3455,
      "Noch": 3456,
      "geg": 3457,
      "eitung": 3458,
      "barkeit": 3459,
      "bisher": 3460,
      "einzigen": 3461,
      "Liebl": 3462,
      "Beginn": 3463,
      "Sen": 3464,
      "Traum": 3465,
      "fot": 3466,
      "onie": 3467,
      "behaup": 3468,
      "Damit": 3469,
      "Hirn": 3470,
      "Kol": 3471,
      "Nummer": 3472,
      "Tim": 3473,
      "Vier": 3474,
      "uellen": 3475,
      "unachst": 3476,
      "iter": 3477,
      "stecken": 3478,
      "spreche": 3479,
      "stellungen": 3480,
      "leisch": 3481,
      "Interesse": 3482,
      "Betr": 3483,
      "fahig": 3484,
      "lernte": 3485,
      "ffizien": 3486,
      "Poten": 3487,
      "tan": 3488,
      "orben": 3489,
      "herunter": 3490,
      "Mark": 3491,
      "Herzen": 3492,
      "welcher": 3493,
      "Verstandnis": 3494,
      "typ": 3495,
      "aufre": 3496,
      "Zustand": 3497,
      "Losungen": 3498,
      "ebenso": 3499,
      "schirm": 3500,
      "21": 3501,
      "li": 3502,
      "ente": 3503,
      "itive": 3504,
      "exp": 3505,
      "fuhlt": 3506,
      "getroffen": 3507,
      "Erfahrungen": 3508,
      "CO2": 3509,
      "Industrie": 3510,
      "Dis": 3511,
      "Taus": 3512,
      "krit": 3513,
      "vie": 3514,
      "schatzen": 3515,
      "itten": 3516,
      "acher": 3517,
      "weite": 3518,
      "Artikel": 3519,
      "brauchte": 3520,
      "SA": 3521,
      "nann": 3522,
      "oge": 3523,
      "unt": 3524,
      "Ereig": 3525,
      "reise": 3526,
      "ivat": 3527,
      "seines": 3528,
      "forschen": 3529,
      "selten": 3530,
      "Punkte": 3531,
      "Tisch": 3532,
      "yr": 3533,
      "seh": 3534,
      "euern": 3535,
      "nochen": 3536,
      "ption": 3537,
      "worten": 3538,
      "Gehirns": 3539,
      "Abend": 3540,
      "Flu": 3541,
      "Instr": 3542,
      "Schiff": 3543,
      "mehrere": 3544,
      "erwarten": 3545,
      "Lond": 3546,
      "San": 3547,
      "annt": 3548,
      "steckt": 3549,
      "cool": 3550,
      "Ball": 3551,
      "Fen": 3552,
      "gehe": 3553,
      "Erkennt": 3554,
      "herzustellen": 3555,
      "ellschaften": 3556,
      "hause": 3557,
      "heutigen": 3558,
      "tertain": 3559,
      "elektr": 3560,
      "Bio": 3561,
      "Hall": 3562,
      "Teilen": 3563,
      "Zeiten": 3564,
      "dritte": 3565,
      "hi": 3566,
      "verg": 3567,
      "Gewe": 3568,
      "Zeitpunkt": 3569,
      "haltung": 3570,
      "Filme": 3571,
      "tausend": 3572,
      "Arzte": 3573,
      "300": 3574,
      "Grad": 3575,
      "Masse": 3576,
      "Name": 3577,
      "Schutz": 3578,
      "bruch": 3579,
      "echte": 3580,
      "Ausdruck": 3581,
      "Veranderungen": 3582,
      "tertainment": 3583,
      "Drit": 3584,
      "Tas": 3585,
      "mil": 3586,
      "nal": 3587,
      "ry": 3588,
      "seite": 3589,
      "uz": 3590,
      "erleben": 3591,
      "ales": 3592,
      "entweder": 3593,
      "Manchmal": 3594,
      "Plast": 3595,
      "Produkte": 3596,
      "desto": 3597,
      "Mau": 3598,
      "dran": 3599,
      "chem": 3600,
      "irur": 3601,
      "sowie": 3602,
      "afft": 3603,
      "ahnen": 3604,
      "leiten": 3605,
      "lebte": 3606,
      "Charakter": 3607,
      "Jahrhunderts": 3608,
      "auschen": 3609,
      "scht": 3610,
      "Projekte": 3611,
      "leider": 3612,
      "Jedes": 3613,
      "ummern": 3614,
      "Japan": 3615,
      "Wesen": 3616,
      "dasselbe": 3617,
      "mittler": 3618,
      "konom": 3619,
      "Stunde": 3620,
      "Inner": 3621,
      "schiede": 3622,
      "vention": 3623,
      "beeinflus": 3624,
      "Risiko": 3625,
      "Einzel": 3626,
      "Glo": 3627,
      "Junge": 3628,
      "entertainment": 3629,
      "verander": 3630,
      "warts": 3631,
      "wenige": 3632,
      "ahlt": 3633,
      "dank": 3634,
      "grosseren": 3635,
      "Karr": 3636,
      "besondere": 3637,
      "verkaufen": 3638,
      "Version": 3639,
      "Detail": 3640,
      "Gefangnis": 3641,
      "erfunden": 3642,
      "\"-": 3643,
      "Dun": 3644,
      "ote": 3645,
      "gek": 3646,
      "Auge": 3647,
      "schonen": 3648,
      "fuhlte": 3649,
      "Worten": 3650,
      "book": 3651,
      "unglaubliche": 3652,
      "Bruder": 3653,
      "jemandem": 3654,
      "antworten": 3655,
      "verruckt": 3656,
      "Kommunikation": 3657,
      "Ident": 3658,
      "Ke": 3659,
      "Tem": 3660,
      "cy": 3661,
      "gien": 3662,
      "hilfe": 3663,
      "ramm": 3664,
      "istisch": 3665,
      "mitten": 3666,
      "Strate": 3667,
      "Intelligen": 3668,
      "akzept": 3669,
      "wesent": 3670,
      "Krie": 3671,
      "Zw": 3672,
      "sichtig": 3673,
      "toten": 3674,
      "onom": 3675,
      "emotion": 3676,
      "eigenes": 3677,
      "Antworten": 3678,
      "kenne": 3679,
      "recher": 3680,
      "Finanz": 3681,
      "Sommer": 3682,
      "Freude": 3683,
      "Ep": 3684,
      "dein": 3685,
      "offnet": 3686,
      "proble": 3687,
      "ebenfalls": 3688,
      "Eigenschaften": 3689,
      "erinnere": 3690,
      "ehrlich": 3691,
      "Leidenschaft": 3692,
      "24": 3693,
      "As": 3694,
      "Nahe": 3695,
      "dicht": 3696,
      "ifor": 3697,
      "teuer": 3698,
      "orge": 3699,
      "verantwort": 3700,
      "Ansatz": 3701,
      "klass": 3702,
      "Farben": 3703,
      "korper": 3704,
      "ippe": 3705,
      "trieben": 3706,
      "Afghan": 3707,
      "Verfugung": 3708,
      "London": 3709,
      "Glas": 3710,
      "Liste": 3711,
      "Sei": 3712,
      "rastruktur": 3713,
      "empf": 3714,
      "Konferenz": 3715,
      "kampfen": 3716,
      "gutes": 3717,
      "jene": 3718,
      "nehme": 3719,
      "Materialien": 3720,
      "Individu": 3721,
      "Fo": 3722,
      "Mull": 3723,
      "Pil": 3724,
      "achsen": 3725,
      "annien": 3726,
      "ikas": 3727,
      "nachhalt": 3728,
      "Manche": 3729,
      "durf": 3730,
      "unterschiedliche": 3731,
      "behandeln": 3732,
      "Massen": 3733,
      "Suche": 3734,
      "histor": 3735,
      "spru": 3736,
      "Werte": 3737,
      "schlimm": 3738,
      "Phanomen": 3739,
      "rechte": 3740,
      "Ag": 3741,
      "Zelle": 3742,
      "bill": 3743,
      "ikt": 3744,
      "inst": 3745,
      "lekt": 3746,
      "Erf": 3747,
      "Vertrauen": 3748,
      "Arme": 3749,
      "gere": 3750,
      "wunderbar": 3751,
      "Statist": 3752,
      "staat": 3753,
      "haufig": 3754,
      "afrikan": 3755,
      "Waffen": 3756,
      "Wald": 3757,
      "dings": 3758,
      "gier": 3759,
      "pekt": 3760,
      "Grossen": 3761,
      "Region": 3762,
      "grossere": 3763,
      "globale": 3764,
      "osoph": 3765,
      "Fenster": 3766,
      "iforn": 3767,
      "Del": 3768,
      "Tieren": 3769,
      "Will": 3770,
      "flu": 3771,
      "frieden": 3772,
      "tegr": 3773,
      "genutzt": 3774,
      "vermei": 3775,
      "serv": 3776,
      "geschafft": 3777,
      "Trans": 3778,
      "Kreativitat": 3779,
      "kostet": 3780,
      "fruhen": 3781,
      "Titel": 3782,
      "ling": 3783,
      "sobald": 3784,
      "ahle": 3785,
      "Unterst": 3786,
      "fangt": 3787,
      "Vielfalt": 3788,
      "Werkzeuge": 3789,
      "konzentrieren": 3790,
      "Disk": 3791,
      "tru": 3792,
      "klin": 3793,
      "Freunden": 3794,
      "uhl": 3795,
      "Mail": 3796,
      "Syn": 3797,
      "dauern": 3798,
      "Physik": 3799,
      "Ahnung": 3800,
      "Infrastruktur": 3801,
      "Drei": 3802,
      "bahn": 3803,
      "relig": 3804,
      "isierung": 3805,
      "Rep": 3806,
      "Rede": 3807,
      "ktionen": 3808,
      "erstoff": 3809,
      "dient": 3810,
      "Biologie": 3811,
      "Grossbrit": 3812,
      "Verantwortung": 3813,
      "Tal": 3814,
      "hangen": 3815,
      "ory": 3816,
      "Begriff": 3817,
      "trau": 3818,
      "angefangen": 3819,
      "Karten": 3820,
      "erwartet": 3821,
      "notwen": 3822,
      "Text": 3823,
      "Ze": 3824,
      "iden": 3825,
      "orung": 3826,
      "Staat": 3827,
      "markt": 3828,
      "Rich": 3829,
      "keln": 3830,
      "ilt": 3831,
      "gesellschaft": 3832,
      "Organ": 3833,
      "teilung": 3834,
      "Baume": 3835,
      "Ad": 3836,
      "chines": 3837,
      "uberleben": 3838,
      "hindern": 3839,
      "Graf": 3840,
      "geschah": 3841,
      "glaubt": 3842,
      "fasst": 3843,
      "Kurz": 3844,
      "erstaunlich": 3845,
      "existiert": 3846,
      "wohin": 3847,
      "Grossbritannien": 3848,
      "Feld": 3849,
      "Wunsch": 3850,
      "fit": 3851,
      "ong": 3852,
      "verbringen": 3853,
      "lief": 3854,
      "Spitze": 3855,
      "Produktion": 3856,
      "setzung": 3857,
      "erzeugt": 3858,
      "High": 3859,
      "Medikamente": 3860,
      "Ban": 3861,
      "Jam": 3862,
      "Mir": 3863,
      "bol": 3864,
      "ermoglichen": 3865,
      "ursprung": 3866,
      "tragt": 3867,
      "See": 3868,
      "starker": 3869,
      "hielten": 3870,
      "Virus": 3871,
      "beeinflusst": 3872,
      "Karriere": 3873,
      "Wes": 3874,
      "pft": 3875,
      "online": 3876,
      "aufgenommen": 3877,
      "Vergleich": 3878,
      "Bedurf": 3879,
      "neuer": 3880,
      "minister": 3881,
      "Sauerstoff": 3882,
      "Zentrum": 3883,
      "kontrollieren": 3884,
      "Gelegenheit": 3885,
      "Brot": 3886,
      "Wichtig": 3887,
      "mutter": 3888,
      "sass": 3889,
      "iete": 3890,
      "stur": 3891,
      "esser": 3892,
      "zusagen": 3893,
      "lecht": 3894,
      "bereich": 3895,
      "verfug": 3896,
      "wiesen": 3897,
      "Erstens": 3898,
      "gress": 3899,
      "Westen": 3900,
      "Mannern": 3901,
      "Perspekt": 3902,
      "sorgung": 3903,
      "Polizei": 3904,
      "Klassen": 3905,
      "Knochen": 3906,
      "Osten": 3907,
      "Wett": 3908,
      "Wider": 3909,
      "gehalten": 3910,
      "Erst": 3911,
      "Gefuhle": 3912,
      "grunde": 3913,
      "leid": 3914,
      "geschichte": 3915,
      "begonnen": 3916,
      "Hauser": 3917,
      "mark": 3918,
      "Pop": 3919,
      "Yo": 3920,
      "pag": 3921,
      "leuch": 3922,
      "entstehen": 3923,
      "rael": 3924,
      "Ange": 3925,
      "Heil": 3926,
      "Kann": 3927,
      "air": 3928,
      "ith": 3929,
      "entlang": 3930,
      "angt": 3931,
      "health": 3932,
      "Nehmen": 3933,
      "Autor": 3934,
      "Verbindungen": 3935,
      "fullen": 3936,
      "einzigart": 3937,
      "chan": 3938,
      "test": 3939,
      "anda": 3940,
      "ulieren": 3941,
      "lant": 3942,
      "wichtigsten": 3943,
      "bedingt": 3944,
      "text": 3945,
      "wuchs": 3946,
      "Port": 3947,
      "do": 3948,
      "rem": 3949,
      "reib": 3950,
      "Blog": 3951,
      "rechten": 3952,
      "Wirtschafts": 3953,
      "Neuronen": 3954,
      "hohe": 3955,
      "Wu": 3956,
      "enze": 3957,
      "istische": 3958,
      "lege": 3959,
      "neur": 3960,
      "Spielen": 3961,
      "meister": 3962,
      "gestalten": 3963,
      "mutlich": 3964,
      "Todes": 3965,
      "riesigen": 3966,
      "Werkzeug": 3967,
      "erlauben": 3968,
      "IDS": 3969,
      "Plastik": 3970,
      "Dort": 3971,
      "Fak": 3972,
      "Face": 3973,
      "nissen": 3974,
      "reagieren": 3975,
      "utze": 3976,
      "kehren": 3977,
      "Geschwindigkeit": 3978,
      "gewachsen": 3979,
      "mosphare": 3980,
      "Typen": 3981,
      "erwahn": 3982,
      "bemerkens": 3983,
      "Religion": 3984,
      "Rom": 3985,
      "av": 3986,
      "fiel": 3987,
      "pack": 3988,
      "beruhr": 3989,
      "Schei": 3990,
      "Gefahr": 3991,
      "ucken": 3992,
      "Web": 3993,
      "dorthin": 3994,
      "Mond": 3995,
      "Interess": 3996,
      "produziert": 3997,
      "Standard": 3998,
      "Entwicklungsl": 3999,
      "Botschaft": 4000,
      "Ameisen": 4001,
      "Com": 4002,
      "Holz": 4003,
      "Klasse": 4004,
      "Sal": 4005,
      "Tanz": 4006,
      "ierungs": 4007,
      "rak": 4008,
      "weich": 4009,
      "Reich": 4010,
      "Spiele": 4011,
      "Gesellschaften": 4012,
      "stimmen": 4013,
      "Universums": 4014,
      "fruh": 4015,
      "Schlag": 4016,
      "politische": 4017,
      "beeinflussen": 4018,
      "Richard": 4019,
      "Gu": 4020,
      "Ken": 4021,
      "mater": 4022,
      "zukunft": 4023,
      "weiten": 4024,
      "osaur": 4025,
      "einfacher": 4026,
      "Stadten": 4027,
      "Boot": 4028,
      "Okos": 4029,
      "Denk": 4030,
      "Kapital": 4031,
      "Jour": 4032,
      "modell": 4033,
      "Ed": 4034,
      "gilt": 4035,
      "omin": 4036,
      "ochen": 4037,
      "gelassen": 4038,
      "fuhrung": 4039,
      "dium": 4040,
      "freien": 4041,
      "Col": 4042,
      "Hund": 4043,
      "Hunder": 4044,
      "Kir": 4045,
      "gument": 4046,
      "anen": 4047,
      "Profess": 4048,
      "assung": 4049,
      "politischen": 4050,
      "uberzeugen": 4051,
      "Pal": 4052,
      "pol": 4053,
      "neten": 4054,
      "Einsatz": 4055,
      "wahren": 4056,
      "musst": 4057,
      "Deut": 4058,
      "satzlich": 4059,
      "Materie": 4060,
      "fullt": 4061,
      "umente": 4062,
      "Insekten": 4063,
      "Komplexitat": 4064,
      "Temperatur": 4065,
      "Journal": 4066,
      "Fallen": 4067,
      "IT": 4068,
      "Opfer": 4069,
      "tes": 4070,
      "ologe": 4071,
      "vern": 4072,
      "eth": 4073,
      "regel": 4074,
      "afe": 4075,
      "gewonnen": 4076,
      "Privat": 4077,
      "Gemeinde": 4078,
      "verkauft": 4079,
      "dahin": 4080,
      "Dir": 4081,
      "Fach": 4082,
      "Szen": 4083,
      "piel": 4084,
      "tra": 4085,
      "Gewicht": 4086,
      "Auss": 4087,
      "fuhrer": 4088,
      "okay": 4089,
      "prim": 4090,
      "Beruf": 4091,
      "starken": 4092,
      "buchstab": 4093,
      "Facebook": 4094,
      "Band": 4095,
      "Ganz": 4096,
      "Maus": 4097,
      "leun": 4098,
      "entsteht": 4099,
      "mechan": 4100,
      "gewisse": 4101,
      "weiterhin": 4102,
      "Ausbildung": 4103,
      "Genom": 4104,
      "kurzen": 4105,
      "Jede": 4106,
      "hangt": 4107,
      "krebs": 4108,
      "Zusammenarbeit": 4109,
      "Afghanistan": 4110,
      "Diskuss": 4111,
      "AIDS": 4112,
      "Bitte": 4113,
      "Keine": 4114,
      "fs": 4115,
      "ufen": 4116,
      "unbe": 4117,
      "Unterschiede": 4118,
      "kurze": 4119,
      "fragten": 4120,
      "Sekunde": 4121,
      "Vision": 4122,
      "herapie": 4123,
      "Dienst": 4124,
      "fotograf": 4125,
      "Unterstutzung": 4126,
      "Null": 4127,
      "Seit": 4128,
      "acken": 4129,
      "entschied": 4130,
      "demie": 4131,
      "198": 4132,
      "seien": 4133,
      "freund": 4134,
      "Zusammenhang": 4135,
      "Babys": 4136,
      "amerikanische": 4137,
      "behandelt": 4138,
      "modernen": 4139,
      "Klimawandel": 4140,
      "Iran": 4141,
      "Lang": 4142,
      "Zur": 4143,
      "up": 4144,
      "inform": 4145,
      "istenz": 4146,
      "berg": 4147,
      "veroffent": 4148,
      "verfolgen": 4149,
      "sogenann": 4150,
      "dagegen": 4151,
      "begeister": 4152,
      "how": 4153,
      "Teilchen": 4154,
      "ington": 4155,
      "verbreitet": 4156,
      "Soldaten": 4157,
      "Zeichen": 4158,
      "kompliz": 4159,
      "Position": 4160,
      "Intelligenz": 4161,
      "Kunden": 4162,
      "baut": 4163,
      "hre": 4164,
      "Altern": 4165,
      "klingt": 4166,
      "Aufgaben": 4167,
      "starke": 4168,
      "gefallen": 4169,
      "Lebensmittel": 4170,
      "Atom": 4171,
      "Objekte": 4172,
      "Fernsehen": 4173,
      "letztes": 4174,
      "Che": 4175,
      "Falle": 4176,
      "Haar": 4177,
      "ice": 4178,
      "indust": 4179,
      "okument": 4180,
      "Landwirtschaft": 4181,
      "scheinlichkeit": 4182,
      "alisieren": 4183,
      "impan": 4184,
      "Niemand": 4185,
      "2000": 4186,
      "Fein": 4187,
      "Hil": 4188,
      "rt": 4189,
      "erhalt": 4190,
      "veran": 4191,
      "etter": 4192,
      "Stift": 4193,
      "icks": 4194,
      "Result": 4195,
      "Jobs": 4196,
      "Kilometer": 4197,
      "verursacht": 4198,
      "optim": 4199,
      "400": 4200,
      "Bal": 4201,
      "Gar": 4202,
      "Nutzen": 4203,
      "bank": 4204,
      "dimension": 4205,
      "erei": 4206,
      "ledig": 4207,
      "Schimpan": 4208,
      "Aussen": 4209,
      "zuruckzu": 4210,
      "vollkommen": 4211,
      "entwickelten": 4212,
      "mogliche": 4213,
      "Atmosphare": 4214,
      "positiv": 4215,
      "Moleku": 4216,
      "Affen": 4217,
      "Dre": 4218,
      "Frank": 4219,
      "Gang": 4220,
      "reisen": 4221,
      "ford": 4222,
      "gewicht": 4223,
      "Mitglie": 4224,
      "Handy": 4225,
      "zeichen": 4226,
      "Fotograf": 4227,
      "wissenschaftliche": 4228,
      "Organisationen": 4229,
      "benotigen": 4230,
      "Hintergrund": 4231,
      ",\"": 4232,
      "Effekt": 4233,
      "Satz": 4234,
      "wagen": 4235,
      "erstellen": 4236,
      "erforschen": 4237,
      "int": 4238,
      "amin": 4239,
      "konstru": 4240,
      "spuren": 4241,
      "davor": 4242,
      "lautet": 4243,
      "Mex": 4244,
      "ganzes": 4245,
      "Gerate": 4246,
      "ausserdem": 4247,
      "Schwier": 4248,
      "dauert": 4249,
      "Basis": 4250,
      "Tu": 4251,
      "ool": 4252,
      "sauber": 4253,
      "auran": 4254,
      "ubertragen": 4255,
      "othe": 4256,
      "geladen": 4257,
      "ptop": 4258,
      "gestorben": 4259,
      "lebten": 4260,
      "Satell": 4261,
      "Jugend": 4262,
      "Zivilis": 4263,
      "Eind": 4264,
      "Nerv": 4265,
      "Sind": 4266,
      "Train": 4267,
      "ek": 4268,
      "isiert": 4269,
      "adel": 4270,
      "arts": 4271,
      "frist": 4272,
      "brauchten": 4273,
      "Untersuch": 4274,
      "betrifft": 4275,
      "Kontakt": 4276,
      "uberzeugt": 4277,
      "investieren": 4278,
      "Online": 4279,
      "Drittel": 4280,
      "veroffentlicht": 4281,
      "Abst": 4282,
      "Laden": 4283,
      "sitzt": 4284,
      "ene": 4285,
      "gezogen": 4286,
      "istischen": 4287,
      "iell": 4288,
      "Gest": 4289,
      "gramme": 4290,
      "selber": 4291,
      "Rucken": 4292,
      "Sterne": 4293,
      "Wandel": 4294,
      "forschung": 4295,
      "Volk": 4296,
      "beschaftigt": 4297,
      "ifornien": 4298,
      "Bud": 4299,
      "Temp": 4300,
      "log": 4301,
      "phen": 4302,
      "ieten": 4303,
      "unbedingt": 4304,
      "amt": 4305,
      "umgehen": 4306,
      "ielt": 4307,
      "Erklar": 4308,
      "dieselbe": 4309,
      "unternehmen": 4310,
      "weiteres": 4311,
      "Forscher": 4312,
      "Motor": 4313,
      "gebildet": 4314,
      "Ak": 4315,
      "City": 4316,
      "sachlich": 4317,
      "verdienen": 4318,
      "ami": 4319,
      "liebt": 4320,
      "hinweg": 4321,
      "erstes": 4322,
      "herausgefunden": 4323,
      "Interaktion": 4324,
      "Videos": 4325,
      "erinnert": 4326,
      "Museum": 4327,
      "Nutz": 4328,
      "Pan": 4329,
      "Paar": 4330,
      "bloss": 4331,
      "kat": 4332,
      "ton": 4333,
      "ley": 4334,
      "werte": 4335,
      "alleine": 4336,
      "beschreiben": 4337,
      "solch": 4338,
      "Themen": 4339,
      "deutlich": 4340,
      "Modelle": 4341,
      "Verhaltens": 4342,
      "Fuhrung": 4343,
      "wohner": 4344,
      "Paul": 4345,
      "Fabr": 4346,
      "Jon": 4347,
      "MS": 4348,
      "Ta": 4349,
      "vo": 4350,
      "asi": 4351,
      "unger": 4352,
      "behalten": 4353,
      "ogn": 4354,
      "Beste": 4355,
      "wiederum": 4356,
      "worfen": 4357,
      "Korallen": 4358,
      "Nichts": 4359,
      "Gold": 4360,
      "naturliche": 4361,
      "perfekt": 4362,
      "Bedingungen": 4363,
      "Trick": 4364,
      "Fest": 4365,
      "ld": 4366,
      "wirst": 4367,
      "vertrauen": 4368,
      "roten": 4369,
      "uman": 4370,
      "auseinander": 4371,
      "spannen": 4372,
      "Stoff": 4373,
      "Sport": 4374,
      "flachen": 4375,
      "seits": 4376,
      "Bildern": 4377,
      "Solar": 4378,
      "mathemat": 4379,
      "Nahrungs": 4380,
      "Militar": 4381,
      "benotigt": 4382,
      "Massstab": 4383,
      "kommunizieren": 4384,
      "Colle": 4385,
      "Kaffe": 4386,
      "Sil": 4387,
      "heil": 4388,
      "sau": 4389,
      "undament": 4390,
      "acheln": 4391,
      "spl": 4392,
      "Angel": 4393,
      "Grosst": 4394,
      "gehor": 4395,
      "Milliarde": 4396,
      "Herausforderungen": 4397,
      "Golf": 4398,
      "basiert": 4399,
      "Leistung": 4400,
      "steigt": 4401,
      "Bank": 4402,
      "Fleisch": 4403,
      "Zwe": 4404,
      "band": 4405,
      "nutzt": 4406,
      "sorgen": 4407,
      "reprasent": 4408,
      "individu": 4409,
      "allge": 4410,
      "Eins": 4411,
      "laut": 4412,
      "Gesetze": 4413,
      "Sehr": 4414,
      "Bildschirm": 4415,
      "pfel": 4416,
      "hauser": 4417,
      "digung": 4418,
      "Kindheit": 4419,
      "Funf": 4420,
      "Fortschritt": 4421,
      "view": 4422,
      "Bett": 4423,
      "Cl": 4424,
      "Pra": 4425,
      "lernt": 4426,
      "rig": 4427,
      "tolle": 4428,
      "zy": 4429,
      "sozusagen": 4430,
      "usw": 4431,
      "unsicht": 4432,
      "Depress": 4433,
      "Qualitat": 4434,
      "Patient": 4435,
      "durfen": 4436,
      "unterschiedlichen": 4437,
      "Laptop": 4438,
      "Erinnerung": 4439,
      "belieb": 4440,
      "Bom": 4441,
      "Fel": 4442,
      "Kan": 4443,
      "Tor": 4444,
      "bezahlen": 4445,
      "euert": 4446,
      "Erzahl": 4447,
      "perim": 4448,
      "innov": 4449,
      "tember": 4450,
      "Rahmen": 4451,
      "schwe": 4452,
      "schalten": 4453,
      "zufallig": 4454,
      "org": 4455,
      "anderem": 4456,
      "ohle": 4457,
      "tritt": 4458,
      "besitzen": 4459,
      "ungskraft": 4460,
      "arbeiteten": 4461,
      "West": 4462,
      "quenzen": 4463,
      "sicherlich": 4464,
      "betrie": 4465,
      "alisiert": 4466,
      "setzte": 4467,
      "Restauran": 4468,
      "Institutionen": 4469,
      "Identitat": 4470,
      "Jul": 4471,
      "schrift": 4472,
      "ahrung": 4473,
      "Statt": 4474,
      "komm": 4475,
      "Unternehmer": 4476,
      "gefangen": 4477,
      "Wahrscheinlichkeit": 4478,
      "Irak": 4479,
      "ustr": 4480,
      "endet": 4481,
      "verhindern": 4482,
      "vermutlich": 4483,
      "Schmerz": 4484,
      "nachts": 4485,
      "Proje": 4486,
      "gelangen": 4487,
      "automat": 4488,
      "haltnis": 4489,
      "entwickelte": 4490,
      "dringen": 4491,
      "Wahrnehm": 4492,
      "Sprachen": 4493,
      "bitten": 4494,
      "Hey": 4495,
      "Sim": 4496,
      "onstr": 4497,
      "nachstes": 4498,
      "durchgefuhrt": 4499,
      "gewahlt": 4500,
      "wood": 4501,
      "Problemen": 4502,
      "gehol": 4503,
      "bestimmen": 4504,
      "Bauern": 4505,
      "taglich": 4506,
      "jahrige": 4507,
      "Experten": 4508,
      "Strukturen": 4509,
      "Prasident": 4510,
      "45": 4511,
      "Beine": 4512,
      "Log": 4513,
      "Ter": 4514,
      "zeiten": 4515,
      "zuge": 4516,
      "destens": 4517,
      "wirkt": 4518,
      "bekamen": 4519,
      "eting": 4520,
      "sper": 4521,
      "brachten": 4522,
      "Einfach": 4523,
      "selbe": 4524,
      "vollstandig": 4525,
      "holt": 4526,
      "Israel": 4527,
      "virtu": 4528,
      "Offent": 4529,
      "Grossteil": 4530,
      "Sorgen": 4531,
      "Tw": 4532,
      "Tom": 4533,
      "enk": 4534,
      "beteil": 4535,
      "Schwer": 4536,
      "voraus": 4537,
      "echten": 4538,
      "wahre": 4539,
      "interagieren": 4540,
      "gegenseit": 4541,
      "Brenn": 4542,
      "wirtschaftlichen": 4543,
      "uberrascht": 4544,
      "Kohlenstoff": 4545,
      "Perspektive": 4546,
      "buchstablich": 4547,
      "150": 4548,
      "Ecke": 4549,
      "Garten": 4550,
      "Ziele": 4551,
      "ael": 4552,
      "geist": 4553,
      "ole": 4554,
      "vin": 4555,
      "isieren": 4556,
      "Spekt": 4557,
      "steller": 4558,
      "Kontext": 4559,
      "besseren": 4560,
      "ignor": 4561,
      "starb": 4562,
      "wichtigste": 4563,
      "Metap": 4564,
      "Konflikt": 4565,
      "maschine": 4566,
      "Epi": 4567,
      "Jungs": 4568,
      "Meilen": 4569,
      "Pa": 4570,
      "kummern": 4571,
      "stolz": 4572,
      "einsetzen": 4573,
      "derzeit": 4574,
      "zubringen": 4575,
      "hrop": 4576,
      "heran": 4577,
      "klus": 4578,
      "priv": 4579,
      "richtung": 4580,
      "wunderbare": 4581,
      "Gegenteil": 4582,
      "jahrigen": 4583,
      "bemerkt": 4584,
      "schwarz": 4585,
      "kriegen": 4586,
      "Galaxien": 4587,
      "BI": 4588,
      "Gute": 4589,
      "Lern": 4590,
      "Russ": 4591,
      "bat": 4592,
      "hu": 4593,
      "hafte": 4594,
      "steuern": 4595,
      "einiger": 4596,
      "schick": 4597,
      "atzt": 4598,
      "zugang": 4599,
      "benutz": 4600,
      "real": 4601,
      "fehlen": 4602,
      "Gras": 4603,
      "achtung": 4604,
      "weiteren": 4605,
      "ppe": 4606,
      "zeugen": 4607,
      "Frem": 4608,
      "dafr": 4609,
      "grundet": 4610,
      "Lied": 4611,
      "falsche": 4612,
      "wissenschaftlichen": 4613,
      "gefahrlich": 4614,
      "Heimat": 4615,
      "verwandeln": 4616,
      "motiv": 4617,
      "James": 4618,
      "Ehe": 4619,
      "ban": 4620,
      "cis": 4621,
      "froh": 4622,
      "ilet": 4623,
      "wun": 4624,
      "stop": 4625,
      "entwerfen": 4626,
      "ike": 4627,
      "Verbr": 4628,
      "echan": 4629,
      "Zuerst": 4630,
      "Falls": 4631,
      "verstandlich": 4632,
      "Gewebe": 4633,
      "osaurier": 4634,
      "-,": 4635,
      "Seine": 4636,
      "Trag": 4637,
      "dige": 4638,
      "kan": 4639,
      "scher": 4640,
      "irgen": 4641,
      "Verkehr": 4642,
      "durchschnitt": 4643,
      "Grunden": 4644,
      "Grenze": 4645,
      "tzeit": 4646,
      "Sep": 4647,
      "Chirur": 4648,
      "schlimmer": 4649,
      "Uberleben": 4650,
      "moglicherweise": 4651,
      "geto": 4652,
      "verbracht": 4653,
      "junger": 4654,
      "Ausserdem": 4655,
      "Mobil": 4656,
      "begeistert": 4657,
      "Eindruck": 4658,
      "Il": 4659,
      "Norden": 4660,
      "Samm": 4661,
      "lim": 4662,
      "treiben": 4663,
      "Inhalt": 4664,
      "lieber": 4665,
      "Sozial": 4666,
      "irgendwann": 4667,
      "interessanter": 4668,
      "richtungen": 4669,
      "Elektro": 4670,
      "Gra": 4671,
      "Handen": 4672,
      "Klang": 4673,
      "Mos": 4674,
      "gunst": 4675,
      "hie": 4676,
      "ichts": 4677,
      "Algor": 4678,
      "Zuschau": 4679,
      "front": 4680,
      "detwas": 4681,
      "Exp": 4682,
      "schaute": 4683,
      "Zweitens": 4684,
      "Stimmen": 4685,
      "Experimente": 4686,
      "Katastrop": 4687,
      "beruhm": 4688,
      "praktisch": 4689,
      "Kalifornien": 4690,
      "verantwortlich": 4691,
      "Wettbewer": 4692,
      "Schimpansen": 4693,
      "35": 4694,
      "Bon": 4695,
      "Mund": 4696,
      "dro": 4697,
      "tod": 4698,
      "engl": 4699,
      "weib": 4700,
      "furcht": 4701,
      "Erleb": 4702,
      "rust": 4703,
      "Austr": 4704,
      "eigent": 4705,
      "zweif": 4706,
      "Orig": 4707,
      "Landschaft": 4708,
      "experim": 4709,
      "Impf": 4710,
      "gehoren": 4711,
      "bekannten": 4712,
      "schule": 4713,
      "Offentlichkeit": 4714,
      "Metapher": 4715,
      "Dau": 4716,
      "Fig": 4717,
      "Zimmer": 4718,
      "by": 4719,
      "blichkeit": 4720,
      "deinen": 4721,
      "iegen": 4722,
      "schm": 4723,
      "gehabt": 4724,
      "Innen": 4725,
      "Verletz": 4726,
      "ingu": 4727,
      "Wash": 4728,
      "Zeitalter": 4729,
      "fuhrten": 4730,
      "rasch": 4731,
      "hauptsachlich": 4732,
      "nost": 4733,
      "wechseln": 4734,
      "September": 4735,
      "Don": 4736,
      "Mart": 4737,
      "Nan": 4738,
      "Sam": 4739,
      "disk": 4740,
      "tin": 4741,
      "beruh": 4742,
      "neg": 4743,
      "beispiel": 4744,
      "pflanzen": 4745,
      "hunderte": 4746,
      "massig": 4747,
      "erkannte": 4748,
      "Quadrat": 4749,
      "Akt": 4750,
      "Bund": 4751,
      "Bras": 4752,
      "Fett": 4753,
      "Krise": 4754,
      "Ox": 4755,
      "Rot": 4756,
      "begeg": 4757,
      "ckten": 4758,
      "reen": 4759,
      "agiert": 4760,
      "demokrat": 4761,
      "teln": 4762,
      "gebrochen": 4763,
      "sprachen": 4764,
      "letztendlich": 4765,
      "tue": 4766,
      "Ratsel": 4767,
      "angesehen": 4768,
      "Mission": 4769,
      "Gesprach": 4770,
      "industrie": 4771,
      "Satelliten": 4772,
      "3D": 4773,
      "99": 4774,
      "Liter": 4775,
      "Sens": 4776,
      "Tab": 4777,
      "Zuck": 4778,
      "misch": 4779,
      "oo": 4780,
      "erster": 4781,
      "erhoh": 4782,
      "Red": 4783,
      "schnit": 4784,
      "angene": 4785,
      "Deb": 4786,
      "offentliche": 4787,
      "Christ": 4788,
      "Professor": 4789,
      "Ech": 4790,
      "Eing": 4791,
      "hergestellt": 4792,
      "konnt": 4793,
      "wenigen": 4794,
      "gelesen": 4795,
      "springen": 4796,
      "Gehirne": 4797,
      "drin": 4798,
      "Augenblick": 4799,
      "mindestens": 4800,
      "England": 4801,
      "Michael": 4802,
      "gewisser": 4803,
      "Twitter": 4804,
      "getotet": 4805,
      "Fle": 4806,
      "Kohle": 4807,
      "Nationen": 4808,
      "Opt": 4809,
      "gs": 4810,
      "pern": 4811,
      "denk": 4812,
      "orn": 4813,
      "orien": 4814,
      "sparen": 4815,
      "Beob": 4816,
      "gesund": 4817,
      "fingen": 4818,
      "gewand": 4819,
      "Dinosaurier": 4820,
      "versuchten": 4821,
      "pret": 4822,
      "interessieren": 4823,
      "existieren": 4824,
      "probieren": 4825,
      "irgendetwas": 4826,
      "Dach": 4827,
      "Hom": 4828,
      "kolle": 4829,
      "erlebt": 4830,
      "eingesetzt": 4831,
      "verr": 4832,
      "sichten": 4833,
      "ruption": 4834,
      "Beweis": 4835,
      "ular": 4836,
      "appen": 4837,
      "agement": 4838,
      "meistens": 4839,
      "Spieler": 4840,
      "wichtigen": 4841,
      "Obwohl": 4842,
      "Folge": 4843,
      "Trend": 4844,
      "Aktivitat": 4845,
      "gespielt": 4846,
      "Washington": 4847,
      "Haufen": 4848,
      "Nation": 4849,
      "Rand": 4850,
      "ungewohn": 4851,
      "aussen": 4852,
      "ara": 4853,
      "achter": 4854,
      "bestand": 4855,
      "rede": 4856,
      "Stein": 4857,
      "Lebe": 4858,
      "gerat": 4859,
      "Stress": 4860,
      "sichtlich": 4861,
      "lustig": 4862,
      "Radio": 4863,
      "Molekul": 4864,
      "wechsel": 4865,
      "effektiv": 4866,
      "doppelt": 4867,
      "Molekule": 4868,
      "Kaffee": 4869,
      "diskut": 4870,
      "Win": 4871,
      "frie": 4872,
      "part": 4873,
      "van": 4874,
      "stam": 4875,
      "aht": 4876,
      "fugt": 4877,
      "Konn": 4878,
      "Zuhause": 4879,
      "ystemen": 4880,
      "heissen": 4881,
      "danken": 4882,
      "phil": 4883,
      "ahnliche": 4884,
      "echtigkeit": 4885,
      "Gedanke": 4886,
      "Besonder": 4887,
      "Kontin": 4888,
      "Lieblings": 4889,
      "Erkenntnis": 4890,
      "Global": 4891,
      "Dabei": 4892,
      "Gas": 4893,
      "Wellen": 4894,
      "abe": 4895,
      "wieso": 4896,
      "utt": 4897,
      "aff": 4898,
      "entworfen": 4899,
      "senden": 4900,
      "nochmal": 4901,
      "Spiegel": 4902,
      "unterscheiden": 4903,
      "ologisch": 4904,
      "erzahle": 4905,
      "welchen": 4906,
      "Abschluss": 4907,
      "verbreiten": 4908,
      "griffen": 4909,
      "Laufe": 4910,
      "Arbeiten": 4911,
      "transport": 4912,
      "nannte": 4913,
      "dritten": 4914,
      "fei": 4915,
      "armen": 4916,
      "atoren": 4917,
      "bereitet": 4918,
      "beantworten": 4919,
      "verst": 4920,
      "cker": 4921,
      "ahne": 4922,
      "ppen": 4923,
      "schneiden": 4924,
      "Anti": 4925,
      "Kombin": 4926,
      "kennung": 4927,
      "Theater": 4928,
      "Flucht": 4929,
      "Politiker": 4930,
      "Charles": 4931,
      "trieb": 4932,
      "Schwester": 4933,
      "College": 4934,
      "Dy": 4935,
      "Fell": 4936,
      "Lachen": 4937,
      "Sein": 4938,
      "Tel": 4939,
      "UN": 4940,
      "comp": 4941,
      "hoffentlich": 4942,
      "erkennt": 4943,
      "dennoch": 4944,
      "amat": 4945,
      "Schne": 4946,
      "suchte": 4947,
      "geschlagen": 4948,
      "beschleun": 4949,
      "Defin": 4950,
      "allerdings": 4951,
      "normalen": 4952,
      "wirtschaftliche": 4953,
      "Bewegungen": 4954,
      "Methoden": 4955,
      "film": 4956,
      "Astr": 4957,
      "Bein": 4958,
      "Blas": 4959,
      "Ost": 4960,
      "Show": 4961,
      "fisch": 4962,
      "hoffen": 4963,
      "lad": 4964,
      "yse": 4965,
      "schlau": 4966,
      "zuzu": 4967,
      "aufhoren": 4968,
      "etzen": 4969,
      "speich": 4970,
      "olly": 4971,
      "Mitarbeiter": 4972,
      "spielte": 4973,
      "wegs": 4974,
      "getragen": 4975,
      "Krafte": 4976,
      "alisierung": 4977,
      "bietet": 4978,
      "gruppe": 4979,
      "75": 4980,
      "Fische": 4981,
      "Niger": 4982,
      "Pfer": 4983,
      "Rie": 4984,
      "poten": 4985,
      "aust": 4986,
      "auben": 4987,
      "Ins": 4988,
      "traur": 4989,
      "untersucht": 4990,
      "geschickt": 4991,
      "Minute": 4992,
      "linken": 4993,
      "Schlaf": 4994,
      "Grossmutter": 4995,
      "legte": 4996,
      "skop": 4997,
      "ippen": 4998,
      "total": 4999,
      "Irgend": 5000,
      "Ganze": 5001,
      "Entdeckung": 5002,
      "handen": 5003,
      "preis": 5004,
      "uar": 5005,
      "erfinden": 5006,
      "erforsch": 5007,
      "vergleichen": 5008,
      "aufbauen": 5009,
      "Schwei": 5010,
      "kombin": 5011,
      "klu": 5012,
      "reiche": 5013,
      "Nachdem": 5014,
      "ica": 5015,
      "Buchstab": 5016,
      "unterschiedlich": 5017,
      "Gleiche": 5018,
      "notig": 5019,
      "komplexe": 5020,
      "kompliziert": 5021,
      "Wesent": 5022,
      "Zucker": 5023,
      "Pak": 5024,
      "pte": 5025,
      "trage": 5026,
      "tial": 5027,
      "inkt": 5028,
      "bezahlt": 5029,
      "somit": 5030,
      "entspricht": 5031,
      "Dass": 5032,
      "Insel": 5033,
      "vieler": 5034,
      "traut": 5035,
      "bares": 5036,
      "riz": 5037,
      "stimm": 5038,
      "qualitat": 5039,
      "schlage": 5040,
      "etzten": 5041,
      "gestern": 5042,
      "hore": 5043,
      "sym": 5044,
      "Robert": 5045,
      "Gegensatz": 5046,
      "Andere": 5047,
      "Eigentlich": 5048,
      "Viren": 5049,
      "spruch": 5050,
      "Cent": 5051,
      "Flas": 5052,
      "Mechan": 5053,
      "Wik": 5054,
      "flie": 5055,
      "kund": 5056,
      "angehen": 5057,
      "schien": 5058,
      "itats": 5059,
      "ettet": 5060,
      "neut": 5061,
      "George": 5062,
      "Weltraum": 5063,
      "Konse": 5064,
      "brauche": 5065,
      "genauer": 5066,
      "Vorteil": 5067,
      "Toilet": 5068,
      "Code": 5069,
      "Generationen": 5070,
      "erscheinen": 5071,
      "Trotz": 5072,
      "Folgendes": 5073,
      "Brasilien": 5074,
      "Pri": 5075,
      "Zauber": 5076,
      "zig": 5077,
      "integr": 5078,
      "geber": 5079,
      "ernahr": 5080,
      "angst": 5081,
      "Ansicht": 5082,
      "ohnen": 5083,
      "muster": 5084,
      "starten": 5085,
      "Jeden": 5086,
      "Planet": 5087,
      "krafte": 5088,
      "schlechter": 5089,
      "Netzwerke": 5090,
      "personlichen": 5091,
      "Anderson": 5092,
      "Neuro": 5093,
      "beinhal": 5094,
      "Wohlstand": 5095,
      "Francis": 5096,
      "reduzieren": 5097,
      "religio": 5098,
      "pagne": 5099,
      "Fakten": 5100,
      "Dat": 5101,
      "Krit": 5102,
      "Les": 5103,
      "MIT": 5104,
      "ird": 5105,
      "orte": 5106,
      "lebe": 5107,
      "spiegel": 5108,
      "Rechte": 5109,
      "vielfalt": 5110,
      "muse": 5111,
      "osm": 5112,
      "gebau": 5113,
      "Wieso": 5114,
      "nieman": 5115,
      "Streit": 5116,
      "Korpers": 5117,
      "bauten": 5118,
      "bekannte": 5119,
      "fahigkeit": 5120,
      "identif": 5121,
      "Operation": 5122,
      "Wahrnehmung": 5123,
      "Lebewesen": 5124,
      "stammt": 5125,
      "Jan": 5126,
      "Wetter": 5127,
      "ilen": 5128,
      "ost": 5129,
      "singen": 5130,
      "ugend": 5131,
      "ink": 5132,
      "orient": 5133,
      "School": 5134,
      "normale": 5135,
      "personliche": 5136,
      "Elektriz": 5137,
      "Islam": 5138,
      "Tests": 5139,
      "verbindet": 5140,
      "naturlichen": 5141,
      "definieren": 5142,
      "Website": 5143,
      "Times": 5144,
      "Tausende": 5145,
      "Grafik": 5146,
      "bele": 5147,
      "effizien": 5148,
      "mob": 5149,
      "organ": 5150,
      "tere": 5151,
      "verein": 5152,
      "verbrauch": 5153,
      "soc": 5154,
      "ischem": 5155,
      "entgegen": 5156,
      "wurdig": 5157,
      "ruft": 5158,
      "merken": 5159,
      "riften": 5160,
      "Ihres": 5161,
      "gehend": 5162,
      "Korruption": 5163,
      "ordnung": 5164,
      "frem": 5165,
      "Forschungs": 5166,
      "personlich": 5167,
      "Organismen": 5168,
      "Hotel": 5169,
      "Milch": 5170,
      "totyp": 5171,
      "Etwas": 5172,
      "leuchten": 5173,
      "Bri": 5174,
      "Kein": 5175,
      "Pingu": 5176,
      "Sech": 5177,
      "Sitz": 5178,
      "Zell": 5179,
      "bu": 5180,
      "zon": 5181,
      "industr": 5182,
      "entstanden": 5183,
      "Erkrank": 5184,
      "halbe": 5185,
      "kla": 5186,
      "Bestand": 5187,
      "trans": 5188,
      "kampf": 5189,
      "schland": 5190,
      "Gemeinden": 5191,
      "Normal": 5192,
      "medizinische": 5193,
      "inspiriert": 5194,
      "relativ": 5195,
      "Zuschauer": 5196,
      "Blu": 5197,
      "Hins": 5198,
      "pul": 5199,
      "ral": 5200,
      "train": 5201,
      "zunachst": 5202,
      "inf": 5203,
      "getr": 5204,
      "igsten": 5205,
      "aturen": 5206,
      "Beim": 5207,
      "Ausmass": 5208,
      "hof": 5209,
      "Elemente": 5210,
      "verbrachte": 5211,
      "verkauf": 5212,
      "umenten": 5213,
      "Prasent": 5214,
      "verschwinden": 5215,
      "analys": 5216,
      "Details": 5217,
      "Individuen": 5218,
      "Hinsicht": 5219,
      ".,": 5220,
      "Aspekt": 5221,
      "Las": 5222,
      "tauschen": 5223,
      "eindeut": 5224,
      "aub": 5225,
      "vergangen": 5226,
      "rechn": 5227,
      "vorhanden": 5228,
      "merzen": 5229,
      "angesch": 5230,
      "damer": 5231,
      "fernen": 5232,
      "moglichkeiten": 5233,
      "Interessen": 5234,
      "kurzlich": 5235,
      "spezif": 5236,
      "druben": 5237,
      "Naja": 5238,
      "moderne": 5239,
      "traditionellen": 5240,
      "grundlegende": 5241,
      "beruhrt": 5242,
      "Batter": 5243,
      "Eben": 5244,
      "Top": 5245,
      "sh": 5246,
      "san": 5247,
      "wunsch": 5248,
      "intens": 5249,
      "still": 5250,
      "enthalt": 5251,
      "Armen": 5252,
      "logen": 5253,
      "uliert": 5254,
      "graben": 5255,
      "wobei": 5256,
      "beschloss": 5257,
      "elev": 5258,
      "Klin": 5259,
      "Gerausch": 5260,
      "verblu": 5261,
      "winden": 5262,
      "Linien": 5263,
      "entdeckte": 5264,
      "Emp": 5265,
      "hilf": 5266,
      "zerstoren": 5267,
      "Peter": 5268,
      "Arbeiter": 5269,
      "Welche": 5270,
      "haften": 5271,
      "Cy": 5272,
      "Fer": 5273,
      "Hyp": 5274,
      "Jung": 5275,
      "Ner": 5276,
      "dit": 5277,
      "het": 5278,
      "kreis": 5279,
      "vard": 5280,
      "gelost": 5281,
      "vermu": 5282,
      "rote": 5283,
      "ausger": 5284,
      "auspiel": 5285,
      "Angriff": 5286,
      "Beweise": 5287,
      "duc": 5288,
      "Auff": 5289,
      "World": 5290,
      "Teen": 5291,
      "erstaunliche": 5292,
      "Sicherheits": 5293,
      "Schnitt": 5294,
      "Strategie": 5295,
      "Diskussion": 5296,
      "va": 5297,
      "enter": 5298,
      "stossen": 5299,
      "altern": 5300,
      "geandert": 5301,
      "zufrieden": 5302,
      "oler": 5303,
      "Prototyp": 5304,
      "Anim": 5305,
      "Eng": 5306,
      "Aufnahme": 5307,
      "Werbung": 5308,
      "Weile": 5309,
      "Steuer": 5310,
      "Kulturen": 5311,
      "morgens": 5312,
      "Traume": 5313,
      "notwendig": 5314,
      "Zehn": 5315,
      "Deutschland": 5316,
      "Mexiko": 5317,
      "Schwierigkeiten": 5318,
      "Adam": 5319,
      "Pass": 5320,
      "evolution": 5321,
      "hle": 5322,
      "oc": 5323,
      "zelle": 5324,
      "tele": 5325,
      "schrank": 5326,
      "ierer": 5327,
      "verw": 5328,
      "entsprechen": 5329,
      "darstellen": 5330,
      "liefern": 5331,
      "geschn": 5332,
      "langweil": 5333,
      "bli": 5334,
      "Umfeld": 5335,
      "beschlossen": 5336,
      "kurr": 5337,
      "Architekten": 5338,
      "arry": 5339,
      "studieren": 5340,
      "aufregend": 5341,
      "Zivilisation": 5342,
      "600": 5343,
      "Jem": 5344,
      "Offen": 5345,
      "Sog": 5346,
      "Tun": 5347,
      "flex": 5348,
      "klen": 5349,
      "ermut": 5350,
      "ward": 5351,
      "otionen": 5352,
      "igend": 5353,
      "ulpt": 5354,
      "Vorfahren": 5355,
      "Berechn": 5356,
      "imensionen": 5357,
      "Helden": 5358,
      "ographie": 5359,
      "verfugbar": 5360,
      "Fas": 5361,
      "Lasst": 5362,
      "Mach": 5363,
      "eure": 5364,
      "yl": 5365,
      "zos": 5366,
      "erscheint": 5367,
      "anwenden": 5368,
      "eien": 5369,
      "ausche": 5370,
      "arab": 5371,
      "abil": 5372,
      "aufgebaut": 5373,
      "malen": 5374,
      "meiste": 5375,
      "gegenwart": 5376,
      "Arbeitspl": 5377,
      "dramat": 5378,
      "Klein": 5379,
      "kurzem": 5380,
      "Emotionen": 5381,
      "beobachtet": 5382,
      "Wurz": 5383,
      "Doktor": 5384,
      "Erklarung": 5385,
      "dafrika": 5386,
      "Elektrizitat": 5387,
      "ducation": 5388,
      "Jemand": 5389,
      "Vari": 5390,
      "blieb": 5391,
      "erung": 5392,
      "unabhangig": 5393,
      "ston": 5394,
      "beziehen": 5395,
      "spat": 5396,
      "Verhaltnis": 5397,
      "Anwen": 5398,
      "besuch": 5399,
      "profit": 5400,
      "Kons": 5401,
      "music": 5402,
      "Vorstell": 5403,
      "nieder": 5404,
      "Entfern": 5405,
      "meist": 5406,
      "zweit": 5407,
      "Neben": 5408,
      "ausserst": 5409,
      "2008": 5410,
      "aufzubauen": 5411,
      "ubrig": 5412,
      "beschaftigen": 5413,
      "Chemie": 5414,
      "Thom": 5415,
      "Ernahrung": 5416,
      "Rake": 5417,
      "Wolken": 5418,
      "Hallo": 5419,
      "wesentlich": 5420,
      "Entwicklungslandern": 5421,
      "bliothe": 5422,
      "Atem": 5423,
      "mord": 5424,
      "netz": 5425,
      "ersetzen": 5426,
      "aria": 5427,
      "vermitteln": 5428,
      "woruber": 5429,
      "grossartigen": 5430,
      "wissenschaftler": 5431,
      "Gutes": 5432,
      "Chemikal": 5433,
      "annehmen": 5434,
      "Nachbarn": 5435,
      "Gewinn": 5436,
      "Zweck": 5437,
      "Australien": 5438,
      "Fellow": 5439,
      "Fliegen": 5440,
      "Lager": 5441,
      "bot": 5442,
      "kin": 5443,
      "kummer": 5444,
      "mult": 5445,
      "erwei": 5446,
      "gewissen": 5447,
      "lem": 5448,
      "best": 5449,
      "verwir": 5450,
      "ison": 5451,
      "Schatz": 5452,
      "Verbesser": 5453,
      "Verkauf": 5454,
      "Rechn": 5455,
      "baute": 5456,
      "Durchschnitt": 5457,
      "Fernseh": 5458,
      "schwarze": 5459,
      "Medikament": 5460,
      "zerstort": 5461,
      "Philosoph": 5462,
      "Bedro": 5463,
      "Kerl": 5464,
      "digitalen": 5465,
      "Riesen": 5466,
      "Sum": 5467,
      "nett": 5468,
      "arme": 5469,
      "verlang": 5470,
      "stehe": 5471,
      "vorzu": 5472,
      "brach": 5473,
      "reiten": 5474,
      "tellekt": 5475,
      "Geschlecht": 5476,
      "Zufall": 5477,
      "menschlicher": 5478,
      "Steve": 5479,
      "kehrt": 5480,
      "nutzlich": 5481,
      "blauen": 5482,
      "westlichen": 5483,
      "Air": 5484,
      "Get": 5485,
      "PS": 5486,
      "Sob": 5487,
      "Tradition": 5488,
      "Wil": 5489,
      "cre": 5490,
      "human": 5491,
      "unver": 5492,
      "schar": 5493,
      "gewe": 5494,
      "versorgung": 5495,
      "umgeben": 5496,
      "spar": 5497,
      "brill": 5498,
      "Rechen": 5499,
      "Auswahl": 5500,
      "Seele": 5501,
      "Wissens": 5502,
      "pflan": 5503,
      "beschrieben": 5504,
      "Platt": 5505,
      "Quelle": 5506,
      "Freundin": 5507,
      "Situationen": 5508,
      "Geheimnis": 5509,
      "Bahn": 5510,
      "Fischer": 5511,
      "Roll": 5512,
      "Zahn": 5513,
      "education": 5514,
      "gra": 5515,
      "prufen": 5516,
      "zwe": 5517,
      "eskop": 5518,
      "zusatz": 5519,
      "Ungleich": 5520,
      "deswegen": 5521,
      "Schlei": 5522,
      "Schaden": 5523,
      "Schatten": 5524,
      "Erwart": 5525,
      "vorne": 5526,
      "liefert": 5527,
      "Zug": 5528,
      "rucke": 5529,
      "quasi": 5530,
      "Student": 5531,
      "Stuhl": 5532,
      "Handel": 5533,
      "losigkeit": 5534,
      "diag": 5535,
      "Prim": 5536,
      "technologie": 5537,
      "boden": 5538,
      "Kurs": 5539,
      "Bereiche": 5540,
      "Post": 5541,
      "Wurde": 5542,
      "Belohn": 5543,
      "Erinnerungen": 5544,
      "Konflik": 5545,
      "Zwischen": 5546,
      "Agyp": 5547,
      "You": 5548,
      "Alex": 5549,
      "Bauch": 5550,
      "lachen": 5551,
      "ancen": 5552,
      "Stock": 5553,
      "breite": 5554,
      "kannte": 5555,
      "Einheit": 5556,
      "gering": 5557,
      "ado": 5558,
      "gelt": 5559,
      "gewor": 5560,
      "Vorher": 5561,
      "langfrist": 5562,
      "Entwur": 5563,
      "aka": 5564,
      "Nachhalt": 5565,
      "schwimmen": 5566,
      "Stufe": 5567,
      "seitdem": 5568,
      "stattdessen": 5569,
      "gewohnt": 5570,
      "mole": 5571,
      "moment": 5572,
      "Bereichen": 5573,
      "plant": 5574,
      "gebeten": 5575,
      "lokalen": 5576,
      "Signal": 5577,
      "Instrument": 5578,
      "Erfindung": 5579,
      "Statistiken": 5580,
      "vermeiden": 5581,
      "erwahnt": 5582,
      "Echtzeit": 5583,
      "Jack": 5584,
      "Open": 5585,
      "Rhy": 5586,
      "Vi": 5587,
      "Winter": 5588,
      "Zitat": 5589,
      "dis": 5590,
      "teile": 5591,
      "uben": 5592,
      "wal": 5593,
      "unken": 5594,
      "bezug": 5595,
      "verteilt": 5596,
      "weile": 5597,
      "uberwinden": 5598,
      "eucht": 5599,
      "Inspir": 5600,
      "Schauspiel": 5601,
      "Anrei": 5602,
      "Einstein": 5603,
      "trinken": 5604,
      "wissenschaften": 5605,
      "solcher": 5606,
      "dreh": 5607,
      "tags": 5608,
      "Tour": 5609,
      "Urs": 5610,
      "setzten": 5611,
      "Huhn": 5612,
      "Diagramm": 5613,
      "Okosystem": 5614,
      "Kontinent": 5615,
      "computer": 5616,
      "It": 5617,
      "Roh": 5618,
      "Tumor": 5619,
      "flug": 5620,
      "erstellt": 5621,
      "einst": 5622,
      "vermogen": 5623,
      "entstand": 5624,
      "Verlust": 5625,
      "Anteil": 5626,
      "Anwendung": 5627,
      "halter": 5628,
      "Gesamt": 5629,
      "Malaria": 5630,
      "schlechten": 5631,
      "Neues": 5632,
      "dunkle": 5633,
      "Fruh": 5634,
      "zeigten": 5635,
      "erkannt": 5636,
      "enorme": 5637,
      "fantastisch": 5638,
      "Starke": 5639,
      "schrecklich": 5640,
      "hindert": 5641,
      "karte": 5642,
      "Potential": 5643,
      "Thomas": 5644,
      "geworfen": 5645,
      "Brucke": 5646,
      "Willen": 5647,
      "Zer": 5648,
      "bereiten": 5649,
      "betro": 5650,
      "ight": 5651,
      "realen": 5652,
      "illeg": 5653,
      "Gemal": 5654,
      "hinten": 5655,
      "binden": 5656,
      "frau": 5657,
      "Element": 5658,
      "freu": 5659,
      "sprozess": 5660,
      "Geistes": 5661,
      "dynam": 5662,
      "Harvard": 5663,
      "Moral": 5664,
      "lehrt": 5665,
      "Erwachsenen": 5666,
      "Buchstaben": 5667,
      "beinhaltet": 5668,
      "Sogar": 5669,
      "Agen": 5670,
      "Lib": 5671,
      "chron": 5672,
      "gende": 5673,
      "orgt": 5674,
      "recken": 5675,
      "aucht": 5676,
      "ember": 5677,
      "hierher": 5678,
      "forman": 5679,
      "Lebenser": 5680,
      "wirklichen": 5681,
      "landen": 5682,
      "Grun": 5683,
      "ziehung": 5684,
      "Musiker": 5685,
      "Interview": 5686,
      "Komment": 5687,
      "syn": 5688,
      "NASA": 5689,
      "Kriegs": 5690,
      "material": 5691,
      "zuganglich": 5692,
      ".<<": 5693,
      "Brief": 5694,
      "Glu": 5695,
      "NS": 5696,
      "Teu": 5697,
      "Wild": 5698,
      "grei": 5699,
      "erreich": 5700,
      "urm": 5701,
      "ithmen": 5702,
      "aufs": 5703,
      "Start": 5704,
      "Gehen": 5705,
      "igem": 5706,
      "gespr": 5707,
      "Kongress": 5708,
      "Momente": 5709,
      "zusammenzu": 5710,
      "sprache": 5711,
      "Existenz": 5712,
      "Kreuz": 5713,
      "feststellen": 5714,
      "linge": 5715,
      "folgende": 5716,
      "welchem": 5717,
      "Damals": 5718,
      "verbessert": 5719,
      "Fuhrungs": 5720,
      "Ozeane": 5721,
      "Risiken": 5722,
      "elektron": 5723,
      "Gesundheitswesen": 5724,
      "enorm": 5725,
      "Galaxie": 5726,
      "Transport": 5727,
      "Kombination": 5728,
      "Ass": 5729,
      "Dutzen": 5730,
      "Koch": 5731,
      "Kuchen": 5732,
      "blu": 5733,
      "dat": 5734,
      "domin": 5735,
      "fliessen": 5736,
      "ios": 5737,
      "kogn": 5738,
      "my": 5739,
      "relev": 5740,
      "zo": 5741,
      "aufnehmen": 5742,
      "ions": 5743,
      "Gegend": 5744,
      "rankt": 5745,
      "wendet": 5746,
      "ahlung": 5747,
      "Suden": 5748,
      "beschreibt": 5749,
      "Herren": 5750,
      "Blatt": 5751,
      "196": 5752,
      "Uberrasch": 5753,
      "Verbrechen": 5754,
      "kelett": 5755,
      "unterstutzt": 5756,
      "beinahe": 5757,
      "anada": 5758,
      "internationalen": 5759,
      "archite": 5760,
      "veranderte": 5761,
      "afrikanischen": 5762,
      "Wuste": 5763,
      "Daf": 5764,
      "Dimensionen": 5765,
      "Hut": 5766,
      "Hunde": 5767,
      "Jun": 5768,
      "Sl": 5769,
      "Wech": 5770,
      "block": 5771,
      "fir": 5772,
      "ergibt": 5773,
      "inde": 5774,
      "iein": 5775,
      "gelegt": 5776,
      "versteht": 5777,
      "ollabor": 5778,
      "grunden": 5779,
      "besuchen": 5780,
      "wirkliche": 5781,
      "barer": 5782,
      "leitet": 5783,
      "Unterhaltung": 5784,
      "icro": 5785,
      "Blumen": 5786,
      "197": 5787,
      "losung": 5788,
      "Pfund": 5789,
      "Links": 5790,
      "kreativ": 5791,
      "verschm": 5792,
      "gemeinsame": 5793,
      "kreieren": 5794,
      "gruppen": 5795,
      "Ingenieur": 5796,
      "gegenseitig": 5797,
      "Definition": 5798,
      "Blau": 5799,
      "Fant": 5800,
      "Kate": 5801,
      "Mas": 5802,
      "Tausch": 5803,
      "Wein": 5804,
      "conom": 5805,
      "ep": 5806,
      "gas": 5807,
      "okonom": 5808,
      "wn": 5809,
      "anim": 5810,
      "beweisen": 5811,
      "soviel": 5812,
      "Lektion": 5813,
      "lied": 5814,
      "riechen": 5815,
      "suchten": 5816,
      "artige": 5817,
      "heira": 5818,
      "Danach": 5819,
      "ipe": 5820,
      "ips": 5821,
      "Respekt": 5822,
      "politics": 5823,
      "Leider": 5824,
      "Empf": 5825,
      "Fahrrad": 5826,
      "Skulpt": 5827,
      "Aktivitaten": 5828,
      "verwandelt": 5829,
      "burg": 5830,
      "Viertel": 5831,
      "lediglich": 5832,
      "durchschnittliche": 5833,
      "Ah": 5834,
      "Ara": 5835,
      "Aqu": 5836,
      "Eier": 5837,
      "Fast": 5838,
      "Letzt": 5839,
      "Meister": 5840,
      "Toten": 5841,
      "Vern": 5842,
      "schatz": 5843,
      "gefallt": 5844,
      "itan": 5845,
      "vertraut": 5846,
      "ubernehmen": 5847,
      "herz": 5848,
      "herein": 5849,
      "Einstellung": 5850,
      "ucke": 5851,
      "schlafen": 5852,
      "Grundlage": 5853,
      "Sprach": 5854,
      "Schuld": 5855,
      "Wow": 5856,
      "fasziniert": 5857,
      "Nieder": 5858,
      "erforscht": 5859,
      "erweitern": 5860,
      "Mult": 5861,
      "Voll": 5862,
      "Wh": 5863,
      "back": 5864,
      "odie": 5865,
      "athan": 5866,
      "itation": 5867,
      "umfassen": 5868,
      "kton": 5869,
      "konfront": 5870,
      "Schicks": 5871,
      "vorzustellen": 5872,
      "klasse": 5873,
      "trafen": 5874,
      "finder": 5875,
      "profess": 5876,
      "Mangel": 5877,
      "raume": 5878,
      "heiss": 5879,
      "okus": 5880,
      "2010": 5881,
      "horten": 5882,
      "Kampagne": 5883,
      "Afrikas": 5884,
      "unglaublichen": 5885,
      "Rock": 5886,
      "Bibliothe": 5887,
      "tiefer": 5888,
      "schwieriger": 5889,
      "blaue": 5890,
      "fehlt": 5891,
      "betrieben": 5892,
      "Stattdessen": 5893,
      "Wesentlichen": 5894,
      "23": 5895,
      "Ham": 5896,
      "Hunger": 5897,
      "Mess": 5898,
      "Richtig": 5899,
      "Skla": 5900,
      "dul": 5901,
      "gal": 5902,
      "sim": 5903,
      "angeb": 5904,
      "schut": 5905,
      "schreibt": 5906,
      "gelebt": 5907,
      "lichkeiten": 5908,
      "etc": 5909,
      "rest": 5910,
      "weissen": 5911,
      "Mengen": 5912,
      "Einen": 5913,
      "meinte": 5914,
      "luft": 5915,
      "Weih": 5916,
      "drauf": 5917,
      "betrachte": 5918,
      "Gegenwart": 5919,
      "freie": 5920,
      "Mac": 5921,
      "schauten": 5922,
      "Wirkung": 5923,
      "verstehe": 5924,
      "nose": 5925,
      "Bedurfnisse": 5926,
      "Kenia": 5927,
      "Pakistan": 5928,
      "Damen": 5929,
      "Fal": 5930,
      "Klei": 5931,
      "Kabel": 5932,
      "karten": 5933,
      "lager": 5934,
      "erhohen": 5935,
      "anc": 5936,
      "abst": 5937,
      "Uni": 5938,
      "weist": 5939,
      "ago": 5940,
      "enthalten": 5941,
      "Schritte": 5942,
      "gesamm": 5943,
      "machtig": 5944,
      "Sudafrika": 5945,
      "schlagt": 5946,
      "Deswegen": 5947,
      "Informations": 5948,
      "dahinter": 5949,
      "Fuhrer": 5950,
      "Kuste": 5951,
      "faszinierend": 5952,
      "Signale": 5953,
      "Erlebnis": 5954,
      "Prasentation": 5955,
      "Nachhaltigkeit": 5956,
      "Ehr": 5957,
      "Kuh": 5958,
      "Laut": 5959,
      "RI": 5960,
      "Zerst": 5961,
      "dieren": 5962,
      "ew": 5963,
      "fundament": 5964,
      "iPh": 5965,
      "kol": 5966,
      "klet": 5967,
      "nungs": 5968,
      "wachen": 5969,
      "zir": 5970,
      "zit": 5971,
      "zesse": 5972,
      "gegrundet": 5973,
      "elben": 5974,
      "decken": 5975,
      "ungluck": 5976,
      "umge": 5977,
      "weisse": 5978,
      "jeweil": 5979,
      "ingern": 5980,
      "Zeitung": 5981,
      "fahrer": 5982,
      "Cha": 5983,
      "hoben": 5984,
      "Bildungs": 5985,
      "iveau": 5986,
      "bedeut": 5987,
      "Absicht": 5988,
      "2007": 5989,
      "falschen": 5990,
      "positive": 5991,
      "uberraschend": 5992,
      "digitale": 5993,
      "Geburtstag": 5994,
      "Achse": 5995,
      "akzeptieren": 5996,
      "Kirche": 5997,
      "Fabrik": 5998,
      "Restaurant": 5999,
      "Chemikalien": 6000,
      "Aktion": 6001,
      "Ama": 6002,
      "Aspe": 6003,
      "Dicht": 6004,
      "Kaf": 6005,
      "Lungen": 6006,
      "Such": 6007,
      "mack": 6008,
      "vi": 6009,
      "eingesch": 6010,
      "esie": 6011,
      "ates": 6012,
      "verab": 6013,
      "entfernen": 6014,
      "Schlie": 6015,
      "Verbrauch": 6016,
      "darunter": 6017,
      "loser": 6018,
      "besagt": 6019,
      "stands": 6020,
      "spieler": 6021,
      "scheidet": 6022,
      "Gerechtigkeit": 6023,
      "Vorteile": 6024,
      "zentrum": 6025,
      "Darwin": 6026,
      "Gottes": 6027,
      "Folie": 6028,
      "Komponen": 6029,
      "Hindern": 6030,
      "perfekte": 6031,
      "liebte": 6032,
      "Webseite": 6033,
      "Stammzellen": 6034,
      "Russland": 6035,
      "eindeutig": 6036,
      "bezuglich": 6037,
      "Humor": 6038,
      "Lab": 6039,
      "Merk": 6040,
      "Wagen": 6041,
      "tats": 6042,
      "char": 6043,
      "asie": 6044,
      "wirft": 6045,
      "bevolkerung": 6046,
      "verdam": 6047,
      "ism": 6048,
      "isol": 6049,
      "enth": 6050,
      "stechn": 6051,
      "Stan": 6052,
      "ney": 6053,
      "Arab": 6054,
      "iertes": 6055,
      "blicken": 6056,
      "startet": 6057,
      "funktionierte": 6058,
      "Gerausche": 6059,
      "krimin": 6060,
      "seid": 6061,
      "Staats": 6062,
      "sorgt": 6063,
      "Stucke": 6064,
      "Wirklich": 6065,
      "antwortet": 6066,
      "Innovationen": 6067,
      "imeter": 6068,
      "Jahrzehnten": 6069,
      "internationale": 6070,
      "Untersuchung": 6071,
      "Teenager": 6072,
      "Cor": 6073,
      "Male": 6074,
      "Soll": 6075,
      "Wann": 6076,
      "fanten": 6077,
      "kuh": 6078,
      "port": 6079,
      "sur": 6080,
      "strom": 6081,
      "eid": 6082,
      "schlug": 6083,
      "schlossen": 6084,
      "gebraucht": 6085,
      "uth": 6086,
      "weisst": 6087,
      "dieselben": 6088,
      "rick": 6089,
      "Uberzeug": 6090,
      "Phase": 6091,
      "gemeinsamen": 6092,
      "Symbol": 6093,
      "moralische": 6094,
      "Wettbewerb": 6095,
      "Bundes": 6096,
      "Teleskop": 6097,
      "Nigeria": 6098,
      "Amazon": 6099,
      "Sar": 6100,
      "Tonnen": 6101,
      "Welten": 6102,
      "ps": 6103,
      "pra": 6104,
      "tauchen": 6105,
      "utern": 6106,
      "xid": 6107,
      "erhielt": 6108,
      "anfing": 6109,
      "schriften": 6110,
      "urer": 6111,
      "see": 6112,
      "behor": 6113,
      "aufgewachsen": 6114,
      "manchen": 6115,
      "Stahl": 6116,
      "Gedacht": 6117,
      "Verg": 6118,
      "Programme": 6119,
      "formt": 6120,
      "artig": 6121,
      "leib": 6122,
      "weiterer": 6123,
      "blind": 6124,
      "scheinbar": 6125,
      "willst": 6126,
      "Immer": 6127,
      "Ware": 6128,
      "Gebiete": 6129,
      "Klar": 6130,
      "wandeln": 6131,
      "Fehl": 6132,
      "stabil": 6133,
      "schaue": 6134,
      "legten": 6135,
      "Kapitel": 6136,
      "komplexen": 6137,
      "Kameras": 6138,
      "Magie": 6139,
      "streben": 6140,
      "Status": 6141,
      "Jahrzehnt": 6142,
      "bewegung": 6143,
      "super": 6144,
      "ipedia": 6145,
      "Ast": 6146,
      "DNS": 6147,
      "Fi": 6148,
      "Fu": 6149,
      "Ig": 6150,
      "Nutzung": 6151,
      "Samen": 6152,
      "Zunachst": 6153,
      "kopf": 6154,
      "richtet": 6155,
      "satze": 6156,
      "tum": 6157,
      "enten": 6158,
      "enzt": 6159,
      "uner": 6160,
      "anst": 6161,
      "ansieht": 6162,
      "einhalb": 6163,
      "ativer": 6164,
      "orungen": 6165,
      "istin": 6166,
      "berichten": 6167,
      "bestat": 6168,
      "mitglie": 6169,
      "repar": 6170,
      "besitzt": 6171,
      "provis": 6172,
      "altes": 6173,
      "Unterricht": 6174,
      "Aufnahmen": 6175,
      "Weiter": 6176,
      "Ursprung": 6177,
      "Gesichter": 6178,
      "dunkel": 6179,
      "organisieren": 6180,
      "Volker": 6181,
      "geniessen": 6182,
      "Fortschritte": 6183,
      "glaubte": 6184,
      "Mehrheit": 6185,
      "automatisch": 6186,
      "Francisco": 6187,
      "Mr": 6188,
      "Mama": 6189,
      "Ohren": 6190,
      "Sm": 6191,
      "Sur": 6192,
      "bom": 6193,
      "pel": 6194,
      "vater": 6195,
      "teste": 6196,
      "schiff": 6197,
      "schock": 6198,
      "atmen": 6199,
      "Unfall": 6200,
      "menge": 6201,
      "Argument": 6202,
      "oth": 6203,
      "dargestellt": 6204,
      "unterrichten": 6205,
      "gelang": 6206,
      "Mittag": 6207,
      "quelle": 6208,
      "Weis": 6209,
      "ahnlichen": 6210,
      "menschliches": 6211,
      "ativity": 6212,
      "nerv": 6213,
      "jener": 6214,
      "Darum": 6215,
      "Ohne": 6216,
      "Motiv": 6217,
      "lokale": 6218,
      "Billionen": 6219,
      "Locher": 6220,
      "dauerte": 6221,
      "grunen": 6222,
      "Marketing": 6223,
      "Dunkel": 6224,
      "cyc": 6225,
      "Budget": 6226,
      "geholfen": 6227,
      "beispielsweise": 6228,
      "Konsequenzen": 6229,
      "Sobald": 6230,
      "creativity": 6231,
      "Fa": 6232,
      "Kanada": 6233,
      "Lange": 6234,
      "Noten": 6235,
      "SMS": 6236,
      "bungen": 6237,
      "fakt": 6238,
      "anhand": 6239,
      "bezeichnen": 6240,
      "sowas": 6241,
      "Gedicht": 6242,
      "emin": 6243,
      "gift": 6244,
      "unteren": 6245,
      "kamer": 6246,
      "Ausstellung": 6247,
      "angenommen": 6248,
      "weltweiten": 6249,
      "folgenden": 6250,
      "verknu": 6251,
      "arbeitung": 6252,
      "schwarzen": 6253,
      "Symmet": 6254,
      "medizinischen": 6255,
      "leistungen": 6256,
      "Raume": 6257,
      "wachstum": 6258,
      "Gibt": 6259,
      "Ereignis": 6260,
      "problem": 6261,
      "Tube": 6262,
      "Homo": 6263,
      "Kart": 6264,
      "Ve": 6265,
      "europa": 6266,
      "hst": 6267,
      "pas": 6268,
      "unkten": 6269,
      "unruh": 6270,
      "ones": 6271,
      "ori": 6272,
      "eits": 6273,
      "revolution": 6274,
      "sens": 6275,
      "voran": 6276,
      "Speich": 6277,
      "bstoff": 6278,
      "wofur": 6279,
      "hnt": 6280,
      "dienst": 6281,
      "streng": 6282,
      "bemerkte": 6283,
      "kostenlos": 6284,
      "konzentriert": 6285,
      "Terrorismus": 6286,
      "Tief": 6287,
      "Asien": 6288,
      "Schliesslich": 6289,
      "Ap": 6290,
      "Hack": 6291,
      "Mel": 6292,
      "fut": 6293,
      "nack": 6294,
      "ose": 6295,
      "wuten": 6296,
      "wald": 6297,
      "abend": 6298,
      "ausgest": 6299,
      "konsum": 6300,
      "isen": 6301,
      "uberlegen": 6302,
      "werten": 6303,
      "Schad": 6304,
      "beibringen": 6305,
      "Vert": 6306,
      "Bevor": 6307,
      "male": 6308,
      "Spann": 6309,
      "Geschenk": 6310,
      "leihen": 6311,
      "lebendig": 6312,
      "heilen": 6313,
      "zipl": 6314,
      "Chic": 6315,
      "bedeute": 6316,
      "Dazu": 6317,
      "grundsatzlich": 6318,
      "Computern": 6319,
      "issionen": 6320,
      "Presse": 6321,
      "linie": 6322,
      "stoffen": 6323,
      "Elefanten": 6324,
      "Pflege": 6325,
      "dichte": 6326,
      "gesamt": 6327,
      "ifiz": 6328,
      "visu": 6329,
      "Mikroben": 6330,
      "Erdbe": 6331,
      "Armee": 6332,
      "Klassenzimmer": 6333,
      "Illus": 6334,
      "Literatur": 6335,
      "Vorstellungskraft": 6336,
      "Dafur": 6337,
      "22": 6338,
      "Beute": 6339,
      "Center": 6340,
      "Micro": 6341,
      "Nase": 6342,
      "Pu": 6343,
      "live": 6344,
      "mikro": 6345,
      "misst": 6346,
      "nei": 6347,
      "erweiter": 6348,
      "einiges": 6349,
      "bekomme": 6350,
      "bricht": 6351,
      "Anstatt": 6352,
      "darstellt": 6353,
      "zepte": 6354,
      "ullen": 6355,
      "zweimal": 6356,
      "besseres": 6357,
      "Chancen": 6358,
      "Markte": 6359,
      "Phot": 6360,
      "Geruch": 6361,
      "ordin": 6362,
      "Quellen": 6363,
      "Gemeinschaften": 6364,
      "taglichen": 6365,
      "Darstellung": 6366,
      "biot": 6367,
      "bucher": 6368,
      "beobachte": 6369,
      "betreiben": 6370,
      "planen": 6371,
      "Sternen": 6372,
      "kontrolliert": 6373,
      "Physiker": 6374,
      "Prinzipien": 6375,
      "behaupten": 6376,
      "Resultat": 6377,
      "Nervenz": 6378,
      "Inspiration": 6379,
      "profession": 6380,
      "Ac": 6381,
      "DH": 6382,
      "Fokus": 6383,
      "GPS": 6384,
      "MM": 6385,
      "Mand": 6386,
      "Okt": 6387,
      "Wahlen": 6388,
      "fein": 6389,
      "iam": 6390,
      "wisst": 6391,
      "unabhang": 6392,
      "schad": 6393,
      "schmerz": 6394,
      "olf": 6395,
      "bezogen": 6396,
      "Verwand": 6397,
      "zenz": 6398,
      "Anfuhrer": 6399,
      "End": 6400,
      "Weltkrieg": 6401,
      "Grippe": 6402,
      "stero": 6403,
      "leichter": 6404,
      "anthrop": 6405,
      "Vorstellungen": 6406,
      "Mittler": 6407,
      "Mode": 6408,
      "teilweise": 6409,
      "Extre": 6410,
      "Boston": 6411,
      "holz": 6412,
      "sichtbar": 6413,
      "kreativen": 6414,
      "tausenden": 6415,
      "verschwunden": 6416,
      "versteckt": 6417,
      "leistung": 6418,
      "athie": 6419,
      "speziellen": 6420,
      "Faktor": 6421,
      "Epidemie": 6422,
      "Verbreitung": 6423,
      "Wikipedia": 6424,
      "YouTube": 6425,
      "Gemalde": 6426,
      "iPhone": 6427,
      "Mamm": 6428,
      "Os": 6429,
      "Pho": 6430,
      "Stern": 6431,
      "fliegt": 6432,
      "mm": 6433,
      "punkte": 6434,
      "erwachsen": 6435,
      "stir": 6436,
      "ores": 6437,
      "oret": 6438,
      "wartet": 6439,
      "warmung": 6440,
      "aham": 6441,
      "uberein": 6442,
      "werken": 6443,
      "Verstehen": 6444,
      "otter": 6445,
      "Bevolker": 6446,
      "hinunter": 6447,
      "geschwindigkeit": 6448,
      "echnet": 6449,
      "zusammenarbeiten": 6450,
      "que": 6451,
      "Bericht": 6452,
      "solange": 6453,
      "Kindes": 6454,
      "Quanten": 6455,
      "Spielzeug": 6456,
      "sozial": 6457,
      "Versuche": 6458,
      "bedeutend": 6459,
      "katastrop": 6460,
      "Bomben": 6461,
      "Algorithmen": 6462,
      "Optim": 6463,
      "ollywood": 6464,
      "molekul": 6465,
      "Teufel": 6466,
      "Wechsel": 6467,
      "Chaos": 6468,
      "tatsach": 6469,
      "\"]": 6470,
      "1000": 6471,
      "27": 6472,
      "Bor": 6473,
      "Fro": 6474,
      "Gal": 6475,
      "Lam": 6476,
      "[\"": 6477,
      "aster": 6478,
      "dokument": 6479,
      "ronen": 6480,
      "voneinander": 6481,
      "omet": 6482,
      "anderte": 6483,
      "Schalt": 6484,
      "reissen": 6485,
      "half": 6486,
      "Leon": 6487,
      "vieles": 6488,
      "traum": 6489,
      "durchfuhren": 6490,
      "akte": 6491,
      "worauf": 6492,
      "Abfall": 6493,
      "eitete": 6494,
      "Strand": 6495,
      "schliesst": 6496,
      "bilder": 6497,
      "bildet": 6498,
      "waltigen": 6499,
      "region": 6500,
      "Elektron": 6501,
      "antwortete": 6502,
      "Sympt": 6503,
      "Ruhe": 6504,
      "kunstler": 6505,
      "Ereignisse": 6506,
      "Hilfs": 6507,
      "hiess": 6508,
      "Nerven": 6509,
      "Schicksal": 6510,
      "Cart": 6511,
      "Flie": 6512,
      "Knie": 6513,
      "fair": 6514,
      "identen": 6515,
      "nommen": 6516,
      "yo": 6517,
      "geteilt": 6518,
      "itzer": 6519,
      "verhalt": 6520,
      "umb": 6521,
      "umher": 6522,
      "demonstr": 6523,
      "Initi": 6524,
      "trat": 6525,
      "Span": 6526,
      "obel": 6527,
      "hinauf": 6528,
      "heorie": 6529,
      "geraten": 6530,
      "grune": 6531,
      "echnen": 6532,
      "einfaches": 6533,
      "starben": 6534,
      "Handys": 6535,
      "ahnsinn": 6536,
      "Kla": 6537,
      "University": 6538,
      "mittels": 6539,
      "2005": 6540,
      "winkel": 6541,
      "biology": 6542,
      "Schlacht": 6543,
      "ordentlich": 6544,
      "Gesichts": 6545,
      "Island": 6546,
      "Wachstums": 6547,
      "ymp": 6548,
      "Krieges": 6549,
      "sogenannte": 6550,
      "Martin": 6551,
      "Schnee": 6552,
      "Entfernung": 6553,
      "Gedachtnis": 6554,
      "Weisheit": 6555,
      "Hon": 6556,
      "Hat": 6557,
      "Pollen": 6558,
      "Treib": 6559,
      "cin": 6560,
      "change": 6561,
      "strate": 6562,
      "eiter": 6563,
      "derer": 6564,
      "derselben": 6565,
      "onien": 6566,
      "abet": 6567,
      "beenden": 6568,
      "warf": 6569,
      "mant": 6570,
      "furs": 6571,
      "Schau": 6572,
      "vorbereitet": 6573,
      "brid": 6574,
      "nachgedacht": 6575,
      "Andre": 6576,
      "Rezept": 6577,
      "durchzu": 6578,
      "geleitet": 6579,
      "besorgt": 6580,
      "musikal": 6581,
      "Vorgang": 6582,
      "okuss": 6583,
      "Regionen": 6584,
      "Box": 6585,
      "Wahrscheinlich": 6586,
      "Krimin": 6587,
      "wunderschon": 6588,
      "bekampfen": 6589,
      "langsamer": 6590,
      "physikal": 6591,
      "weshalb": 6592,
      "knall": 6593,
      "Jahrzehnte": 6594,
      "Entdeckungen": 6595,
      "verglichen": 6596,
      "militar": 6597,
      "Aussage": 6598,
      "Frankreich": 6599,
      "Depression": 6600,
      "sperson": 6601,
      "Debatte": 6602,
      "betroffen": 6603,
      "Chicago": 6604,
      "Klavier": 6605,
      "BM": 6606,
      "Barr": 6607,
      "Hem": 6608,
      "dungs": 6609,
      "mau": 6610,
      "unmittel": 6611,
      "arkt": 6612,
      "gefahren": 6613,
      "lehren": 6614,
      "bezeichnet": 6615,
      "beherr": 6616,
      "lenken": 6617,
      "andid": 6618,
      "ish": 6619,
      "uberqu": 6620,
      "reibung": 6621,
      "Einblick": 6622,
      "low": 6623,
      "besessen": 6624,
      "schiessen": 6625,
      "zielen": 6626,
      "ktivitat": 6627,
      "Besuch": 6628,
      "Schweden": 6629,
      "definiert": 6630,
      "Psychologie": 6631,
      "inspirieren": 6632,
      "ernsthaft": 6633,
      "Street": 6634,
      "Flugel": 6635,
      "Hunderte": 6636,
      "formance": 6637,
      "Uberraschung": 6638,
      "Kleidung": 6639,
      "65": 6640,
      "Astero": 6641,
      "Koll": 6642,
      "Lat": 6643,
      "Tan": 6644,
      "ea": 6645,
      "eck": 6646,
      "fran": 6647,
      "ius": 6648,
      "erg": 6649,
      "ichen": 6650,
      "anschaut": 6651,
      "genugend": 6652,
      "seher": 6653,
      "legend": 6654,
      "ausgesetzt": 6655,
      "Gemuse": 6656,
      "ffer": 6657,
      "rast": 6658,
      "Annahme": 6659,
      "wid": 6660,
      "unterhalt": 6661,
      "same": 6662,
      "woher": 6663,
      "zwungen": 6664,
      "Regierungs": 6665,
      "wenigstens": 6666,
      "Dipl": 6667,
      "offenen": 6668,
      "General": 6669,
      "Freiwill": 6670,
      "oberflache": 6671,
      "Sonnenlicht": 6672,
      "versorgen": 6673,
      "leistungs": 6674,
      "kulturelle": 6675,
      "Proteine": 6676,
      "scheinend": 6677,
      "Potenzial": 6678,
      "gekauft": 6679,
      "Feind": 6680,
      "Training": 6681,
      "experiment": 6682,
      "Lebenserwart": 6683,
      "conomics": 6684,
      "250": 6685,
      "DA": 6686,
      "Frie": 6687,
      "Futter": 6688,
      "Laufen": 6689,
      "Mem": 6690,
      "Ros": 6691,
      "Send": 6692,
      "Tin": 6693,
      "Witz": 6694,
      "cm": 6695,
      "ds": 6696,
      "dick": 6697,
      "fass": 6698,
      "gol": 6699,
      "kalt": 6700,
      "anischen": 6701,
      "station": 6702,
      "ony": 6703,
      "gelegen": 6704,
      "atom": 6705,
      "able": 6706,
      "wehr": 6707,
      "neugier": 6708,
      "selbstverstandlich": 6709,
      "Seh": 6710,
      "Sequenz": 6711,
      "zwingen": 6712,
      "einzeln": 6713,
      "irgendeine": 6714,
      "irgendjemand": 6715,
      "grundlegend": 6716,
      "gemeinschaft": 6717,
      "ktiven": 6718,
      "Kurve": 6719,
      "Sauget": 6720,
      "Eisen": 6721,
      "Teams": 6722,
      "kuste": 6723,
      "Heim": 6724,
      "Sichtweise": 6725,
      "zunehmend": 6726,
      "Carol": 6727,
      "respekt": 6728,
      "umzugehen": 6729,
      "elektrische": 6730,
      "Taschen": 6731,
      "geregt": 6732,
      "bemerkenswert": 6733,
      "stoppen": 6734,
      "geschnitten": 6735,
      "ieinhalb": 6736,
      "Akte": 6737,
      "Bang": 6738,
      "CD": 6739,
      "Ehem": 6740,
      "Fert": 6741,
      "Glet": 6742,
      "Lad": 6743,
      "Machen": 6744,
      "PA": 6745,
      "Rett": 6746,
      "Woh": 6747,
      "bir": 6748,
      "ise": 6749,
      "sign": 6750,
      "onent": 6751,
      "schicht": 6752,
      "soft": 6753,
      "ets": 6754,
      "manip": 6755,
      "Schicht": 6756,
      "wahrnehmen": 6757,
      "Wegen": 6758,
      "volles": 6759,
      "woran": 6760,
      "Abhang": 6761,
      "Amerikan": 6762,
      "biologische": 6763,
      "Flache": 6764,
      "Gebauden": 6765,
      "these": 6766,
      "lussendlich": 6767,
      "speziell": 6768,
      "Erwachsene": 6769,
      "Kreislauf": 6770,
      "ffizienz": 6771,
      "Instrumente": 6772,
      "rustung": 6773,
      "begegnen": 6774,
      "damerika": 6775,
      "Rhyth": 6776,
      "Beit": 6777,
      "Dial": 6778,
      "Lau": 6779,
      "Sing": 6780,
      "zz": 6781,
      "erte": 6782,
      "intellekt": 6783,
      "stuhl": 6784,
      "eingeladen": 6785,
      "seht": 6786,
      "verdient": 6787,
      "ausdruck": 6788,
      "Infe": 6789,
      "Angeb": 6790,
      "Level": 6791,
      "Aust": 6792,
      "gelangt": 6793,
      "sterblichkeit": 6794,
      "geschaft": 6795,
      "Sozi": 6796,
      "lebenden": 6797,
      "letzter": 6798,
      "2009": 6799,
      "Atlant": 6800,
      "Anderungen": 6801,
      "medic": 6802,
      "stucke": 6803,
      "Higgs": 6804,
      "tanzen": 6805,
      "trug": 6806,
      "traurig": 6807,
      "vergangenen": 6808,
      "Cyber": 6809,
      "Erwartungen": 6810,
      "Bord": 6811,
      "Ghan": 6812,
      "Nad": 6813,
      "TV": 6814,
      "Zy": 6815,
      "deiner": 6816,
      "economics": 6817,
      "gin": 6818,
      "mischen": 6819,
      "por": 6820,
      "systeme": 6821,
      "ergeben": 6822,
      "alent": 6823,
      "schuss": 6824,
      "veroffentlichen": 6825,
      "aufgeregt": 6826,
      "ausgeben": 6827,
      "aften": 6828,
      "Stimm": 6829,
      "klang": 6830,
      "gesucht": 6831,
      "Zeitraum": 6832,
      "Geschmack": 6833,
      "wovon": 6834,
      "Konsum": 6835,
      "izont": 6836,
      "gebiet": 6837,
      "standige": 6838,
      "fressen": 6839,
      "Aufbau": 6840,
      "Herstellung": 6841,
      "sicherheit": 6842,
      "dian": 6843,
      "Gericht": 6844,
      "mittelt": 6845,
      "wunderbaren": 6846,
      "Obama": 6847,
      "anzusehen": 6848,
      "Metall": 6849,
      "durfte": 6850,
      "Yorker": 6851,
      "hai": 6852,
      "Alters": 6853,
      "Krankenhauser": 6854,
      "basierend": 6855,
      "knapp": 6856,
      "sexuelle": 6857,
      "Ganzen": 6858,
      "reduziert": 6859,
      "Ingenieure": 6860,
      "aussergewohnlich": 6861,
      "Tiefe": 6862,
      "Angeles": 6863,
      "beteiligt": 6864,
      "ernahren": 6865,
      "Bibliothek": 6866,
      "Zerstorung": 6867,
      "Bevolkerungs": 6868,
      "Fusse": 6869,
      "Ka": 6870,
      "MA": 6871,
      "Ment": 6872,
      "PC": 6873,
      "Ruf": 6874,
      "Skelett": 6875,
      "dach": 6876,
      "king": 6877,
      "messer": 6878,
      "risk": 6879,
      "erfullen": 6880,
      "anhalten": 6881,
      "schritt": 6882,
      "schrieben": 6883,
      "bewirken": 6884,
      "reagiert": 6885,
      "kont": 6886,
      "ikations": 6887,
      "Verlauf": 6888,
      "angs": 6889,
      "Best": 6890,
      "gesetz": 6891,
      "Geschafte": 6892,
      "riff": 6893,
      "gebunden": 6894,
      "Entschul": 6895,
      "Mannchen": 6896,
      "Stud": 6897,
      "Personlichkeit": 6898,
      "Schuhe": 6899,
      "Decke": 6900,
      "verliert": 6901,
      "folgendes": 6902,
      "Darauf": 6903,
      "kreative": 6904,
      "magnet": 6905,
      "Zweifel": 6906,
      "visuelle": 6907,
      "own": 6908,
      "Mathematiker": 6909,
      "naja": 6910,
      "Sonnensystem": 6911,
      "verursachen": 6912,
      "moralischen": 6913,
      "begrenzt": 6914,
      "operation": 6915,
      "grundlegenden": 6916,
      "commun": 6917,
      "Dynam": 6918,
      "Belohnung": 6919,
      "Aspekte": 6920,
      "bedeutete": 6921,
      "Erdbeben": 6922,
      "Bay": 6923,
      "Dsch": 6924,
      "Kauf": 6925,
      "Mig": 6926,
      "Okon": 6927,
      "flekt": 6928,
      "ris": 6929,
      "wil": 6930,
      "wem": 6931,
      "wellen": 6932,
      "zert": 6933,
      "ender": 6934,
      "erneut": 6935,
      "eidet": 6936,
      "argument": 6937,
      "zugeben": 6938,
      "ela": 6939,
      "ities": 6940,
      "veroffentlich": 6941,
      "agte": 6942,
      "Schach": 6943,
      "Scham": 6944,
      "Schreiben": 6945,
      "Erste": 6946,
      "unterwegs": 6947,
      "gerufen": 6948,
      "sonder": 6949,
      "Kongo": 6950,
      "chester": 6951,
      "begreifen": 6952,
      "Teilnehmer": 6953,
      "Berge": 6954,
      "insbesondere": 6955,
      "zeichnungen": 6956,
      "technischen": 6957,
      "Afrikaner": 6958,
      "Gegenden": 6959,
      "Richtungen": 6960,
      "eignet": 6961,
      "Anders": 6962,
      "Heut": 6963,
      "Neugier": 6964,
      "ografie": 6965,
      "Gleichgewicht": 6966,
      "Dame": 6967,
      "Science": 6968,
      "kaufte": 6969,
      "Industr": 6970,
      "spezielle": 6971,
      "nugen": 6972,
      "nannten": 6973,
      "Stiftung": 6974,
      "erhoht": 6975,
      "momentan": 6976,
      "gesammelt": 6977,
      "Lebenserwartung": 6978,
      "Bob": 6979,
      "Bran": 6980,
      "Camp": 6981,
      "Misch": 6982,
      "Moder": 6983,
      "Shir": 6984,
      "Systemen": 6985,
      "Up": 6986,
      "Ubr": 6987,
      "Var": 6988,
      "act": 6989,
      "digkeit": 6990,
      "viert": 6991,
      "angeht": 6992,
      "beunruh": 6993,
      "ros": 6994,
      "entfern": 6995,
      "Schle": 6996,
      "Erinnern": 6997,
      "Erfinder": 6998,
      "rug": 6999,
      "Verwendung": 7000,
      "zurecht": 7001,
      "gert": 7002,
      "garant": 7003,
      "dreidimension": 7004,
      "ict": 7005,
      "Designs": 7006,
      "Paris": 7007,
      "Daruber": 7008,
      "Feed": 7009,
      "hinterlassen": 7010,
      "korre": 7011,
      "Haiti": 7012,
      "auscht": 7013,
      "Rechts": 7014,
      "burger": 7015,
      "fantastische": 7016,
      "studiert": 7017,
      "seltsame": 7018,
      "ffekte": 7019,
      "Serie": 7020,
      "Analyse": 7021,
      "Projekten": 7022,
      "niemanden": 7023,
      "Bedrohung": 7024,
      "Agypten": 7025,
      "Ehemann": 7026,
      "Acht": 7027,
      "Cal": 7028,
      "Dokument": 7029,
      "Ritu": 7030,
      "Zahne": 7031,
      "beln": 7032,
      "fokuss": 7033,
      "hind": 7034,
      "iP": 7035,
      "packen": 7036,
      "sassen": 7037,
      "erfassen": 7038,
      "ichtete": 7039,
      "verkehr": 7040,
      "Uns": 7041,
      "ausbr": 7042,
      "Schild": 7043,
      "Schmerzen": 7044,
      "jeg": 7045,
      "Behinder": 7046,
      "gerung": 7047,
      "prozess": 7048,
      "leiter": 7049,
      "Aufstieg": 7050,
      "qual": 7051,
      "Problems": 7052,
      "Studio": 7053,
      "interessanten": 7054,
      "digital": 7055,
      "Wissenschaftlern": 7056,
      "landlichen": 7057,
      "produkt": 7058,
      "produktion": 7059,
      "Biom": 7060,
      "Bibel": 7061,
      "Diabet": 7062,
      "Fahrer": 7063,
      "bedro": 7064,
      "Joe": 7065,
      "schliessend": 7066,
      "oberen": 7067,
      "organisiert": 7068,
      "hinzufugen": 7069,
      "Terroristen": 7070,
      "Brustkrebs": 7071,
      "Inneren": 7072,
      "eigentliche": 7073,
      "Normalerweise": 7074,
      "wunschte": 7075,
      "Plattform": 7076,
      "diagnost": 7077,
      "konfrontiert": 7078,
      "Dunkelheit": 7079,
      "Ghana": 7080,
      "Heutzutage": 7081,
      "Cam": 7082,
      "Kra": 7083,
      "Niveau": 7084,
      "azin": 7085,
      "cle": 7086,
      "diger": 7087,
      "fung": 7088,
      "ham": 7089,
      "pum": 7090,
      "vierte": 7091,
      "erhe": 7092,
      "eingefuhrt": 7093,
      "leer": 7094,
      "beruck": 7095,
      "bewahren": 7096,
      "verfolgt": 7097,
      "ahm": 7098,
      "spaten": 7099,
      "Indem": 7100,
      "beigebracht": 7101,
      "elles": 7102,
      "ots": 7103,
      "Leber": 7104,
      "alley": 7105,
      "wiederholen": 7106,
      "Umstanden": 7107,
      "klaren": 7108,
      "Plotzlich": 7109,
      "druckend": 7110,
      "kurzer": 7111,
      "Systems": 7112,
      "Chinesen": 7113,
      "schwierige": 7114,
      "metho": 7115,
      "sproble": 7116,
      "glaubten": 7117,
      "begrenz": 7118,
      "motor": 7119,
      "genetische": 7120,
      "Liebling": 7121,
      "exponent": 7122,
      "Innerhalb": 7123,
      "William": 7124,
      "BIP": 7125,
      "Mosk": 7126,
      "800": 7127,
      "DU": 7128,
      "Sagen": 7129,
      "fone": 7130,
      "ias": 7131,
      "nern": 7132,
      "pop": 7133,
      "simp": 7134,
      "xis": 7135,
      "zukommen": 7136,
      "verletz": 7137,
      "aufnahme": 7138,
      "ausdrucken": 7139,
      "allgemein": 7140,
      "Gebrauch": 7141,
      "machst": 7142,
      "iens": 7143,
      "vielmehr": 7144,
      "mehreren": 7145,
      "besucht": 7146,
      "Vorschlag": 7147,
      "Ausgang": 7148,
      "Marken": 7149,
      "angemessen": 7150,
      "Wasserstoff": 7151,
      "aktive": 7152,
      "zentrale": 7153,
      "Unternehmens": 7154,
      "biologischen": 7155,
      "sammlung": 7156,
      "Haie": 7157,
      "lernten": 7158,
      "beruhren": 7159,
      "Treffen": 7160,
      "winzig": 7161,
      "Faktoren": 7162,
      "chemische": 7163,
      "Angelegen": 7164,
      "Denkweise": 7165,
      "Spektrum": 7166,
      "Mobiltele": 7167,
      "beruhmt": 7168,
      "social": 7169,
      "Batterie": 7170,
      "besuchte": 7171,
      "Konflikte": 7172,
      "drehte": 7173,
      "Juni": 7174,
      "AB": 7175,
      "Block": 7176,
      "Euch": 7177,
      "Guten": 7178,
      "Horen": 7179,
      "Hohlen": 7180,
      "Nobel": 7181,
      "Ront": 7182,
      "Sn": 7183,
      "Wa": 7184,
      "hass": 7185,
      "kette": 7186,
      "neigen": 7187,
      "tur": 7188,
      "erkennung": 7189,
      "anpassen": 7190,
      "gestartet": 7191,
      "imit": 7192,
      "waschen": 7193,
      "Schok": 7194,
      "vorsichtig": 7195,
      "erneuer": 7196,
      "Anruf": 7197,
      "Einrichtungen": 7198,
      "Spinnen": 7199,
      "gerettet": 7200,
      "samen": 7201,
      "projekt": 7202,
      "Konstru": 7203,
      "interpret": 7204,
      "reicher": 7205,
      "enseits": 7206,
      "strasse": 7207,
      "utzer": 7208,
      "nunft": 7209,
      "letzen": 7210,
      "wortlich": 7211,
      "linien": 7212,
      "sorge": 7213,
      "Leiter": 7214,
      "Eigenschaft": 7215,
      "Neuigkeiten": 7216,
      "Polio": 7217,
      "ivileg": 7218,
      "80ern": 7219,
      "entscheidend": 7220,
      "prasentiert": 7221,
      "anspru": 7222,
      "schreiten": 7223,
      "Nachbarschaft": 7224,
      "zifik": 7225,
      "leidenschaft": 7226,
      "Chef": 7227,
      "philosoph": 7228,
      "Pinguine": 7229,
      "Hypoth": 7230,
      "langweilig": 7231,
      "heiratet": 7232,
      "Vertei": 7233,
      "26": 7234,
      "BG": 7235,
      "Bier": 7236,
      "Ei": 7237,
      "Jud": 7238,
      "Kuche": 7239,
      "Live": 7240,
      "Lacheln": 7241,
      "Smit": 7242,
      "bast": 7243,
      "deinem": 7244,
      "effiz": 7245,
      "fig": 7246,
      "sun": 7247,
      "stunden": 7248,
      "stoss": 7249,
      "schte": 7250,
      "soweit": 7251,
      "mitnehmen": 7252,
      "ausmachen": 7253,
      "wieviel": 7254,
      "isierte": 7255,
      "spart": 7256,
      "ikale": 7257,
      "Aller": 7258,
      "lod": 7259,
      "ulle": 7260,
      "suche": 7261,
      "Voraus": 7262,
      "ppich": 7263,
      "worum": 7264,
      "Marke": 7265,
      "1960": 7266,
      "verlass": 7267,
      "Karik": 7268,
      "besonderen": 7269,
      "Schulter": 7270,
      "offene": 7271,
      "hohere": 7272,
      "winzigen": 7273,
      "Schwarz": 7274,
      "install": 7275,
      "ursprunglich": 7276,
      "grundete": 7277,
      "regelmassig": 7278,
      "Direkt": 7279,
      "wutend": 7280,
      "stirbt": 7281,
      "Carto": 7282,
      "28": 7283,
      "Dur": 7284,
      "Mun": 7285,
      "Mio": 7286,
      "baum": 7287,
      "gult": 7288,
      "hafen": 7289,
      "kind": 7290,
      "kart": 7291,
      "mp": 7292,
      "rien": 7293,
      "sud": 7294,
      "xim": 7295,
      "erh": 7296,
      "stock": 7297,
      "berechnen": 7298,
      "aufgaben": 7299,
      "annte": 7300,
      "regen": 7301,
      "afel": 7302,
      "usion": 7303,
      "Proben": 7304,
      "ota": 7305,
      "ulare": 7306,
      "Enkel": 7307,
      "gerichtet": 7308,
      "lugen": 7309,
      "artigen": 7310,
      "ologischer": 7311,
      "wahrschein": 7312,
      "ildren": 7313,
      "Subst": 7314,
      "grosst": 7315,
      "ohnt": 7316,
      "teilte": 7317,
      "Autom": 7318,
      "Autismus": 7319,
      "flog": 7320,
      "Reisen": 7321,
      "dire": 7322,
      "rechnen": 7323,
      "Theorien": 7324,
      "verschiedener": 7325,
      "rennen": 7326,
      "Emissionen": 7327,
      "Fahrzeug": 7328,
      "erklarte": 7329,
      "Saal": 7330,
      "Massnahmen": 7331,
      "Kugel": 7332,
      "Drucker": 7333,
      "yram": 7334,
      "dankbar": 7335,
      "sogenannten": 7336,
      "Einfachheit": 7337,
      "schnittlich": 7338,
      "Sechs": 7339,
      "Italien": 7340,
      "Vergnugen": 7341,
      "franzos": 7342,
      "Okonomen": 7343,
      "Rontgen": 7344,
      "Apfel": 7345,
      "Benz": 7346,
      "Ky": 7347,
      "Kommen": 7348,
      "Mi": 7349,
      "Nov": 7350,
      "Vie": 7351,
      "ahen": 7352,
      "bchen": 7353,
      "fo": 7354,
      "foss": 7355,
      "kod": 7356,
      "krise": 7357,
      "pal": 7358,
      "rollen": 7359,
      "sub": 7360,
      "ya": 7361,
      "indet": 7362,
      "derung": 7363,
      "ire": 7364,
      "arzt": 7365,
      "arenz": 7366,
      "geheim": 7367,
      "lichem": 7368,
      "bemu": 7369,
      "vernunft": 7370,
      "indischen": 7371,
      "Gefangen": 7372,
      "vorhin": 7373,
      "bran": 7374,
      "Anstieg": 7375,
      "appt": 7376,
      "Suss": 7377,
      "beitragen": 7378,
      "zuruckkehren": 7379,
      "ody": 7380,
      "Imm": 7381,
      "iffer": 7382,
      "weltweite": 7383,
      "Reihen": 7384,
      "2006": 7385,
      "fruhe": 7386,
      "jenen": 7387,
      "Beton": 7388,
      "glucklicher": 7389,
      "Richtige": 7390,
      "thet": 7391,
      "Turk": 7392,
      "erwahnen": 7393,
      "Prasidenten": 7394,
      "Fruher": 7395,
      "investiert": 7396,
      "melzen": 7397,
      "harte": 7398,
      "elektrischen": 7399,
      "Katastrophe": 7400,
      "Figur": 7401,
      "Trotzdem": 7402,
      "identifizieren": 7403,
      "getrennt": 7404,
      "Anwendungen": 7405,
      "Fellows": 7406,
      "Gluh": 7407,
      "Microsoft": 7408,
      "MMY": 7409,
      "DUMMY": 7410,
      "29": 7411,
      "Act": 7412,
      "Base": 7413,
      "Effizienz": 7414,
      "Hur": 7415,
      "Hitze": 7416,
      "Kenn": 7417,
      "Ohr": 7418,
      "Rollen": 7419,
      "Wen": 7420,
      "Wut": 7421,
      "fache": 7422,
      "last": 7423,
      "lacher": 7424,
      "nord": 7425,
      "waffen": 7426,
      "univers": 7427,
      "denselben": 7428,
      "zufall": 7429,
      "bewahr": 7430,
      "verpf": 7431,
      "Stil": 7432,
      "Inseln": 7433,
      "brain": 7434,
      "rufe": 7435,
      "merkt": 7436,
      "dazwischen": 7437,
      "gesunder": 7438,
      "Medium": 7439,
      "Sub": 7440,
      "zuruckgehen": 7441,
      "kurs": 7442,
      "aktuelle": 7443,
      "ruppen": 7444,
      "Kredit": 7445,
      "wunderschone": 7446,
      "Tee": 7447,
      "Pflan": 7448,
      "Flachen": 7449,
      "Alltag": 7450,
      "Flughafen": 7451,
      "riesiges": 7452,
      "aktiven": 7453,
      "dunklen": 7454,
      "Erfolgs": 7455,
      "itiven": 7456,
      "probiert": 7457,
      "traditionelle": 7458,
      "beeindrucken": 7459,
      "Life": 7460,
      "ruhig": 7461,
      "Szene": 7462,
      "Mitglieder": 7463,
      "ignorieren": 7464,
      "Daumen": 7465,
      "fliesst": 7466,
      "infiziert": 7467,
      "arabischen": 7468,
      "Konsumenten": 7469,
      "Ungleichheit": 7470,
      "nervos": 7471,
      "Smith": 7472,
      "120": 7473,
      "32": 7474,
      "700": 7475,
      "Abr": 7476,
      "Kuhl": 7477,
      "Matt": 7478,
      "No": 7479,
      "Nar": 7480,
      "Trei": 7481,
      "Valley": 7482,
      "brech": 7483,
      "fange": 7484,
      "hur": 7485,
      "haufen": 7486,
      "kal": 7487,
      "koh": 7488,
      "zun": 7489,
      "orten": 7490,
      "verur": 7491,
      "romant": 7492,
      "etik": 7493,
      "benutze": 7494,
      "reflekt": 7495,
      "konne": 7496,
      "islam": 7497,
      "stehung": 7498,
      "Verfahren": 7499,
      "klop": 7500,
      "trennen": 7501,
      "Weltbevolkerung": 7502,
      "osh": 7503,
      "beseit": 7504,
      "gewann": 7505,
      "standard": 7506,
      "Sour": 7507,
      "garten": 7508,
      "Techniken": 7509,
      "schwach": 7510,
      "teilten": 7511,
      "starkt": 7512,
      "Impul": 7513,
      "Gebieten": 7514,
      "1990": 7515,
      "Phant": 7516,
      "Buchern": 7517,
      "ischerweise": 7518,
      "hochsten": 7519,
      "zeichnete": 7520,
      "wundervolle": 7521,
      "Atomen": 7522,
      "Brun": 7523,
      "Abenteuer": 7524,
      "Protein": 7525,
      "Walder": 7526,
      "Investitionen": 7527,
      "mittlerweile": 7528,
      "emotionale": 7529,
      "Delfin": 7530,
      "Organe": 7531,
      "chinesische": 7532,
      "Salz": 7533,
      "Mitglied": 7534,
      "Origin": 7535,
      "Erkrankungen": 7536,
      "Wurzeln": 7537,
      "Philosophie": 7538,
      "reparieren": 7539,
      "Motivation": 7540,
      "Dialog": 7541,
      "Diabetes": 7542,
      "Brit": 7543,
      "Back": 7544,
      "Dig": 7545,
      "Ever": 7546,
      "Mak": 7547,
      "NG": 7548,
      "SP": 7549,
      "brochen": 7550,
      "col": 7551,
      "ehem": 7552,
      "fassung": 7553,
      "hing": 7554,
      "japan": 7555,
      "put": 7556,
      "erlangen": 7557,
      "stammen": 7558,
      "deckt": 7559,
      "its": 7560,
      "umwelt": 7561,
      "hent": 7562,
      "agern": 7563,
      "Stick": 7564,
      "ffend": 7565,
      "jekten": 7566,
      "kommer": 7567,
      "Einschrank": 7568,
      "Reicht": 7569,
      "eils": 7570,
      "durchschnittlich": 7571,
      "women": 7572,
      "Ausnahme": 7573,
      "heimer": 7574,
      "heiraten": 7575,
      "Umgang": 7576,
      "handel": 7577,
      "holte": 7578,
      "Haushalt": 7579,
      "Brut": 7580,
      "echtes": 7581,
      "Oberflachen": 7582,
      "systemat": 7583,
      "Reaktionen": 7584,
      "Lowen": 7585,
      "genetischen": 7586,
      "Diagnose": 7587,
      "Gesprache": 7588,
      "Transparenz": 7589,
      "Strategien": 7590,
      "schlimmsten": 7591,
      "packt": 7592,
      "Nutzer": 7593,
      "unsichtbar": 7594,
      "Logik": 7595,
      "Explos": 7596,
      "Jedenfalls": 7597,
      "Feedback": 7598,
      "Schokol": 7599,
      "95": 7600,
      "Ba": 7601,
      "Gates": 7602,
      "King": 7603,
      "LA": 7604,
      "Lass": 7605,
      "Ratten": 7606,
      "Wande": 7607,
      "hassen": 7608,
      "kord": 7609,
      "nationale": 7610,
      "ror": 7611,
      "val": 7612,
      "ash": 7613,
      "onment": 7614,
      "gemessen": 7615,
      "atik": 7616,
      "verliess": 7617,
      "mitzu": 7618,
      "Intu": 7619,
      "Versuchen": 7620,
      "gange": 7621,
      "Bedarf": 7622,
      "locken": 7623,
      "Wasch": 7624,
      "offiz": 7625,
      "meint": 7626,
      "riffe": 7627,
      "geblieben": 7628,
      "stimmung": 7629,
      "Universitaten": 7630,
      "Komm": 7631,
      "jenem": 7632,
      "schwere": 7633,
      "Grossvater": 7634,
      "full": 7635,
      "Architekt": 7636,
      "hoheren": 7637,
      "Hinblick": 7638,
      "Apple": 7639,
      "kreiert": 7640,
      "Funktionen": 7641,
      "Gipfel": 7642,
      "kaputt": 7643,
      "billig": 7644,
      "Zuruck": 7645,
      "Katastrophen": 7646,
      "gewandt": 7647,
      "feiern": 7648,
      "Blase": 7649,
      "Ursache": 7650,
      "medicine": 7651,
      "hindurch": 7652,
      "CE": 7653,
      "Dopp": 7654,
      "Eur": 7655,
      "Hill": 7656,
      "Katze": 7657,
      "Nam": 7658,
      "Rel": 7659,
      "Serv": 7660,
      "Tum": 7661,
      "Tra": 7662,
      "Vag": 7663,
      "Ye": 7664,
      "Zie": 7665,
      "bte": 7666,
      "gei": 7667,
      "iat": 7668,
      "ness": 7669,
      "pat": 7670,
      "anscheinend": 7671,
      "stamm": 7672,
      "steig": 7673,
      "gepr": 7674,
      "berichtet": 7675,
      "reale": 7676,
      "sichern": 7677,
      "Veranst": 7678,
      "Prozesse": 7679,
      "Anstreng": 7680,
      "klingen": 7681,
      "gesunde": 7682,
      "Spur": 7683,
      "Weltall": 7684,
      "gerate": 7685,
      "Aug": 7686,
      "Kontroll": 7687,
      "wahrhaft": 7688,
      "gebiete": 7689,
      "lebende": 7690,
      "Weisst": 7691,
      "angetrieben": 7692,
      "bedeckt": 7693,
      "irgendeinem": 7694,
      "flucht": 7695,
      "Warme": 7696,
      "Handeln": 7697,
      "Handlungen": 7698,
      "Uberwach": 7699,
      "gemeinnutz": 7700,
      "wertvoll": 7701,
      "freiwill": 7702,
      "eigung": 7703,
      "Anderung": 7704,
      "Partei": 7705,
      "ped": 7706,
      "kleinere": 7707,
      "ofter": 7708,
      "Worterbuch": 7709,
      "niedrig": 7710,
      "Tasche": 7711,
      "mittleren": 7712,
      "Dienstleistungen": 7713,
      "komplizierte": 7714,
      "schickte": 7715,
      "Fleder": 7716,
      "potent": 7717,
      "Dutzend": 7718,
      "ollaboration": 7719,
      "Stanford": 7720,
      "Symptome": 7721,
      "Source": 7722,
      "Clu": 7723,
      "Green": 7724,
      "Last": 7725,
      "Pen": 7726,
      "Preise": 7727,
      "Therap": 7728,
      "Therapie": 7729,
      "ader": 7730,
      "heuer": 7731,
      "hub": 7732,
      "pa": 7733,
      "inson": 7734,
      "story": 7735,
      "eisen": 7736,
      "dert": 7737,
      "testet": 7738,
      "abl": 7739,
      "umso": 7740,
      "ausgehen": 7741,
      "ahmt": 7742,
      "Eric": 7743,
      "Vermogen": 7744,
      "Verteilung": 7745,
      "gesundheit": 7746,
      "izz": 7747,
      "Sektor": 7748,
      "aku": 7749,
      "Daniel": 7750,
      "?\",": 7751,
      "195": 7752,
      "ordnet": 7753,
      "Muskeln": 7754,
      "Menschlichkeit": 7755,
      "trocken": 7756,
      "Gebaudes": 7757,
      "Woher": 7758,
      "Party": 7759,
      "rott": 7760,
      "visuellen": 7761,
      "Wurden": 7762,
      "Hinweise": 7763,
      "nebenbei": 7764,
      "fruheren": 7765,
      "kulturellen": 7766,
      "Myth": 7767,
      "wohnen": 7768,
      "benutzten": 7769,
      "Sensoren": 7770,
      "Klinik": 7771,
      "Weihnachts": 7772,
      "ziplin": 7773,
      "33": 7774,
      "Abl": 7775,
      "Ehre": 7776,
      "Fei": 7777,
      "Jer": 7778,
      "Letzten": 7779,
      "Mist": 7780,
      "Mahl": 7781,
      "Tauch": 7782,
      "bio": 7783,
      "ci": 7784,
      "fle": 7785,
      "ga": 7786,
      "ibel": 7787,
      "keines": 7788,
      "lament": 7789,
      "ulen": 7790,
      "wan": 7791,
      "energie": 7792,
      "ering": 7793,
      "eroffnet": 7794,
      "inzwischen": 7795,
      "steine": 7796,
      "gezwungen": 7797,
      "beruf": 7798,
      "befreien": 7799,
      "stete": 7800,
      "ikationen": 7801,
      "Schm": 7802,
      "uchtern": 7803,
      "uckt": 7804,
      "gesunden": 7805,
      "womit": 7806,
      "Kond": 7807,
      "Auftrag": 7808,
      "Ausland": 7809,
      "quellen": 7810,
      "Waren": 7811,
      "Blatter": 7812,
      "Dadurch": 7813,
      "Muskel": 7814,
      "technische": 7815,
      "Vortrage": 7816,
      "Schweine": 7817,
      "uhrung": 7818,
      "aussagen": 7819,
      "Spezial": 7820,
      "Mikroskop": 7821,
      "Belast": 7822,
      "staaten": 7823,
      "archie": 7824,
      "Investition": 7825,
      "Schwarze": 7826,
      "aussergewohnliche": 7827,
      "intelligente": 7828,
      "Betracht": 7829,
      "Statistik": 7830,
      "afrikanische": 7831,
      "Wichtigste": 7832,
      "Interessant": 7833,
      "diskutieren": 7834,
      "Prototypen": 7835,
      "Raketen": 7836,
      "jeweils": 7837,
      "neugierig": 7838,
      "Gletscher": 7839,
      "verpflich": 7840,
      "',": 7841,
      "Clo": 7842,
      "Sorge": 7843,
      "Titan": 7844,
      "Waffe": 7845,
      "ba": 7846,
      "car": 7847,
      "cities": 7848,
      "grad": 7849,
      "koch": 7850,
      "inklus": 7851,
      "anstelle": 7852,
      "eis": 7853,
      "itution": 7854,
      "versicher": 7855,
      "versprechen": 7856,
      "verletzt": 7857,
      "ausmacht": 7858,
      "ktoren": 7859,
      "ubersetzen": 7860,
      "meter": 7861,
      "beides": 7862,
      "rucken": 7863,
      "Versorgung": 7864,
      "Anweis": 7865,
      "Ener": 7866,
      "fehler": 7867,
      "Ausrustung": 7868,
      "Mount": 7869,
      "Werden": 7870,
      "Tranen": 7871,
      "way": 7872,
      "insgesamt": 7873,
      "innere": 7874,
      "gefasst": 7875,
      "draht": 7876,
      "Lebensraum": 7877,
      "hochste": 7878,
      "radikal": 7879,
      "verlor": 7880,
      "folgte": 7881,
      "Internets": 7882,
      "Lehrern": 7883,
      "telling": 7884,
      "Betrieb": 7885,
      "Steven": 7886,
      "Leid": 7887,
      "Organismus": 7888,
      "ianischen": 7889,
      "Gleichung": 7890,
      "spiritu": 7891,
      "vironment": 7892,
      "Texas": 7893,
      "summen": 7894,
      "Zivil": 7895,
      "Erstaun": 7896,
      "Privatsphare": 7897,
      "Resultate": 7898,
      "privaten": 7899,
      "Fremden": 7900,
      "weibliche": 7901,
      "Globalisierung": 7902,
      "Flasche": 7903,
      "Januar": 7904,
      "analysieren": 7905,
      "Verbesserung": 7906,
      "relevant": 7907,
      "Pflanze": 7908,
      "85": 7909,
      "Big": 7910,
      "Nu": 7911,
      "Penn": 7912,
      "Pruf": 7913,
      "Rauch": 7914,
      "Ug": 7915,
      "Ubung": 7916,
      "bogen": 7917,
      "leit": 7918,
      "rang": 7919,
      "ta": 7920,
      "wj": 7921,
      "wein": 7922,
      "erle": 7923,
      "anbieten": 7924,
      "eingehen": 7925,
      "schme": 7926,
      "achel": 7927,
      "aufeinander": 7928,
      "igungen": 7929,
      "ausschliesslich": 7930,
      "konserv": 7931,
      "spur": 7932,
      "Integr": 7933,
      "nachdenkt": 7934,
      "Einheiten": 7935,
      "liest": 7936,
      "Real": 7937,
      "illa": 7938,
      "oph": 7939,
      "gelaufen": 7940,
      "echter": 7941,
      "gewinn": 7942,
      "Metern": 7943,
      "Entstehung": 7944,
      "Umstande": 7945,
      "ektar": 7946,
      "phot": 7947,
      "Uberall": 7948,
      "elegan": 7949,
      "2001": 7950,
      "Schulern": 7951,
      "frustr": 7952,
      "sozialer": 7953,
      "jahriger": 7954,
      "Glucks": 7955,
      "Videospiele": 7956,
      "politik": 7957,
      "erwartete": 7958,
      "Besitz": 7959,
      "Jose": 7960,
      "physische": 7961,
      "Appl": 7962,
      "Schnell": 7963,
      "nahezu": 7964,
      "Knoten": 7965,
      "kasten": 7966,
      "generieren": 7967,
      "Hohepunkt": 7968,
      "Bush": 7969,
      "empfind": 7970,
      "chinesischen": 7971,
      "Cola": 7972,
      "komplizierter": 7973,
      "Alternative": 7974,
      "reprasentiert": 7975,
      "Oxy": 7976,
      "mischt": 7977,
      "Komponenten": 7978,
      "Illusion": 7979,
      "Ubrigens": 7980,
      "storytelling": 7981,
      "47": 7982,
      "Hard": 7983,
      "Okonom": 7984,
      "Pin": 7985,
      "fett": 7986,
      "falten": 7987,
      "hut": 7988,
      "ky": 7989,
      "kochen": 7990,
      "mess": 7991,
      "ena": 7992,
      "erlaub": 7993,
      "undet": 7994,
      "schloss": 7995,
      "gemass": 7996,
      "beu": 7997,
      "bedarf": 7998,
      "vergewalt": 7999,
      "ethn": 8000,
      "macher": 8001,
      "Anpass": 8002,
      "Anhang": 8003,
      "iller": 8004,
      "obi": 8005,
      "hingehen": 8006,
      "Konzepte": 8007,
      "Vorder": 8008,
      "wiederholt": 8009,
      "Mannes": 8010,
      "stren": 8011,
      "extra": 8012,
      "Front": 8013,
      "ogenese": 8014,
      "flach": 8015,
      "1950": 8016,
      "gestaltet": 8017,
      "betragt": 8018,
      "Sprung": 8019,
      "Amerikas": 8020,
      "tiefe": 8021,
      "Allge": 8022,
      "politisch": 8023,
      "setzungen": 8024,
      "sammelt": 8025,
      "Fussball": 8026,
      "empfinden": 8027,
      "Schwestern": 8028,
      "enormen": 8029,
      "Friedens": 8030,
      "erkunden": 8031,
      "Mails": 8032,
      "einzigartig": 8033,
      "zukunftigen": 8034,
      "positiven": 8035,
      "benutzte": 8036,
      "Sammlung": 8037,
      "Pferd": 8038,
      "Mechanismus": 8039,
      "Symmetrie": 8040,
      "kommerziel": 8041,
      "Hab": 8042,
      "Hol": 8043,
      "Lesen": 8044,
      "SE": 8045,
      "Satur": 8046,
      "bart": 8047,
      "hne": 8048,
      "humor": 8049,
      "keinem": 8050,
      "rational": 8051,
      "use": 8052,
      "invol": 8053,
      "invention": 8054,
      "any": 8055,
      "anfangt": 8056,
      "geoffnet": 8057,
      "zuhoren": 8058,
      "leeren": 8059,
      "verteilen": 8060,
      "verzweif": 8061,
      "aufrecht": 8062,
      "spont": 8063,
      "Staub": 8064,
      "usst": 8065,
      "braun": 8066,
      "Verhand": 8067,
      "zenten": 8068,
      "Alkoh": 8069,
      "Ansichten": 8070,
      "ulationen": 8071,
      "heber": 8072,
      "unterhalten": 8073,
      "Gramm": 8074,
      "Griff": 8075,
      "schoner": 8076,
      "Unterwasser": 8077,
      "Nachfrage": 8078,
      "Weibchen": 8079,
      "treu": 8080,
      "irgendwelche": 8081,
      "atem": 8082,
      "Ubergang": 8083,
      "digt": 8084,
      "ordnen": 8085,
      "hochst": 8086,
      "2004": 8087,
      "festgestellt": 8088,
      "kooper": 8089,
      "technik": 8090,
      "Patent": 8091,
      "Biologen": 8092,
      "jahrlich": 8093,
      "tiefen": 8094,
      "entdeckten": 8095,
      "Kooperation": 8096,
      "ietnam": 8097,
      "Fahrzeuge": 8098,
      "Hai": 8099,
      "krankheiten": 8100,
      "stets": 8101,
      "physischen": 8102,
      "Wohlbefinden": 8103,
      "Flussigkeit": 8104,
      "Knopf": 8105,
      "Operationen": 8106,
      "farb": 8107,
      "Kapitalismus": 8108,
      "Palast": 8109,
      "Haare": 8110,
      "schnitts": 8111,
      "Konnte": 8112,
      "Astron": 8113,
      "Toiletten": 8114,
      "Treibhaus": 8115,
      "Moskit": 8116,
      "ehemal": 8117,
      "Uganda": 8118,
      "BF": 8119,
      "Brie": 8120,
      "Fels": 8121,
      "Griechen": 8122,
      "Mei": 8123,
      "Mur": 8124,
      "Mog": 8125,
      "Nadel": 8126,
      "Pet": 8127,
      "Ram": 8128,
      "jenseits": 8129,
      "kg": 8130,
      "pru": 8131,
      "phin": 8132,
      "rut": 8133,
      "treibt": 8134,
      "wandern": 8135,
      "ersetzt": 8136,
      "children": 8137,
      "einschliesslich": 8138,
      "ura": 8139,
      "eltern": 8140,
      "sequenz": 8141,
      "leger": 8142,
      "abgesehen": 8143,
      "verlangen": 8144,
      "lenk": 8145,
      "konkurr": 8146,
      "vorwarts": 8147,
      "Verzwei": 8148,
      "Versicher": 8149,
      "Anges": 8150,
      "hinsichtlich": 8151,
      "adig": 8152,
      "gebungen": 8153,
      "schieben": 8154,
      "Derek": 8155,
      "heisse": 8156,
      "exakt": 8157,
      "teilnehmen": 8158,
      "einziges": 8159,
      "Autoren": 8160,
      "sicherer": 8161,
      "Lieder": 8162,
      "Liebes": 8163,
      "Liefer": 8164,
      "Gesundheitssystem": 8165,
      "Bron": 8166,
      "minim": 8167,
      "ausgegeben": 8168,
      "abhangigkeit": 8169,
      "Magazin": 8170,
      "70ern": 8171,
      "verstecken": 8172,
      "verruckte": 8173,
      "Hohle": 8174,
      "Onkel": 8175,
      "Ernst": 8176,
      "maschinen": 8177,
      "Business": 8178,
      "Einkommens": 8179,
      "beliebt": 8180,
      "beeindruckend": 8181,
      "Entwicklungslander": 8182,
      "Schlagzei": 8183,
      "angenehm": 8184,
      "Prior": 8185,
      "Berechnungen": 8186,
      "kummert": 8187,
      "Alkohol": 8188,
      "%.": 8189,
      "Cra": 8190,
      "Gand": 8191,
      "Gast": 8192,
      "Kab": 8193,
      "Sag": 8194,
      "dumm": 8195,
      "fische": 8196,
      "face": 8197,
      "tauch": 8198,
      "vide": 8199,
      "zung": 8200,
      "ches": 8201,
      "schaden": 8202,
      "schlussendlich": 8203,
      "irca": 8204,
      "befest": 8205,
      "befassen": 8206,
      "verdien": 8207,
      "vermittelt": 8208,
      "werdet": 8209,
      "Intens": 8210,
      "Gewohn": 8211,
      "vorn": 8212,
      "vorgestellt": 8213,
      "reide": 8214,
      "Lee": 8215,
      "range": 8216,
      "Konzentr": 8217,
      "aps": 8218,
      "muslim": 8219,
      "Orchester": 8220,
      "Chip": 8221,
      "Weiss": 8222,
      "aktuellen": 8223,
      "anzig": 8224,
      "inneren": 8225,
      "immern": 8226,
      "Lux": 8227,
      "wertung": 8228,
      "schwerer": 8229,
      "altere": 8230,
      "alteren": 8231,
      "Schwanz": 8232,
      "endete": 8233,
      "alisierte": 8234,
      "Flugzeuge": 8235,
      "auszudrucken": 8236,
      "Demonstr": 8237,
      "vorhersagen": 8238,
      "Eigentum": 8239,
      "Mathe": 8240,
      "Kapaz": 8241,
      "Elektronen": 8242,
      "Standpunkt": 8243,
      "Fruhl": 8244,
      "sorgfalt": 8245,
      "schreibe": 8246,
      "farben": 8247,
      "programmieren": 8248,
      "traumen": 8249,
      "Population": 8250,
      "Origami": 8251,
      "Nano": 8252,
      "Toilette": 8253,
      "abilitat": 8254,
      "profitieren": 8255,
      "Asteroiden": 8256,
      "Abhangigkeit": 8257,
      "Beitrag": 8258,
      "Austausch": 8259,
      "Varian": 8260,
      "effizient": 8261,
      "inklusive": 8262,
      "Eth": 8263,
      "Hollywood": 8264,
      "Jim": 8265,
      "Larm": 8266,
      "Pack": 8267,
      "Sucht": 8268,
      "Tja": 8269,
      "Watt": 8270,
      "Zut": 8271,
      "care": 8272,
      "nes": 8273,
      "niss": 8274,
      "wol": 8275,
      "ye": 8276,
      "zte": 8277,
      "environment": 8278,
      "erfullt": 8279,
      "anlagen": 8280,
      "anlage": 8281,
      "stro": 8282,
      "gelehrt": 8283,
      "Sieben": 8284,
      "igant": 8285,
      "menten": 8286,
      "uberlebt": 8287,
      "furchten": 8288,
      "Stich": 8289,
      "Stamme": 8290,
      "Stille": 8291,
      "Inhalte": 8292,
      "Schall": 8293,
      "Versch": 8294,
      "Reden": 8295,
      "unterhalb": 8296,
      "offnete": 8297,
      "pert": 8298,
      "froren": 8299,
      "heimlich": 8300,
      "Nest": 8301,
      "Werten": 8302,
      "strager": 8303,
      "quer": 8304,
      "Musl": 8305,
      "2003": 8306,
      "Filter": 8307,
      "kost": 8308,
      "Parlament": 8309,
      "Selbstmord": 8310,
      "Flori": 8311,
      "Urknall": 8312,
      "heutige": 8313,
      "Poster": 8314,
      "erstaunlichen": 8315,
      "basierte": 8316,
      "Fernseher": 8317,
      "Blickwinkel": 8318,
      "verschwindet": 8319,
      "Regenwald": 8320,
      "Afri": 8321,
      "Brown": 8322,
      "dioxid": 8323,
      "Analog": 8324,
      "Talent": 8325,
      "Gestaltung": 8326,
      "Depressionen": 8327,
      "virtuellen": 8328,
      "Trends": 8329,
      "Laser": 8330,
      "Ebenen": 8331,
      "Smart": 8332,
      "Nervenzellen": 8333,
      "bedroht": 8334,
      "Benzin": 8335,
      "Baseball": 8336,
      "Treibstoff": 8337,
      "Oxyto": 8338,
      "Abt": 8339,
      "Adr": 8340,
      "Egal": 8341,
      "Gift": 8342,
      "Holle": 8343,
      "KW": 8344,
      "Kiste": 8345,
      "PM": 8346,
      "Wun": 8347,
      "ae": 8348,
      "kauft": 8349,
      "nationalen": 8350,
      "tier": 8351,
      "witz": 8352,
      "errichten": 8353,
      "erfordert": 8354,
      "erhielten": 8355,
      "schild": 8356,
      "arer": 8357,
      "getestet": 8358,
      "zustand": 8359,
      "zulassen": 8360,
      "bern": 8361,
      "bezahl": 8362,
      "verarbeiten": 8363,
      "verbrauchen": 8364,
      "verliebt": 8365,
      "ume": 8366,
      "annah": 8367,
      "ischt": 8368,
      "ubersetzt": 8369,
      "Schadel": 8370,
      "Gefahren": 8371,
      "vorstell": 8372,
      "bracht": 8373,
      "ernd": 8374,
      "zens": 8375,
      "klug": 8376,
      "Leg": 8377,
      "weh": 8378,
      "wecken": 8379,
      "Spuren": 8380,
      "zieh": 8381,
      "Arthur": 8382,
      "Manager": 8383,
      "Meere": 8384,
      "schnelle": 8385,
      "Werke": 8386,
      "2011": 8387,
      "ungeheuer": 8388,
      "Gebur": 8389,
      "Minister": 8390,
      "maxim": 8391,
      "Energieverbrauch": 8392,
      "wunderschonen": 8393,
      "belast": 8394,
      "Papa": 8395,
      "Howard": 8396,
      "tragung": 8397,
      "komplexer": 8398,
      "wesenheit": 8399,
      "letztlich": 8400,
      "Ruanda": 8401,
      "Kopfen": 8402,
      "Thun": 8403,
      "theoret": 8404,
      "nachhaltig": 8405,
      "ithmus": 8406,
      "Hundert": 8407,
      "Szenar": 8408,
      "Nahrungsmittel": 8409,
      "Praxis": 8410,
      "Grav": 8411,
      "Figuren": 8412,
      "Oxford": 8413,
      "verringern": 8414,
      "Konnten": 8415,
      "dramatisch": 8416,
      "Entwurf": 8417,
      "Fantasie": 8418,
      "Speicher": 8419,
      "Elektronik": 8420,
      "Fliege": 8421,
      "Andrew": 8422,
      "clever": 8423,
      "Saturn": 8424,
      "Dinger": 8425,
      "Hans": 8426,
      "Lar": 8427,
      "Nat": 8428,
      "Oel": 8429,
      "Sir": 8430,
      "Tes": 8431,
      "Tech": 8432,
      "drit": 8433,
      "fes": 8434,
      "kosm": 8435,
      "masse": 8436,
      "pfe": 8437,
      "ruber": 8438,
      "rische": 8439,
      "wich": 8440,
      "energ": 8441,
      "ini": 8442,
      "intu": 8443,
      "ied": 8444,
      "alem": 8445,
      "gegessen": 8446,
      "genoss": 8447,
      "lehnen": 8448,
      "ssp": 8449,
      "ssysteme": 8450,
      "berecht": 8451,
      "vergleich": 8452,
      "Unglaub": 8453,
      "mengen": 8454,
      "menschen": 8455,
      "ausgebildet": 8456,
      "uther": 8457,
      "ismen": 8458,
      "ahara": 8459,
      "Story": 8460,
      "Diesen": 8461,
      "Erziehung": 8462,
      "ollt": 8463,
      "schaffte": 8464,
      "ingung": 8465,
      "Bedenken": 8466,
      "Behor": 8467,
      "ops": 8468,
      "durchs": 8469,
      "kept": 8470,
      "grau": 8471,
      "Zeitungen": 8472,
      "zweitens": 8473,
      "schones": 8474,
      "Management": 8475,
      "Ausgaben": 8476,
      "zuruckkommen": 8477,
      "undete": 8478,
      "Mary": 8479,
      "angekommen": 8480,
      "ineering": 8481,
      "Studium": 8482,
      "aya": 8483,
      "Interpret": 8484,
      "Lichter": 8485,
      "Baumen": 8486,
      "Amy": 8487,
      "Stephen": 8488,
      "Pocken": 8489,
      "aktivitat": 8490,
      "Trink": 8491,
      "Magnet": 8492,
      "Appar": 8493,
      "Kilo": 8494,
      "Etwa": 8495,
      "Auswirkung": 8496,
      "Kopfe": 8497,
      "international": 8498,
      "umzusetzen": 8499,
      "gewiss": 8500,
      "niedriger": 8501,
      "behaupte": 8502,
      "Ballon": 8503,
      "chemischen": 8504,
      "nachhaltige": 8505,
      "bemerkenswerte": 8506,
      "zukunftige": 8507,
      "konstruieren": 8508,
      "Tricks": 8509,
      "spannend": 8510,
      "kommst": 8511,
      "Animation": 8512,
      "Rollstuhl": 8513,
      "Schauspieler": 8514,
      "Fussen": 8515,
      "Angebot": 8516,
      "Gluhbir": 8517,
      "Energien": 8518,
      "Oxytocin": 8519,
      "48": 8520,
      "Bogen": 8521,
      "Hen": 8522,
      "Iron": 8523,
      "Kosm": 8524,
      "Kandid": 8525,
      "LED": 8526,
      "Riff": 8527,
      "Van": 8528,
      "circa": 8529,
      "fabr": 8530,
      "fleisch": 8531,
      "uel": 8532,
      "yer": 8533,
      "unend": 8534,
      "asien": 8535,
      "getrieben": 8536,
      "istr": 8537,
      "leute": 8538,
      "abschliessen": 8539,
      "anna": 8540,
      "agos": 8541,
      "konvention": 8542,
      "isierten": 8543,
      "senken": 8544,
      "spunkt": 8545,
      "anderung": 8546,
      "allel": 8547,
      "Schreibt": 8548,
      "beizu": 8549,
      "ogramm": 8550,
      "russ": 8551,
      "Versagen": 8552,
      "reiste": 8553,
      "objekt": 8554,
      "unterricht": 8555,
      "gerissen": 8556,
      "schief": 8557,
      "Manhat": 8558,
      "aker": 8559,
      "strahl": 8560,
      "expl": 8561,
      "wohlhaben": 8562,
      "Gerade": 8563,
      "Strahlung": 8564,
      "Qual": 8565,
      "otto": 8566,
      "anzugehen": 8567,
      "Gegenstand": 8568,
      "armsten": 8569,
      "hoffnungs": 8570,
      "erinnerte": 8571,
      "einzusetzen": 8572,
      "Burgermeister": 8573,
      "Zentral": 8574,
      "Blutgef": 8575,
      "Hugel": 8576,
      "Pause": 8577,
      "vertei": 8578,
      "Lou": 8579,
      "Medikamenten": 8580,
      "probleme": 8581,
      "Budd": 8582,
      "Tempo": 8583,
      "allgemeinen": 8584,
      "Winkel": 8585,
      "Brian": 8586,
      "Empathie": 8587,
      "Engagement": 8588,
      "Arbeitsplatz": 8589,
      "Amazonas": 8590,
      "Ignor": 8591,
      "Mittleren": 8592,
      "bridge": 8593,
      "Diplomat": 8594,
      "Dynamik": 8595,
      "Reichtum": 8596,
      "Intuition": 8597,
      "42": 8598,
      "Beinen": 8599,
      "Cre": 8600,
      "Gore": 8601,
      "Katzen": 8602,
      "Lob": 8603,
      "Seil": 8604,
      "Zig": 8605,
      "aill": 8606,
      "glas": 8607,
      "hell": 8608,
      "haut": 8609,
      "jagen": 8610,
      "phab": 8611,
      "ule": 8612,
      "well": 8613,
      "zheimer": 8614,
      "erm": 8615,
      "inzip": 8616,
      "stel": 8617,
      "schel": 8618,
      "schwei": 8619,
      "gefullt": 8620,
      "orter": 8621,
      "beachten": 8622,
      "begriff": 8623,
      "verhindert": 8624,
      "aufnahmen": 8625,
      "aufmerk": 8626,
      "uberprufen": 8627,
      "media": 8628,
      "Erschein": 8629,
      "Erwarmung": 8630,
      "Geh": 8631,
      "Alzheimer": 8632,
      "Anerkennung": 8633,
      "klicken": 8634,
      "opfer": 8635,
      "malt": 8636,
      "gerecht": 8637,
      "graus": 8638,
      "Geschw": 8639,
      "gewinnt": 8640,
      "geschutzt": 8641,
      "geschritten": 8642,
      "Vorgehen": 8643,
      "...\"": 8644,
      "strahlen": 8645,
      "beschutzen": 8646,
      "scheitern": 8647,
      "Straf": 8648,
      "Dennoch": 8649,
      "zeichnung": 8650,
      "Privileg": 8651,
      "verborgen": 8652,
      "ardo": 8653,
      "Song": 8654,
      "sorganis": 8655,
      "Brand": 8656,
      "Conne": 8657,
      "schwierigen": 8658,
      "glucklicherweise": 8659,
      "wissenschaftlich": 8660,
      "tatigkeit": 8661,
      "ronom": 8662,
      "Install": 8663,
      "Volks": 8664,
      "faszinierende": 8665,
      "ography": 8666,
      "Bewusstseins": 8667,
      "bewegte": 8668,
      "Gewinner": 8669,
      "billiger": 8670,
      "fotografiert": 8671,
      "Balance": 8672,
      "Pazifik": 8673,
      "Impfstoff": 8674,
      "religiosen": 8675,
      "transform": 8676,
      "intensiv": 8677,
      "zusatzliche": 8678,
      "firma": 8679,
      "Letztes": 8680,
      "kontakt": 8681,
      "wjet": 8682,
      "Bem": 8683,
      "Effekte": 8684,
      "Fundament": 8685,
      "Guter": 8686,
      "Hub": 8687,
      "II": 8688,
      "Prem": 8689,
      "Rab": 8690,
      "SW": 8691,
      "Welle": 8692,
      "dum": 8693,
      "ih": 8694,
      "kins": 8695,
      "lander": 8696,
      "mill": 8697,
      "tollen": 8698,
      "weinen": 8699,
      "seel": 8700,
      "verei": 8701,
      "verbraucht": 8702,
      "verlangsam": 8703,
      "rey": 8704,
      "reten": 8705,
      "redet": 8706,
      "kontin": 8707,
      "splan": 8708,
      "herab": 8709,
      "iene": 8710,
      "kannten": 8711,
      "fuss": 8712,
      "Spenden": 8713,
      "unternehmer": 8714,
      "unterscheidet": 8715,
      "geld": 8716,
      "besp": 8717,
      "Grab": 8718,
      "rix": 8719,
      "Kindersterblichkeit": 8720,
      "ultim": 8721,
      "pflicht": 8722,
      "angepasst": 8723,
      "Black": 8724,
      "gestossen": 8725,
      "opfung": 8726,
      "board": 8727,
      "jenige": 8728,
      "Robot": 8729,
      "Flag": 8730,
      "Mai": 8731,
      "Chines": 8732,
      "Urheber": 8733,
      "fertigen": 8734,
      "fertigt": 8735,
      "Gleichheit": 8736,
      "Nahen": 8737,
      "iban": 8738,
      "Tatigkeit": 8739,
      "Abendessen": 8740,
      "schuldig": 8741,
      "bewerten": 8742,
      "Zeichnungen": 8743,
      "Benutzer": 8744,
      "finanziert": 8745,
      "schreckliche": 8746,
      "Kohlendioxid": 8747,
      "Mauer": 8748,
      "Kriege": 8749,
      "Erfindungen": 8750,
      "Bedurfnis": 8751,
      "Journalisten": 8752,
      "allgemeine": 8753,
      "zweites": 8754,
      "gewebe": 8755,
      "freuen": 8756,
      "Optimismus": 8757,
      "Rettung": 8758,
      "Africa": 8759,
      "aufmerksam": 8760,
      "Av": 8761,
      "Dop": 8762,
      "Fund": 8763,
      "Gei": 8764,
      "Han": 8765,
      "Punkten": 8766,
      "Pyram": 8767,
      "Ray": 8768,
      "Satze": 8769,
      "biz": 8770,
      "gigant": 8771,
      "sitze": 8772,
      "anfall": 8773,
      "aul": 8774,
      "tech": 8775,
      "gehei": 8776,
      "urteilen": 8777,
      "abdruck": 8778,
      "abgeschlossen": 8779,
      "berauben": 8780,
      "bedenken": 8781,
      "vermehr": 8782,
      "warst": 8783,
      "ausfuhren": 8784,
      "andau": 8785,
      "ennung": 8786,
      "Stur": 8787,
      "allzu": 8788,
      "Erforschung": 8789,
      "wurz": 8790,
      "breit": 8791,
      "ray": 8792,
      "komisch": 8793,
      "Probe": 8794,
      "Einkauf": 8795,
      "Besten": 8796,
      "liefer": 8797,
      "ophren": 8798,
      "hebt": 8799,
      "grenzen": 8800,
      "landete": 8801,
      "gewahr": 8802,
      "ric": 8803,
      "izophren": 8804,
      "Beide": 8805,
      "Sec": 8806,
      "reichend": 8807,
      "formation": 8808,
      "ical": 8809,
      "beschad": 8810,
      "einziger": 8811,
      "fuhlten": 8812,
      "ahnliches": 8813,
      "etzte": 8814,
      "Anthrop": 8815,
      "Bose": 8816,
      "Jeff": 8817,
      "Plane": 8818,
      "stattfinden": 8819,
      "Lehre": 8820,
      "erzahlten": 8821,
      "gewohnlich": 8822,
      "Umweltschutz": 8823,
      "kehrte": 8824,
      "aktivieren": 8825,
      "bedingungen": 8826,
      "designer": 8827,
      "spektak": 8828,
      "Hinweis": 8829,
      "perfekten": 8830,
      "Kommunikations": 8831,
      "Benj": 8832,
      "Wiederauf": 8833,
      "winzige": 8834,
      "Betrachten": 8835,
      "Erkenntnisse": 8836,
      "Mause": 8837,
      "history": 8838,
      "ministerium": 8839,
      "Heilung": 8840,
      "Nullsummen": 8841,
      "wunschen": 8842,
      "Chirurg": 8843,
      "angeneh": 8844,
      "kombinieren": 8845,
      "symbol": 8846,
      "verlangt": 8847,
      "Tauschung": 8848,
      "animals": 8849,
      "Kafer": 8850,
      "Extrem": 8851,
      "Cambridge": 8852,
      "Euro": 8853,
      "erledigen": 8854,
      "Florida": 8855,
      "'.": 8856,
      "55": 8857,
      "Brain": 8858,
      "Crick": 8859,
      "Dichte": 8860,
      "Faden": 8861,
      "Joh": 8862,
      "KB": 8863,
      "Kas": 8864,
      "Kok": 8865,
      "LKW": 8866,
      "Messer": 8867,
      "Oft": 8868,
      "Sher": 8869,
      "Ven": 8870,
      "Wollen": 8871,
      "blich": 8872,
      "bell": 8873,
      "harm": 8874,
      "liste": 8875,
      "uzin": 8876,
      "vas": 8877,
      "erfasst": 8878,
      "erzielen": 8879,
      "ani": 8880,
      "anische": 8881,
      "anfang": 8882,
      "ark": 8883,
      "ary": 8884,
      "gekl": 8885,
      "zusatzlich": 8886,
      "hrt": 8887,
      "deuten": 8888,
      "sey": 8889,
      "sech": 8890,
      "ola": 8891,
      "bergen": 8892,
      "beendet": 8893,
      "row": 8894,
      "ima": 8895,
      "mittag": 8896,
      "agten": 8897,
      "konst": 8898,
      "sport": 8899,
      "Gehalt": 8900,
      "Prob": 8901,
      "Prof": 8902,
      "Prop": 8903,
      "Anwalt": 8904,
      "loschen": 8905,
      "spielten": 8906,
      "lese": 8907,
      "autor": 8908,
      "hirn": 8909,
      "work": 8910,
      "Koran": 8911,
      "Autob": 8912,
      "Handlung": 8913,
      "Antarkt": 8914,
      "Kreaturen": 8915,
      "wundervollen": 8916,
      "ipend": 8917,
      "Athi": 8918,
      "Paradig": 8919,
      "folgender": 8920,
      "tagliche": 8921,
      "Mais": 8922,
      "marsch": 8923,
      "Steu": 8924,
      "Olymp": 8925,
      "park": 8926,
      "nutzten": 8927,
      "Nordamerika": 8928,
      "Johnson": 8929,
      "psychology": 8930,
      "Supermarkt": 8931,
      "kunstliche": 8932,
      "finanzieren": 8933,
      "Offensicht": 8934,
      "Mobel": 8935,
      "Konigin": 8936,
      "Hyper": 8937,
      "liber": 8938,
      "geredet": 8939,
      "ursprungliche": 8940,
      "Reichweite": 8941,
      "veranst": 8942,
      "Fabriken": 8943,
      "virtuelle": 8944,
      "ungewohnlich": 8945,
      "industrielle": 8946,
      "angeschaut": 8947,
      "abstra": 8948,
      "Oktober": 8949,
      "Phosp": 8950,
      "Honig": 8951,
      "strateg": 8952,
      "Entschuldigung": 8953,
      "Allgemeinen": 8954,
      "nisses": 8955,
      "Athiop": 8956,
      ".'": 8957,
      "Amt": 8958,
      "Ess": 8959,
      "Held": 8960,
      "Jes": 8961,
      "Kun": 8962,
      "Kell": 8963,
      "Kluft": 8964,
      "OP": 8965,
      "Ther": 8966,
      "Taten": 8967,
      "Talks": 8968,
      "Tenden": 8969,
      "Vul": 8970,
      "Wale": 8971,
      "bten": 8972,
      "collaboration": 8973,
      "ii": 8974,
      "sinken": 8975,
      "zell": 8976,
      "erledig": 8977,
      "anon": 8978,
      "anzen": 8979,
      "gedreht": 8980,
      "ati": 8981,
      "ora": 8982,
      "istanz": 8983,
      "bezieht": 8984,
      "vergrosser": 8985,
      "entschlossen": 8986,
      "werks": 8987,
      "Stir": 8988,
      "Stimmt": 8989,
      "Schlange": 8990,
      "Schock": 8991,
      "vorkommen": 8992,
      "bruar": 8993,
      "Arg": 8994,
      "Anzeichen": 8995,
      "schafften": 8996,
      "Einmal": 8997,
      "Bewohner": 8998,
      "wechs": 8999,
      "lauter": 9000,
      "ope": 9001,
      "Spitzen": 9002,
      "Weltbank": 9003,
      "Auft": 9004,
      "wirkung": 9005,
      "machtige": 9006,
      "Media": 9007,
      "blut": 9008,
      "ensystem": 9009,
      "schwachen": 9010,
      "Lebensqualitat": 9011,
      "vierten": 9012,
      "Reis": 9013,
      "Jazz": 9014,
      "stattfindet": 9015,
      "mail": 9016,
      "horer": 9017,
      "Kompro": 9018,
      "wundervoll": 9019,
      "Lust": 9020,
      "Objekten": 9021,
      "anzuschauen": 9022,
      "schweren": 9023,
      "Gegenstande": 9024,
      "Februar": 9025,
      "grossartiger": 9026,
      "Vortrags": 9027,
      "Durchschnitts": 9028,
      "regung": 9029,
      "Power": 9030,
      "Hohen": 9031,
      "Prozesses": 9032,
      "laufe": 9033,
      "erschien": 9034,
      "interessantes": 9035,
      "knu": 9036,
      "Drohnen": 9037,
      "tolles": 9038,
      "nukle": 9039,
      "uberraschende": 9040,
      "Geheimnisse": 9041,
      "westliche": 9042,
      "vermeid": 9043,
      "Republ": 9044,
      "einzigartige": 9045,
      "Wusten": 9046,
      "Roman": 9047,
      "Dreie": 9048,
      "Untersuchungen": 9049,
      "Schwerkraft": 9050,
      "gewissermassen": 9051,
      "gebaude": 9052,
      "trainieren": 9053,
      "hilfreich": 9054,
      "Summe": 9055,
      "Vernunft": 9056,
      "Initiative": 9057,
      "Latein": 9058,
      "Rhythmus": 9059,
      "Vagina": 9060,
      "Fruhling": 9061,
      "Manhattan": 9062,
      "Ignoranz": 9063,
      "Cap": 9064,
      "Galer": 9065,
      "Hafen": 9066,
      "Lucke": 9067,
      "Mer": 9068,
      "bon": 9069,
      "ville": 9070,
      "yt": 9071,
      "erfuhr": 9072,
      "inmitten": 9073,
      "arma": 9074,
      "attet": 9075,
      "genden": 9076,
      "zugleich": 9077,
      "abgesch": 9078,
      "betreffen": 9079,
      "verf": 9080,
      "vertreten": 9081,
      "verfugen": 9082,
      "steck": 9083,
      "ochten": 9084,
      "Wird": 9085,
      "Gehor": 9086,
      "ierender": 9087,
      "halben": 9088,
      "wurdest": 9089,
      "Bedauern": 9090,
      "Redu": 9091,
      "diesmal": 9092,
      "performance": 9093,
      "sters": 9094,
      "antreiben": 9095,
      "weitermachen": 9096,
      "dreimal": 9097,
      "utzten": 9098,
      "plus": 9099,
      "irgendein": 9100,
      "irgendwas": 9101,
      "Herangehen": 9102,
      "sicherstellen": 9103,
      "geflogen": 9104,
      "Dez": 9105,
      "Produktivitat": 9106,
      "Zusatz": 9107,
      "waltung": 9108,
      "alisierten": 9109,
      "Allgemein": 9110,
      "Indiens": 9111,
      "Richter": 9112,
      "Chrom": 9113,
      "Poesie": 9114,
      "Besser": 9115,
      "Ski": 9116,
      "entscheidende": 9117,
      "liebten": 9118,
      "Institute": 9119,
      "Institution": 9120,
      "sexuell": 9121,
      "Glaube": 9122,
      "Religionen": 9123,
      "Streben": 9124,
      "programmiert": 9125,
      "Ameise": 9126,
      "life": 9127,
      "Kevin": 9128,
      "sichtigt": 9129,
      "staatlichen": 9130,
      "Banken": 9131,
      "optimistisch": 9132,
      "Stoffwechsel": 9133,
      "individuelle": 9134,
      "Felsen": 9135,
      "Restaurants": 9136,
      "Tragodie": 9137,
      "Chirurgen": 9138,
      "gunstig": 9139,
      "Donald": 9140,
      "vielerlei": 9141,
      "effizienter": 9142,
      "Auffassung": 9143,
      "Offenheit": 9144,
      "Rechner": 9145,
      "synthet": 9146,
      "Skulptur": 9147,
      "prazi": 9148,
      "Mittagessen": 9149,
      "durchzufuhren": 9150,
      "widmen": 9151,
      "Wohin": 9152,
      "Allerdings": 9153,
      "Schreibtisch": 9154,
      "Benjamin": 9155,
      "Dick": 9156,
      "Dimension": 9157,
      "Hals": 9158,
      "Jag": 9159,
      "Kle": 9160,
      "Kub": 9161,
      "Long": 9162,
[...]
