{
  "version": "1.0",
  "truncation": null,
  "padding": null,
  "added_tokens": [
    {
      "id": 0,
      "content": "[PAD]",
      "single_word": false,
      "lstrip": false,
      "rstrip": false,
      "normalized": false,
      "special": true
    },
    {
      "id": 1,
      "content": "[SOS]",
      "single_word": false,
      "lstrip": false,
      "rstrip": false,
      "normalized": false,
      "special": true
    },
    {
      "id": 2,
      "content": "[EOS]",
      "single_word": false,
      "lstrip": false,
      "rstrip": false,
      "normalized": false,
      "special": true
    },
    {
      "id": 3,
      "content": "[UNK]",
      "single_word": false,
      "lstrip": false,
      "rstrip": false,
      "normalized": false,
      "special": true
    }
  ],
  "normalizer": null,
  "pre_tokenizer": {
    "type": "Whitespace"
  },
  "post_processor": {
    "type": "TemplateProcessing",
    "single": [
      {
        "SpecialToken": {
          "id": "[SOS]",
          "type_id": 0
        }
      },
      {
        "Sequence": {
          "id": "A",
          "type_id": 0
        }
      },
      {
        "SpecialToken": {
          "id": "[EOS]",
          "type_id": 0
        }
      }
    ],
    "pair": [
      {
        "Sequence": {
          "id": "A",
          "type_id": 0
        }
      },
      {
        "Sequence": {
          "id": "B",
          "type_id": 1
        }
      }
    ],
    "special_tokens": {
      "[EOS]": {
        "id": "[EOS]",
        "ids": [
          2
        ],
        "tokens": [
          "[EOS]"
        ]
      },
      "[SOS]": {
        "id": "[SOS]",
        "ids": [
          1
        ],
        "tokens": [
          "[SOS]"
        ]
      }
    }
  },
  "decoder": null,
  "model": {
    "type": "BPE",
    "dropout": null,
    "unk_token": "[UNK]",
    "continuing_subword_prefix": null,
    "end_of_word_suffix": null,
    "fuse_unk": false,
    "vocab": {
      "[PAD]": 0,
      "[SOS]": 1,
      "[EOS]": 2,
      "[UNK]": 3,
      "!": 4,
      "\"": 5,
      "#": 6,
      "$": 7,
      "%": 8,
      "&": 9,
      "'": 10,
      "(": 11,
      ")": 12,
      "*": 13,
      "+": 14,
      ",": 15,
      "-": 16,
      ".": 17,
      "/": 18,
      "0": 19,
      "1": 20,
      "2": 21,
      "3": 22,
      "4": 23,
      "5": 24,
      "6": 25,
      "7": 26,
      "8": 27,
      "9": 28,
      ":": 29,
      ";": 30,
      "<": 31,
      "=": 32,
      ">": 33,
      "?": 34,
      "@": 35,
      "A": 36,
      "B": 37,
      "C": 38,
      "D": 39,
      "E": 40,
      "F": 41,
      "G": 42,
      "H": 43,
      "I": 44,
      "J": 45,
      "K": 46,
      "L": 47,
      "M": 48,
      "N": 49,
      "O": 50,
      "P": 51,
      "Q": 52,
      "R": 53,
      "S": 54,
      "T": 55,
      "U": 56,
      "V": 57,
      "W": 58,
      "X": 59,
      "Y": 60,
      "Z": 61,
      "[": 62,
      "]": 63,
      "^": 64,
      "_": 65,
      "`": 66,
      "a": 67,
      "b": 68,
      "c": 69,
      "d": 70,
      "e": 71,
      "f": 72,
      "g": 73,
      "h": 74,
      "i": 75,
      "j": 76,
      "k": 77,
      "l": 78,
      "m": 79,
      "n": 80,
      "o": 81,
      "p": 82,
      "q": 83,
      "r": 84,
      "s": 85,
      "t": 86,
      "u": 87,
      "v": 88,
      "w": 89,
      "x": 90,
      "y": 91,
      "z": 92,
      "{": 93,
      "|": 94,
      "~": 95,
      "": 96,
      "es": 97,
      "en": 98,
      "on": 99,
      "ou": 100,
      "de": 101,
      "re": 102,
      "qu": 103,
      "ai": 104,
      "le": 105,
      "an": 106,
      "er": 107,
      "et": 108,
      "ent": 109,
      "te": 110,
      "que": 111,
      "ne": 112,
      "la": 113,
      "ti": 114,
      "ous": 115,
      "pa": 116,
      "ce": 117,
      "is": 118,
      "les": 119,
      "au": 120,
      "in": 121,
      "se": 122,
      "il": 123,
      "me": 124,
      "ur": 125,
      "est": 126,
      "ch": 127,
      "om": 128,
      "our": 129,
      "un": 130,
      "or": 131,
      "av": 132,
      "ons": 133,
      "des": 134,
      "ment": 135,
      "tr": 136,
      "pr": 137,
      "oi": 138,
      "ie": 139,
      "ais": 140,
      "ait": 141,
      "ans": 142,
      "ar": 143,
      "si": 144,
      "ant": 145,
      "une": 146,
      "ont": 147,
      "par": 148,
      "us": 149,
      "al": 150,
      "di": 151,
      "pe": 152,
      "ci": 153,
      "com": 154,
      "nous": 155,
      "qui": 156,
      "pour": 157,
      "pas": 158,
      "vous": 159,
      "ve": 160,
      "pl": 161,
      "tion": 162,
      "du": 163,
      "dans": 164,
      "lle": 165,
      "je": 166,
      "ca": 167,
      "con": 168,
      "Et": 169,
      "it": 170,
      "os": 171,
      "li": 172,
      "pro": 173,
      "ma": 174,
      "ot": 175,
      "sur": 176,
      "ge": 177,
      "res": 178,
      "ces": 179,
      "ec": 180,
      "ra": 181,
      "plus": 182,
      "ter": 183,
      "ri": 184,
      "ain": 185,
      "ux": 186,
      "vi": 187,
      "per": 188,
      "at": 189,
      "ble": 190,
      "tou": 191,
      "mp": 192,
      "su": 193,
      "ol": 194,
      "mes": 195,
      "ver": 196,
      "aire": 197,
      "end": 198,
      "ut": 199,
      "ens": 200,
      "ex": 201,
      "mon": 202,
      "ois": 203,
      "ac": 204,
      "Il": 205,
      "and": 206,
      "oir": 207,
      "ap": 208,
      "ff": 209,
      "sont": 210,
      "mais": 211,
      "as": 212,
      "ils": 213,
      "fait": 214,
      "avec": 215,
      "ite": 216,
      "ques": 217,
      "aux": 218,
      "tres": 219,
      "tout": 220,
      "cet": 221,
      "son": 222,
      "ure": 223,
      "che": 224,
      "leur": 225,
      "bi": 226,
      "ue": 227,
      "onc": 228,
      "Je": 229,
      "ouve": 230,
      "cou": 231,
      "quel": 232,
      "co": 233,
      "aut": 234,
      "pre": 235,
      "etre": 236,
      "pu": 237,
      "comme": 238,
      "ence": 239,
      "pres": 240,
      "po": 241,
      "aient": 242,
      "ation": 243,
      "ez": 244,
      "cette": 245,
      "avons": 246,
      "otre": 247,
      "ete": 248,
      "ir": 249,
      "--": 250,
      "am": 251,
      "mo": 252,
      "faire": 253,
      "ser": 254,
      "gr": 255,
      "etait": 256,
      "cu": 257,
      "be": 258,
      "ique": 259,
      "ui": 260,
      "ort": 261,
      "jour": 262,
      "ag": 263,
      "cer": 264,
      "ab": 265,
      "ph": 266,
      "ors": 267,
      "og": 268,
      "ouv": 269,
      "man": 270,
      "Mais": 271,
      "tions": 272,
      "oy": 273,
      "iere": 274,
      "oit": 275,
      "ier": 276,
      "Nous": 277,
      "for": 278,
      "vr": 279,
      "lement": 280,
      "ense": 281,
      "bien": 282,
      "sa": 283,
      "der": 284,
      "ins": 285,
      "ten": 286,
      "urs": 287,
      "peut": 288,
      "cr": 289,
      "onne": 290,
      "elle": 291,
      "mer": 292,
      "entre": 293,
      "ist": 294,
      "Ce": 295,
      "00": 296,
      "cons": 297,
      "ob": 298,
      "lles": 299,
      "ler": 300,
      "monde": 301,
      "meme": 302,
      "met": 303,
      "comm": 304,
      "ose": 305,
      "dit": 306,
      "main": 307,
      "gens": 308,
      "im": 309,
      "ance": 310,
      "lis": 311,
      "dis": 312,
      "op": 313,
      "vrai": 314,
      "trav": 315,
      "ants": 316,
      "age": 317,
      "gn": 318,
      "ven": 319,
      "peu": 320,
      "person": 321,
      "em": 322,
      "ici": 323,
      "cre": 324,
      "chose": 325,
      "coup": 326,
      "ys": 327,
      "gen": 328,
      "ide": 329,
      "he": 330,
      "reg": 331,
      "endre": 332,
      "ille": 333,
      "vie": 334,
      "ine": 335,
      "La": 336,
      "rer": 337,
      "aus": 338,
      "inter": 339,
      "mar": 340,
      "parti": 341,
      "puis": 342,
      "tes": 343,
      "notre": 344,
      "vent": 345,
      "uti": 346,
      "able": 347,
      "cela": 348,
      "pouv": 349,
      "tu": 350,
      "fa": 351,
      "dire": 352,
      "quand": 353,
      "Le": 354,
      "fin": 355,
      "<<": 356,
      "suis": 357,
      "beau": 358,
      "diff": 359,
      ">>": 360,
      "avez": 361,
      "ord": 362,
      "comp": 363,
      "lu": 364,
      "cher": 365,
      "tous": 366,
      "imp": 367,
      "Vous": 368,
      "nes": 369,
      "voir": 370,
      "moi": 371,
      "deux": 372,
      "ante": 373,
      "olog": 374,
      "aussi": 375,
      "avoir": 376,
      "pris": 377,
      "orte": 378,
      "mil": 379,
      "ang": 380,
      "En": 381,
      "vraiment": 382,
      "ul": 383,
      "Les": 384,
      "utilis": 385,
      "jus": 386,
      "so": 387,
      "lors": 388,
      "beaucoup": 389,
      "fi": 390,
      "sion": 391,
      "pet": 392,
      "parce": 393,
      "pense": 394,
      "oses": 395,
      "quoi": 396,
      "ard": 397,
      "donc": 398,
      "autre": 399,
      "tique": 400,
      "temp": 401,
      "travai": 402,
      "car": 403,
      "Donc": 404,
      "sent": 405,
      "ct": 406,
      "anne": 407,
      "fois": 408,
      "choses": 409,
      "ion": 410,
      "nos": 411,
      "va": 412,
      "bre": 413,
      "temps": 414,
      "ale": 415,
      "voy": 416,
      "ommes": 417,
      "pos": 418,
      "tenant": 419,
      "avait": 420,
      "oire": 421,
      "aine": 422,
      "autres": 423,
      "tre": 424,
      "vou": 425,
      "nouve": 426,
      "cour": 427,
      "eu": 428,
      "ate": 429,
      "enf": 430,
      "leurs": 431,
      "quelque": 432,
      "votre": 433,
      "Ils": 434,
      "On": 435,
      "hu": 436,
      "ents": 437,
      "prem": 438,
      "ses": 439,
      "int": 440,
      "jet": 441,
      "ja": 442,
      "vis": 443,
      "lui": 444,
      "ole": 445,
      "cont": 446,
      "prendre": 447,
      "tru": 448,
      "part": 449,
      "appe": 450,
      "ouver": 451,
      "sem": 452,
      "ouvez": 453,
      "min": 454,
      "ange": 455,
      "nu": 456,
      "comment": 457,
      "vais": 458,
      "ni": 459,
      "mont": 460,
      "ner": 461,
      "cul": 462,
      "ments": 463,
      "bes": 464,
      "milli": 465,
      "mi": 466,
      "differ": 467,
      "proble": 468,
      "donne": 469,
      "ers": 470,
      "fer": 471,
      "seu": 472,
      "hist": 473,
      "vir": 474,
      "ima": 475,
      "ond": 476,
      "pouvez": 477,
      "jours": 478,
      "oin": 479,
      "voi": 480,
      "tant": 481,
      "vers": 482,
      "tech": 483,
      "dr": 484,
      "arri": 485,
      "cent": 486,
      "nom": 487,
      "cha": 488,
      "ise": 489,
      "..": 490,
      "core": 491,
      "st": 492,
      "ED": 493,
      "vre": 494,
      "ites": 495,
      "passe": 496,
      "ad": 497,
      "all": 498,
      "ions": 499,
      "gra": 500,
      "Si": 501,
      "aires": 502,
      "TED": 503,
      "ati": 504,
      "dev": 505,
      "pens": 506,
      "pla": 507,
      "produ": 508,
      "elles": 509,
      "personnes": 510,
      "pend": 511,
      "Alors": 512,
      "sommes": 513,
      "tement": 514,
      "Voi": 515,
      "mple": 516,
      "techn": 517,
      "ves": 518,
      "iez": 519,
      "rait": 520,
      "Un": 521,
      "sou": 522,
      "encore": 523,
      "lon": 524,
      "soci": 525,
      "fais": 526,
      "dont": 527,
      "import": 528,
      "oc": 529,
      "eux": 530,
      "ieu": 531,
      "cor": 532,
      "cert": 533,
      "rap": 534,
      "annees": 535,
      "eff": 536,
      "olu": 537,
      "out": 538,
      "att": 539,
      "ction": 540,
      "bon": 541,
      "facon": 542,
      "sez": 543,
      "yste": 544,
      "Qu": 545,
      "ures": 546,
      "alk": 547,
      "etes": 548,
      "gran": 549,
      "fem": 550,
      "ente": 551,
      "pi": 552,
      "ene": 553,
      "cri": 554,
      "travail": 555,
      "grand": 556,
      "non": 557,
      "if": 558,
      "pt": 559,
      "gne": 560,
      "alle": 561,
      "commence": 562,
      "lais": 563,
      "conn": 564,
      ".\"": 565,
      "rais": 566,
      "technolog": 567,
      "ls": 568,
      "port": 569,
      "deve": 570,
      "alors": 571,
      "Par": 572,
      "hui": 573,
      "sans": 574,
      "juste": 575,
      "alement": 576,
      "br": 577,
      "Pour": 578,
      "tri": 579,
      "avant": 580,
      "ele": 581,
      "pays": 582,
      "gu": 583,
      "eau": 584,
      "ere": 585,
      "ren": 586,
      "personne": 587,
      "teur": 588,
      "nent": 589,
      "maintenant": 590,
      "toutes": 591,
      "enfants": 592,
      "rep": 593,
      "Ch": 594,
      "tra": 595,
      "trans": 596,
      "omme": 597,
      "etu": 598,
      "ret": 599,
      "jourd": 600,
      "ess": 601,
      "syste": 602,
      "change": 603,
      "veau": 604,
      "veux": 605,
      "ches": 606,
      "mis": 607,
      "bl": 608,
      "besoin": 609,
      "pendant": 610,
      "quelques": 611,
      "pri": 612,
      "ats": 613,
      "alite": 614,
      "bles": 615,
      "envir": 616,
      "trois": 617,
      "regar": 618,
      "ies": 619,
      "its": 620,
      "iques": 621,
      "jamais": 622,
      "dent": 623,
      "ains": 624,
      "histoire": 625,
      "el": 626,
      "jou": 627,
      "say": 628,
      "moins": 629,
      "sci": 630,
      "ener": 631,
      "ges": 632,
      "aines": 633,
      "don": 634,
      "bli": 635,
      "tis": 636,
      "trouve": 637,
      "apres": 638,
      "iste": 639,
      "pren": 640,
      "ien": 641,
      "idee": 642,
      "forma": 643,
      "lar": 644,
      "deman": 645,
      "uni": 646,
      "inte": 647,
      "ign": 648,
      "illes": 649,
      "exe": 650,
      "ger": 651,
      "ieux": 652,
      "th": 653,
      "essay": 654,
      "ic": 655,
      "dern": 656,
      "pouvons": 657,
      "mom": 658,
      "etaient": 659,
      "tif": 660,
      "probleme": 661,
      "use": 662,
      "point": 663,
      "medi": 664,
      "llement": 665,
      "peuvent": 666,
      "sus": 667,
      "toujours": 668,
      "seulement": 669,
      "suite": 670,
      "ations": 671,
      "parler": 672,
      "aujourd": 673,
      "chaque": 674,
      "In": 675,
      "ts": 676,
      "ature": 677,
      "expl": 678,
      "tin": 679,
      "Elle": 680,
      "erci": 681,
      "lop": 682,
      "semble": 683,
      "prof": 684,
      "Voici": 685,
      "Ca": 686,
      "quer": 687,
      "premier": 688,
      "ps": 689,
      "avais": 690,
      "eg": 691,
      "dre": 692,
      "Su": 693,
      "000": 694,
      "moment": 695,
      "soit": 696,
      "cation": 697,
      "exper": 698,
      "ev": 699,
      "cle": 700,
      "partie": 701,
      "savez": 702,
      "nombre": 703,
      "erre": 704,
      "plan": 705,
      "etais": 706,
      "ing": 707,
      "fr": 708,
      "gent": 709,
      "cas": 710,
      "develop": 711,
      "Merci": 712,
      "exemple": 713,
      "teurs": 714,
      "tiques": 715,
      "deven": 716,
      "travaille": 717,
      "crois": 718,
      "question": 719,
      "antes": 720,
      "mettre": 721,
      "can": 722,
      "systeme": 723,
      "premiere": 724,
      "voit": 725,
      "contre": 726,
      "dez": 727,
      "humain": 728,
      "dec": 729,
      "econ": 730,
      "site": 731,
      "voyez": 732,
      "sous": 733,
      "bou": 734,
      "tive": 735,
      "ordin": 736,
      "endr": 737,
      "quelle": 738,
      "mu": 739,
      "gie": 740,
      "present": 741,
      "toute": 742,
      "poli": 743,
      "forme": 744,
      "contr": 745,
      "comple": 746,
      "rit": 747,
      "mal": 748,
      "croy": 749,
      "vu": 750,
      "20": 751,
      "Que": 752,
      "Com": 753,
      "long": 754,
      "maniere": 755,
      "bas": 756,
      "pes": 757,
      "sais": 758,
      "org": 759,
      "trouver": 760,
      "capa": 761,
      "tionne": 762,
      "ture": 763,
      "Tr": 764,
      "fonc": 765,
      "phot": 766,
      "sign": 767,
      "ore": 768,
      "informa": 769,
      "Dans": 770,
      "publi": 771,
      "alis": 772,
      "decou": 773,
      "arrive": 774,
      "tit": 775,
      "econom": 776,
      "pourquoi": 777,
      "connais": 778,
      "anger": 779,
      "lation": 780,
      "ber": 781,
      "vite": 782,
      "ire": 783,
      "grande": 784,
      "deb": 785,
      "sui": 786,
      "vient": 787,
      "Une": 788,
      "ref": 789,
      "sour": 790,
      "the": 791,
      "10": 792,
      "olution": 793,
      "aller": 794,
      "gar": 795,
      "Au": 796,
      "ty": 797,
      "ba": 798,
      "jusqu": 799,
      "parle": 800,
      "organ": 801,
      "cours": 802,
      "commen": 803,
      "lons": 804,
      "De": 805,
      "rien": 806,
      "sible": 807,
      "mode": 808,
      "cerveau": 809,
      "depuis": 810,
      "Quand": 811,
      "donnees": 812,
      "marche": 813,
      "sens": 814,
      "pose": 815,
      "19": 816,
      "sique": 817,
      "spe": 818,
      "cin": 819,
      "petit": 820,
      "pourrait": 821,
      "femmes": 822,
      "aff": 823,
      "rou": 824,
      "cl": 825,
      "commun": 826,
      "faut": 827,
      "air": 828,
      "font": 829,
      "ages": 830,
      "ette": 831,
      "technologie": 832,
      "col": 833,
      "quelqu": 834,
      "heure": 835,
      "Main": 836,
      "assez": 837,
      "simp": 838,
      "nature": 839,
      "no": 840,
      "Maintenant": 841,
      "iel": 842,
      "pere": 843,
      "endroit": 844,
      "aille": 845,
      "cep": 846,
      "ris": 847,
      "different": 848,
      "cel": 849,
      "chez": 850,
      "ple": 851,
      "utiliser": 852,
      "projet": 853,
      "fil": 854,
      "creer": 855,
      "ras": 856,
      "moy": 857,
      "...": 858,
      "demande": 859,
      "pouvoir": 860,
      "gener": 861,
      "ateur": 862,
      "dou": 863,
      "important": 864,
      "fam": 865,
      "sorte": 866,
      "dernier": 867,
      "posi": 868,
      "fond": 869,
      "vide": 870,
      "environ": 871,
      "avaient": 872,
      "ieme": 873,
      "pie": 874,
      "tour": 875,
      "ables": 876,
      "appelle": 877,
      "Cela": 878,
      "lo": 879,
      "anti": 880,
      "millions": 881,
      "alks": 882,
      "sante": 883,
      "one": 884,
      "plu": 885,
      "constru": 886,
      "talks": 887,
      "men": 888,
      "ots": 889,
      "face": 890,
      "net": 891,
      "auc": 892,
      "fri": 893,
      "ta": 894,
      "vos": 895,
      "fut": 896,
      "ences": 897,
      "sance": 898,
      "nouveau": 899,
      "deci": 900,
      "devons": 901,
      "enne": 902,
      "genre": 903,
      "montre": 904,
      "tue": 905,
      "sions": 906,
      "comprendre": 907,
      "eur": 908,
      "tele": 909,
      "indi": 910,
      "souv": 911,
      "imag": 912,
      "ga": 913,
      "ieur": 914,
      "cote": 915,
      "grou": 916,
      "ifi": 917,
      "mala": 918,
      "cherche": 919,
      "Ne": 920,
      "fai": 921,
      "ablement": 922,
      "place": 923,
      "Trans": 924,
      "rez": 925,
      "aute": 926,
      "ig": 927,
      "ica": 928,
      "utilise": 929,
      "culture": 930,
      "donner": 931,
      "bu": 932,
      "inf": 933,
      "Talk": 934,
      "peux": 935,
      "cript": 936,
      "espa": 937,
      "mble": 938,
      "Sub": 939,
      "rest": 940,
      "sie": 941,
      "experi": 942,
      "Parce": 943,
      "hab": 944,
      "titles": 945,
      "Transcript": 946,
      "Subtitles": 947,
      "cla": 948,
      "gros": 949,
      "ines": 950,
      "utot": 951,
      "equi": 952,
      "deja": 953,
      "train": 954,
      "meil": 955,
      "cite": 956,
      "etudi": 957,
      "titu": 958,
      "ilite": 959,
      "cal": 960,
      "sec": 961,
      "50": 962,
      "sol": 963,
      "developpe": 964,
      "tent": 965,
      "tie": 966,
      "montrer": 967,
      "uses": 968,
      "cellu": 969,
      "ill": 970,
      "travers": 971,
      "dol": 972,
      "ales": 973,
      "savoir": 974,
      "die": 975,
      "bonne": 976,
      "elec": 977,
      "homme": 978,
      "plutot": 979,
      "sy": 980,
      "simplement": 981,
      "ceux": 982,
      "sau": 983,
      "sait": 984,
      "trop": 985,
      "dollar": 986,
      "pression": 987,
      "annee": 988,
      "riere": 989,
      "atre": 990,
      "problemes": 991,
      "cli": 992,
      "cree": 993,
      "iner": 994,
      "Comment": 995,
      "penser": 996,
      "plupart": 997,
      "chi": 998,
      "interess": 999,
      "inci": 1000,
      "changer": 1001,
      "ceci": 1002,
      "permet": 1003,
      "repon": 1004,
      "corps": 1005,
      "pati": 1006,
      "ville": 1007,
      "mort": 1008,
      "ensemble": 1009,
      "mois": 1010,
      "serait": 1011,
      "acc": 1012,
      "raison": 1013,
      "nouvelle": 1014,
      "sons": 1015,
      "ran": 1016,
      "porte": 1017,
      "diffici": 1018,
      "anim": 1019,
      "ali": 1020,
      "Etats": 1021,
      "prend": 1022,
      "arre": 1023,
      "ference": 1024,
      "ager": 1025,
      "Ou": 1026,
      "mor": 1027,
      "sor": 1028,
      "hi": 1029,
      "ennent": 1030,
      "ensuite": 1031,
      "energie": 1032,
      "gouver": 1033,
      "soi": 1034,
      "rions": 1035,
      "colle": 1036,
      "importe": 1037,
      "pare": 1038,
      "agit": 1039,
      "esse": 1040,
      "tenir": 1041,
      "ach": 1042,
      "devr": 1043,
      "mment": 1044,
      "ay": 1045,
      "voici": 1046,
      "ues": 1047,
      "laquelle": 1048,
      "mieux": 1049,
      "prise": 1050,
      "ieurs": 1051,
      "refle": 1052,
      "por": 1053,
      "incroy": 1054,
      "ert": 1055,
      "ro": 1056,
      "gram": 1057,
      "lez": 1058,
      "passer": 1059,
      "bat": 1060,
      "dollars": 1061,
      "prob": 1062,
      "Unis": 1063,
      "phy": 1064,
      "lab": 1065,
      "cs": 1066,
      "ainsi": 1067,
      "science": 1068,
      "petite": 1069,
      "lig": 1070,
      "ban": 1071,
      "tot": 1072,
      "seul": 1073,
      "art": 1074,
      "doit": 1075,
      "Tout": 1076,
      "argent": 1077,
      "Afri": 1078,
      "cture": 1079,
      "lum": 1080,
      "trui": 1081,
      "veut": 1082,
      "sage": 1083,
      "Pourquoi": 1084,
      "dur": 1085,
      "lieu": 1086,
      "eme": 1087,
      "compte": 1088,
      "Des": 1089,
      "rir": 1090,
      "hommes": 1091,
      "pourr": 1092,
      "sant": 1093,
      "bres": 1094,
      "ton": 1095,
      "organis": 1096,
      "onnement": 1097,
      "vres": 1098,
      "milliard": 1099,
      "experience": 1100,
      "venir": 1101,
      "espace": 1102,
      "An": 1103,
      "simple": 1104,
      "super": 1105,
      "vant": 1106,
      "reste": 1107,
      "habit": 1108,
      "lent": 1109,
      "vont": 1110,
      "trait": 1111,
      "200": 1112,
      "istes": 1113,
      "ifie": 1114,
      "sujet": 1115,
      "endu": 1116,
      "vo": 1117,
      "dom": 1118,
      "truire": 1119,
      "design": 1120,
      "allons": 1121,
      "conti": 1122,
      "ateurs": 1123,
      "gouverne": 1124,
      "rob": 1125,
      "?\"": 1126,
      "ame": 1127,
      "propre": 1128,
      "cau": 1129,
      "femme": 1130,
      "dus": 1131,
      "vol": 1132,
      "scient": 1133,
      "certains": 1134,
      "her": 1135,
      "haut": 1136,
      "ones": 1137,
      "secon": 1138,
      "ult": 1139,
      "aide": 1140,
      "base": 1141,
      "oires": 1142,
      "program": 1143,
      "ances": 1144,
      "edu": 1145,
      "appele": 1146,
      "ass": 1147,
      "ech": 1148,
      "decouver": 1149,
      "ident": 1150,
      "tom": 1151,
      "possible": 1152,
      "sera": 1153,
      "Mon": 1154,
      "nour": 1155,
      "memes": 1156,
      "tez": 1157,
      "conne": 1158,
      "tir": 1159,
      "arti": 1160,
      "centre": 1161,
      "lorsque": 1162,
      "celui": 1163,
      "prote": 1164,
      "mondi": 1165,
      "ogra": 1166,
      "rec": 1167,
      "seule": 1168,
      "electr": 1169,
      "Cette": 1170,
      "quatre": 1171,
      "pau": 1172,
      "\".": 1173,
      "differentes": 1174,
      "mas": 1175,
      "lait": 1176,
      "espr": 1177,
      "princi": 1178,
      "alise": 1179,
      "autour": 1180,
      "char": 1181,
      "espe": 1182,
      "ets": 1183,
      "celle": 1184,
      "realite": 1185,
      "enfant": 1186,
      "Ces": 1187,
      "fac": 1188,
      "nation": 1189,
      "souvent": 1190,
      "rend": 1191,
      "aime": 1192,
      "dessus": 1193,
      "appar": 1194,
      "xe": 1195,
      "rapide": 1196,
      "Mar": 1197,
      "cra": 1198,
      "idees": 1199,
      "ecole": 1200,
      "difficile": 1201,
      "Afrique": 1202,
      "Con": 1203,
      "mesure": 1204,
      "ep": 1205,
      "lang": 1206,
      "lit": 1207,
      "mau": 1208,
      "30": 1209,
      "Amer": 1210,
      "tard": 1211,
      "ome": 1212,
      "etr": 1213,
      "trai": 1214,
      "construire": 1215,
      "niveau": 1216,
      "sort": 1217,
      "faites": 1218,
      "mach": 1219,
      "maison": 1220,
      "groupe": 1221,
      "meilleur": 1222,
      "popu": 1223,
      "cause": 1224,
      "unes": 1225,
      "vue": 1226,
      "mere": 1227,
      "atte": 1228,
      "societe": 1229,
      "avions": 1230,
      "enor": 1231,
      "proces": 1232,
      "regard": 1233,
      "result": 1234,
      "regarde": 1235,
      "gment": 1236,
      "viennent": 1237,
      "pot": 1238,
      "image": 1239,
      "aur": 1240,
      "vivre": 1241,
      "pli": 1242,
      "eter": 1243,
      "oite": 1244,
      "planete": 1245,
      "aider": 1246,
      "partir": 1247,
      "dem": 1248,
      "faci": 1249,
      "faisons": 1250,
      "sement": 1251,
      "changement": 1252,
      "environnement": 1253,
      "commencer": 1254,
      "onn": 1255,
      "allez": 1256,
      "attent": 1257,
      "nouvelles": 1258,
      "accord": 1259,
      "sc": 1260,
      "let": 1261,
      "acti": 1262,
      "oles": 1263,
      "essayer": 1264,
      "ligne": 1265,
      "famille": 1266,
      "gres": 1267,
      "abri": 1268,
      "lumiere": 1269,
      "presente": 1270,
      "Eh": 1271,
      "onde": 1272,
      "droit": 1273,
      "type": 1274,
      "Est": 1275,
      "hy": 1276,
      "Bon": 1277,
      "savons": 1278,
      "off": 1279,
      "travailler": 1280,
      "action": 1281,
      "proch": 1282,
      "Voila": 1283,
      "utes": 1284,
      "sup": 1285,
      "presque": 1286,
      "obser": 1287,
      "ru": 1288,
      "nee": 1289,
      "objet": 1290,
      "resp": 1291,
      "clas": 1292,
      "ograph": 1293,
      "prec": 1294,
      "mater": 1295,
      "ressemble": 1296,
      "iquement": 1297,
      "speci": 1298,
      "reponse": 1299,
      "ds": 1300,
      "io": 1301,
      "reve": 1302,
      "produit": 1303,
      "egalement": 1304,
      "fonction": 1305,
      "test": 1306,
      "voulez": 1307,
      "reus": 1308,
      "tellement": 1309,
      "aitre": 1310,
      "debut": 1311,
      "milliards": 1312,
      "fs": 1313,
      "gag": 1314,
      "invent": 1315,
      "four": 1316,
      "livre": 1317,
      "public": 1318,
      "amer": 1319,
      "fini": 1320,
      "esprit": 1321,
      "conf": 1322,
      "rappe": 1323,
      "humains": 1324,
      "terre": 1325,
      "um": 1326,
      "Elles": 1327,
      "lan": 1328,
      "epo": 1329,
      "petits": 1330,
      "sembl": 1331,
      "apprendre": 1332,
      "jeu": 1333,
      "particu": 1334,
      "equipe": 1335,
      "aimer": 1336,
      "plusieurs": 1337,
      "cellules": 1338,
      "han": 1339,
      "lier": 1340,
      "ecri": 1341,
      "film": 1342,
      "recherche": 1343,
      "vision": 1344,
      "chir": 1345,
      "trouv": 1346,
      "appris": 1347,
      "100": 1348,
      "ho": 1349,
      "propos": 1350,
      "photo": 1351,
      "tel": 1352,
      "doi": 1353,
      "Bien": 1354,
      "vation": 1355,
      "questions": 1356,
      "moyen": 1357,
      "condu": 1358,
      "augment": 1359,
      "vit": 1360,
      "heures": 1361,
      "riture": 1362,
      "retour": 1363,
      "entr": 1364,
      "tifs": 1365,
      "differents": 1366,
      "yeux": 1367,
      "fonctionne": 1368,
      "remar": 1369,
      "ierement": 1370,
      "epoque": 1371,
      "Inter": 1372,
      "aise": 1373,
      "cinq": 1374,
      "orer": 1375,
      "intel": 1376,
      "mag": 1377,
      "arriver": 1378,
      "pou": 1379,
      "pouvait": 1380,
      "regarder": 1381,
      "tete": 1382,
      "signifie": 1383,
      "New": 1384,
      "Oui": 1385,
      "gl": 1386,
      "versite": 1387,
      "appro": 1388,
      "reelle": 1389,
      "conse": 1390,
      "anci": 1391,
      "probablement": 1392,
      "ope": 1393,
      "empl": 1394,
      "ologie": 1395,
      "fabri": 1396,
      "guerre": 1397,
      "mouve": 1398,
      "enir": 1399,
      "arch": 1400,
      "voila": 1401,
      "decide": 1402,
      "rendre": 1403,
      "exac": 1404,
      "lim": 1405,
      "cancer": 1406,
      "labor": 1407,
      "voiture": 1408,
      "animaux": 1409,
      "outi": 1410,
      "conce": 1411,
      "prises": 1412,
      "entendu": 1413,
      "processus": 1414,
      "servi": 1415,
      "force": 1416,
      "modele": 1417,
      "aurait": 1418,
      "inno": 1419,
      "abord": 1420,
      "cro": 1421,
      "devez": 1422,
      "Pu": 1423,
      "pier": 1424,
      "sin": 1425,
      "completement": 1426,
      "Ma": 1427,
      "rement": 1428,
      "neur": 1429,
      "isme": 1430,
      "eng": 1431,
      "americ": 1432,
      "education": 1433,
      "ari": 1434,
      "politique": 1435,
      "ree": 1436,
      "peur": 1437,
      "derniere": 1438,
      "lage": 1439,
      "indre": 1440,
      "ordinateur": 1441,
      "position": 1442,
      "amis": 1443,
      "medica": 1444,
      "comporte": 1445,
      "gouvernement": 1446,
      "chac": 1447,
      "interieur": 1448,
      "communaute": 1449,
      "cte": 1450,
      "urite": 1451,
      "do": 1452,
      "log": 1453,
      "cap": 1454,
      "pous": 1455,
      "developpement": 1456,
      "musique": 1457,
      "oce": 1458,
      "\",": 1459,
      "stru": 1460,
      "oix": 1461,
      "ecou": 1462,
      "role": 1463,
      "informations": 1464,
      "chois": 1465,
      "viv": 1466,
      "partout": 1467,
      "univers": 1468,
      "devenir": 1469,
      "etres": 1470,
      "cit": 1471,
      "regardez": 1472,
      "terr": 1473,
      "bati": 1474,
      "acter": 1475,
      "15": 1476,
      "oo": 1477,
      "aque": 1478,
      "mot": 1479,
      "histoires": 1480,
      "iter": 1481,
      "grace": 1482,
      "cy": 1483,
      "video": 1484,
      "enorme": 1485,
      "bus": 1486,
      "disent": 1487,
      "allait": 1488,
      "hum": 1489,
      "ili": 1490,
      "passion": 1491,
      "def": 1492,
      "pay": 1493,
      "plique": 1494,
      "demo": 1495,
      "compa": 1496,
      "chau": 1497,
      "matique": 1498,
      "rela": 1499,
      "redu": 1500,
      "mots": 1501,
      "etat": 1502,
      "Comme": 1503,
      "mine": 1504,
      "atique": 1505,
      "voulais": 1506,
      "ifiques": 1507,
      "ju": 1508,
      ">>.": 1509,
      "continu": 1510,
      "minutes": 1511,
      "fas": 1512,
      "gre": 1513,
      "aucune": 1514,
      "tend": 1515,
      "existe": 1516,
      "Al": 1517,
      "Non": 1518,
      "fe": 1519,
      "taille": 1520,
      "consci": 1521,
      "solu": 1522,
      "certaines": 1523,
      "ifique": 1524,
      "Terre": 1525,
      "nor": 1526,
      "interessant": 1527,
      "ameli": 1528,
      "teleph": 1529,
      "issent": 1530,
      "conte": 1531,
      "information": 1532,
      "oph": 1533,
      "cule": 1534,
      "indivi": 1535,
      "effet": 1536,
      "aucun": 1537,
      "envoy": 1538,
      "vil": 1539,
      "capacite": 1540,
      "table": 1541,
      "ork": 1542,
      "viol": 1543,
      "Tu": 1544,
      "cele": 1545,
      "ami": 1546,
      "loin": 1547,
      "vois": 1548,
      "indus": 1549,
      "grands": 1550,
      "incroyable": 1551,
      "rem": 1552,
      "dernieres": 1553,
      "oeu": 1554,
      "sub": 1555,
      "Internet": 1556,
      "neces": 1557,
      "extre": 1558,
      "veille": 1559,
      "Quel": 1560,
      "reven": 1561,
      "ail": 1562,
      "fo": 1563,
      "jeunes": 1564,
      "bout": 1565,
      "situ": 1566,
      "futur": 1567,
      "ible": 1568,
      "images": 1569,
      "villes": 1570,
      "lequel": 1571,
      "conside": 1572,
      "nourriture": 1573,
      "rece": 1574,
      "acces": 1575,
      "Inde": 1576,
      "communi": 1577,
      "certaine": 1578,
      "Ceci": 1579,
      "voudr": 1580,
      "Re": 1581,
      "afin": 1582,
      "val": 1583,
      "radi": 1584,
      "chance": 1585,
      "hor": 1586,
      "essaye": 1587,
      "realis": 1588,
      "fre": 1589,
      "entier": 1590,
      "choix": 1591,
      "mati": 1592,
      "occu": 1593,
      "abilite": 1594,
      "Ar": 1595,
      "cti": 1596,
      "vites": 1597,
      "eaux": 1598,
      "grandes": 1599,
      "ception": 1600,
      "leve": 1601,
      "ration": 1602,
      "creati": 1603,
      "ox": 1604,
      "exactement": 1605,
      "parents": 1606,
      "effica": 1607,
      "siecle": 1608,
      "ecrit": 1609,
      "dois": 1610,
      "numer": 1611,
      "jouer": 1612,
      "etique": 1613,
      "milliers": 1614,
      "oh": 1615,
      "eche": 1616,
      "controle": 1617,
      "we": 1618,
      "quelles": 1619,
      "ulent": 1620,
      "porter": 1621,
      "coeur": 1622,
      "tal": 1623,
      "Pas": 1624,
      "ck": 1625,
      "inves": 1626,
      "ly": 1627,
      "diri": 1628,
      "voulons": 1629,
      "cles": 1630,
      "reellement": 1631,
      "element": 1632,
      "lie": 1633,
      "recu": 1634,
      "Car": 1635,
      "bar": 1636,
      "decouvert": 1637,
      "glob": 1638,
      "merci": 1639,
      "rapidement": 1640,
      "Dieu": 1641,
      "id": 1642,
      "evolution": 1643,
      "cie": 1644,
      "fille": 1645,
      "parfois": 1646,
      "ane": 1647,
      "expli": 1648,
      "oper": 1649,
      "pen": 1650,
      "auche": 1651,
      "actue": 1652,
      "prom": 1653,
      "orie": 1654,
      "archite": 1655,
      "repond": 1656,
      "toi": 1657,
      "quent": 1658,
      "insi": 1659,
      "physique": 1660,
      "orig": 1661,
      "extra": 1662,
      "possi": 1663,
      "jec": 1664,
      "programme": 1665,
      "oui": 1666,
      "represent": 1667,
      "securite": 1668,
      "essent": 1669,
      "ha": 1670,
      "ry": 1671,
      "eres": 1672,
      "senti": 1673,
      ">>,": 1674,
      "principa": 1675,
      "York": 1676,
      "direc": 1677,
      "economie": 1678,
      "ace": 1679,
      "voyons": 1680,
      "devant": 1681,
      "population": 1682,
      "tivement": 1683,
      "Puis": 1684,
      "pol": 1685,
      "artis": 1686,
      "impression": 1687,
      "rencontre": 1688,
      "usement": 1689,
      "gues": 1690,
      "Ainsi": 1691,
      "pect": 1692,
      "illeure": 1693,
      "psy": 1694,
      "six": 1695,
      "pensez": 1696,
      "tribu": 1697,
      "prennent": 1698,
      "ute": 1699,
      "trie": 1700,
      "40": 1701,
      "gla": 1702,
      "meilleure": 1703,
      "former": 1704,
      "attention": 1705,
      "rapport": 1706,
      "inez": 1707,
      "iser": 1708,
      "18": 1709,
      "but": 1710,
      "exist": 1711,
      "importante": 1712,
      "prix": 1713,
      "reussi": 1714,
      "anal": 1715,
      "maladie": 1716,
      "compris": 1717,
      "uel": 1718,
      "demander": 1719,
      "mauvais": 1720,
      "Chine": 1721,
      "tas": 1722,
      "partage": 1723,
      "longtemps": 1724,
      "etudiants": 1725,
      "emp": 1726,
      "mul": 1727,
      "vies": 1728,
      "difference": 1729,
      "formes": 1730,
      "go": 1731,
      "endroits": 1732,
      "60": 1733,
      "nant": 1734,
      "Amerique": 1735,
      "respons": 1736,
      "dies": 1737,
      "aie": 1738,
      "cir": 1739,
      "scientifiques": 1740,
      "Pe": 1741,
      "anc": 1742,
      "cident": 1743,
      "sources": 1744,
      "realise": 1745,
      "devenu": 1746,
      "petites": 1747,
      "systemes": 1748,
      "voyage": 1749,
      "bilite": 1750,
      "veulent": 1751,
      "ital": 1752,
      "capable": 1753,
      "concer": 1754,
      "facile": 1755,
      "rev": 1756,
      "souff": 1757,
      "espere": 1758,
      "appare": 1759,
      "contin": 1760,
      "amour": 1761,
      "echelle": 1762,
      "puisse": 1763,
      "pire": 1764,
      "chiff": 1765,
      "obtenir": 1766,
      "mene": 1767,
      "racont": 1768,
      "humaine": 1769,
      "trou": 1770,
      "devrait": 1771,
      "feu": 1772,
      "produits": 1773,
      "technologies": 1774,
      "plein": 1775,
      "merveille": 1776,
      "chacun": 1777,
      "depend": 1778,
      "viens": 1779,
      "nuit": 1780,
      "suff": 1781,
      "milieu": 1782,
      "mouvement": 1783,
      "lant": 1784,
      "sionne": 1785,
      "sav": 1786,
      "vain": 1787,
      "airement": 1788,
      "decis": 1789,
      "hors": 1790,
      "devient": 1791,
      "journ": 1792,
      "gene": 1793,
      "produire": 1794,
      "entreprises": 1795,
      "da": 1796,
      "gauche": 1797,
      "oli": 1798,
      "chim": 1799,
      "Uni": 1800,
      "ieres": 1801,
      "selon": 1802,
      "connu": 1803,
      "iers": 1804,
      "nouveaux": 1805,
      "Ave": 1806,
      "conc": 1807,
      "quels": 1808,
      "OK": 1809,
      "combien": 1810,
      "confi": 1811,
      "dispar": 1812,
      "deuxieme": 1813,
      "fort": 1814,
      "graph": 1815,
      "igne": 1816,
      "salle": 1817,
      "enseign": 1818,
      "metres": 1819,
      "particulier": 1820,
      "amment": 1821,
      "attend": 1822,
      "emo": 1823,
      "poser": 1824,
      "profonde": 1825,
      "heureux": 1826,
      "democra": 1827,
      "jeune": 1828,
      "mem": 1829,
      "intellig": 1830,
      "consom": 1831,
      "aimerais": 1832,
      "12": 1833,
      "imaginer": 1834,
      "chant": 1835,
      "recher": 1836,
      "machine": 1837,
      "solution": 1838,
      "doivent": 1839,
      "tradi": 1840,
      "partici": 1841,
      "pois": 1842,
      "guer": 1843,
      "fl": 1844,
      "mondiale": 1845,
      "comportement": 1846,
      "ingen": 1847,
      "human": 1848,
      "aliment": 1849,
      "Conference": 1850,
      "traite": 1851,
      "bio": 1852,
      "photos": 1853,
      "structure": 1854,
      "sortir": 1855,
      "surface": 1856,
      "entreprise": 1857,
      "80": 1858,
      "Oh": 1859,
      "mee": 1860,
      "termin": 1861,
      "etude": 1862,
      "industrie": 1863,
      "liber": 1864,
      "quanti": 1865,
      "biolog": 1866,
      "droite": 1867,
      "reseau": 1868,
      "dy": 1869,
      "sex": 1870,
      "conference": 1871,
      "faite": 1872,
      "ament": 1873,
      "progres": 1874,
      "champ": 1875,
      "joue": 1876,
      "meur": 1877,
      "croissance": 1878,
      "magn": 1879,
      "voix": 1880,
      "construit": 1881,
      "voudrais": 1882,
      "ah": 1883,
      "partager": 1884,
      "Reg": 1885,
      "situation": 1886,
      "oe": 1887,
      "autant": 1888,
      "pouvais": 1889,
      "etions": 1890,
      "resultats": 1891,
      "icite": 1892,
      "suiv": 1893,
      "medec": 1894,
      "resou": 1895,
      "patients": 1896,
      "materi": 1897,
      "psych": 1898,
      "ow": 1899,
      "otes": 1900,
      "centaines": 1901,
      "kil": 1902,
      "noir": 1903,
      "effec": 1904,
      "som": 1905,
      "propres": 1906,
      "len": 1907,
      "tem": 1908,
      "personn": 1909,
      "extreme": 1910,
      "maines": 1911,
      "carte": 1912,
      "demand": 1913,
      "dir": 1914,
      "semaines": 1915,
      "ray": 1916,
      "suc": 1917,
      "derriere": 1918,
      "continue": 1919,
      "Cert": 1920,
      "livres": 1921,
      "pourraient": 1922,
      "necess": 1923,
      "Mi": 1924,
      "terme": 1925,
      "rendu": 1926,
      "bure": 1927,
      "lance": 1928,
      "mour": 1929,
      "bil": 1930,
      "moitie": 1931,
      "voie": 1932,
      "soient": 1933,
      "He": 1934,
      "fu": 1935,
      "cine": 1936,
      "verse": 1937,
      "source": 1938,
      "pensent": 1939,
      "pensons": 1940,
      "iti": 1941,
      "poi": 1942,
      "esp": 1943,
      "desc": 1944,
      "AD": 1945,
      "bras": 1946,
      "semaine": 1947,
      "laisser": 1948,
      "maladies": 1949,
      "peau": 1950,
      "compet": 1951,
      "certain": 1952,
      "Eur": 1953,
      "Per": 1954,
      "lire": 1955,
      "termes": 1956,
      "bru": 1957,
      "extraordin": 1958,
      "hop": 1959,
      "mons": 1960,
      "voul": 1961,
      "grav": 1962,
      "entrer": 1963,
      "condi": 1964,
      "Pl": 1965,
      "avenir": 1966,
      "risque": 1967,
      "resoudre": 1968,
      "gue": 1969,
      "points": 1970,
      "Pa": 1971,
      "isation": 1972,
      "finalement": 1973,
      "prenez": 1974,
      "dirige": 1975,
      "raisons": 1976,
      "gaz": 1977,
      "allu": 1978,
      "sole": 1979,
      "fondament": 1980,
      "ement": 1981,
      "obten": 1982,
      "atta": 1983,
      "isent": 1984,
      "piece": 1985,
      "assis": 1986,
      "outils": 1987,
      "nombreux": 1988,
      "pauvre": 1989,
      "Lors": 1990,
      "papier": 1991,
      "uns": 1992,
      "atoire": 1993,
      "particul": 1994,
      "vrir": 1995,
      "ADN": 1996,
      "orite": 1997,
      "St": 1998,
      "str": 1999,
      "ressent": 2000,
      "truc": 2001,
      "const": 2002,
      "Europe": 2003,
      "fou": 2004,
      "eleve": 2005,
      "morce": 2006,
      "objets": 2007,
      "CA": 2008,
      "perdu": 2009,
      "cules": 2010,
      "instant": 2011,
      "sac": 2012,
      "relation": 2013,
      "pourrions": 2014,
      "matin": 2015,
      "istance": 2016,
      "complex": 2017,
      "sortes": 2018,
      "sang": 2019,
      "esti": 2020,
      "classe": 2021,
      "iller": 2022,
      "mation": 2023,
      "uelle": 2024,
      "impa": 2025,
      "economique": 2026,
      "Peut": 2027,
      "loc": 2028,
      "laisse": 2029,
      "ailleurs": 2030,
      "onte": 2031,
      "mpa": 2032,
      "disait": 2033,
      "differente": 2034,
      "premiers": 2035,
      "compagn": 2036,
      "impos": 2037,
      "faisant": 2038,
      "seconde": 2039,
      "Go": 2040,
      "tirer": 2041,
      "aura": 2042,
      "actions": 2043,
      "vions": 2044,
      "phere": 2045,
      "espoir": 2046,
      "ade": 2047,
      "dra": 2048,
      "nombreuses": 2049,
      "reun": 2050,
      "mole": 2051,
      "valeur": 2052,
      "troisieme": 2053,
      "Se": 2054,
      "det": 2055,
      "defi": 2056,
      "reel": 2057,
      "ori": 2058,
      "etant": 2059,
      "lorsqu": 2060,
      "mener": 2061,
      "Aujourd": 2062,
      "imagin": 2063,
      "scene": 2064,
      "pon": 2065,
      "scientifique": 2066,
      "preu": 2067,
      "developper": 2068,
      "suivre": 2069,
      "25": 2070,
      "jeux": 2071,
      "mathe": 2072,
      "represente": 2073,
      "quit": 2074,
      "agir": 2075,
      "finir": 2076,
      "ocean": 2077,
      "ition": 2078,
      "oure": 2079,
      "etudes": 2080,
      "especes": 2081,
      "ative": 2082,
      "xte": 2083,
      "perio": 2084,
      "espece": 2085,
      "litter": 2086,
      "ke": 2087,
      "theorie": 2088,
      "potent": 2089,
      "impact": 2090,
      "bene": 2091,
      "rom": 2092,
      "succes": 2093,
      "11": 2094,
      "Apres": 2095,
      "entend": 2096,
      "portun": 2097,
      "innovation": 2098,
      "enreg": 2099,
      "celles": 2100,
      "rester": 2101,
      "ecrire": 2102,
      "social": 2103,
      "professe": 2104,
      "fourn": 2105,
      "laire": 2106,
      "relig": 2107,
      "ressources": 2108,
      "exter": 2109,
      "objec": 2110,
      "opportun": 2111,
      "visage": 2112,
      "expliquer": 2113,
      "vari": 2114,
      "asse": 2115,
      "technology": 2116,
      "ordinateurs": 2117,
      "90": 2118,
      "filles": 2119,
      "Ensuite": 2120,
      "Avec": 2121,
      "to": 2122,
      "mains": 2123,
      "musi": 2124,
      "foret": 2125,
      "resultat": 2126,
      "approche": 2127,
      "telephone": 2128,
      "raconter": 2129,
      "bons": 2130,
      "tro": 2131,
      "journee": 2132,
      "interet": 2133,
      "domaine": 2134,
      "individu": 2135,
      "anche": 2136,
      "parmi": 2137,
      "monte": 2138,
      "ile": 2139,
      "vez": 2140,
      "large": 2141,
      "fant": 2142,
      "spect": 2143,
      "animal": 2144,
      "connaitre": 2145,
      "vitesse": 2146,
      "zone": 2147,
      "soleil": 2148,
      "ajou": 2149,
      "gri": 2150,
      "illi": 2151,
      "arriere": 2152,
      "prenons": 2153,
      "voitures": 2154,
      "reflechir": 2155,
      "qua": 2156,
      "longue": 2157,
      "gars": 2158,
      "lin": 2159,
      "tire": 2160,
      "avere": 2161,
      "ia": 2162,
      "nie": 2163,
      "qualite": 2164,
      "chemin": 2165,
      "ifier": 2166,
      "rent": 2167,
      "interesse": 2168,
      "dela": 2169,
      "issu": 2170,
      "fils": 2171,
      "lever": 2172,
      "utilisant": 2173,
      "faisait": 2174,
      "groupes": 2175,
      "chercher": 2176,
      "eth": 2177,
      "cier": 2178,
      "matiere": 2179,
      "ader": 2180,
      "demi": 2181,
      "robot": 2182,
      "phen": 2183,
      "adap": 2184,
      "devrions": 2185,
      "conscience": 2186,
      "ese": 2187,
      "avance": 2188,
      "riches": 2189,
      "concept": 2190,
      "abe": 2191,
      "exam": 2192,
      "montr": 2193,
      "enseigne": 2194,
      "arreter": 2195,
      "etoi": 2196,
      "terri": 2197,
      "den": 2198,
      "equ": 2199,
      "coute": 2200,
      "confiance": 2201,
      "70": 2202,
      "Is": 2203,
      "traver": 2204,
      "marcher": 2205,
      "modeles": 2206,
      "lam": 2207,
      "virus": 2208,
      "production": 2209,
      "charge": 2210,
      "atteindre": 2211,
      "continuer": 2212,
      "global": 2213,
      "Ste": 2214,
      "souh": 2215,
      "comb": 2216,
      "iences": 2217,
      "experiences": 2218,
      "pourriez": 2219,
      "taux": 2220,
      "dul": 2221,
      "appr": 2222,
      "voulait": 2223,
      "mission": 2224,
      "tient": 2225,
      "iness": 2226,
      "emis": 2227,
      "blie": 2228,
      "Plus": 2229,
      "venu": 2230,
      "utilisent": 2231,
      "mat": 2232,
      "vivent": 2233,
      "influ": 2234,
      "batiment": 2235,
      "quantite": 2236,
      "hom": 2237,
      "ron": 2238,
      "chent": 2239,
      "rue": 2240,
      "pratique": 2241,
      "endant": 2242,
      "appel": 2243,
      "revolution": 2244,
      "propri": 2245,
      "mari": 2246,
      "trice": 2247,
      "projets": 2248,
      "cter": 2249,
      "generation": 2250,
      "titude": 2251,
      "investis": 2252,
      "inqui": 2253,
      "traitement": 2254,
      "institu": 2255,
      "courage": 2256,
      "bonnes": 2257,
      "acheter": 2258,
      "robots": 2259,
      "omes": 2260,
      "Qui": 2261,
      "sure": 2262,
      "sal": 2263,
      "evi": 2264,
      "las": 2265,
      "urg": 2266,
      "posse": 2267,
      "recherches": 2268,
      "fere": 2269,
      "monter": 2270,
      "physi": 2271,
      "neu": 2272,
      "syn": 2273,
      "tendance": 2274,
      "ich": 2275,
      "serie": 2276,
      "formation": 2277,
      "langage": 2278,
      "heur": 2279,
      "decouvrir": 2280,
      "stu": 2281,
      "seront": 2282,
      "absolu": 2283,
      "ee": 2284,
      "quant": 2285,
      "regles": 2286,
      "durant": 2287,
      "semblent": 2288,
      "etc": 2289,
      "iellement": 2290,
      "meilleurs": 2291,
      "remarque": 2292,
      "leg": 2293,
      "even": 2294,
      "jam": 2295,
      "page": 2296,
      "ith": 2297,
      "Ici": 2298,
      "drog": 2299,
      "savent": 2300,
      "fra": 2301,
      "ibles": 2302,
      "veaux": 2303,
      "phil": 2304,
      "Sud": 2305,
      "capables": 2306,
      "inois": 2307,
      "Tou": 2308,
      "cale": 2309,
      "sociaux": 2310,
      "region": 2311,
      "bri": 2312,
      "pret": 2313,
      "Imag": 2314,
      "types": 2315,
      "pauvres": 2316,
      "Regar": 2317,
      "lions": 2318,
      "moder": 2319,
      "Goog": 2320,
      "Notre": 2321,
      "dimen": 2322,
      "amene": 2323,
      "connaissance": 2324,
      "extremement": 2325,
      "pil": 2326,
      "pouvaient": 2327,
      "ohn": 2328,
      "bla": 2329,
      "zones": 2330,
      "sive": 2331,
      "faits": 2332,
      "inst": 2333,
      "trucs": 2334,
      "rouge": 2335,
      "violence": 2336,
      "emer": 2337,
      "hen": 2338,
      "ises": 2339,
      "appli": 2340,
      "cole": 2341,
      "crise": 2342,
      "micr": 2343,
      "photograph": 2344,
      "quence": 2345,
      "sept": 2346,
      "ctive": 2347,
      "verite": 2348,
      "belle": 2349,
      "general": 2350,
      "mecan": 2351,
      "pourtant": 2352,
      "convain": 2353,
      "message": 2354,
      "elements": 2355,
      "agri": 2356,
      "prochaine": 2357,
      "relations": 2358,
      "mur": 2359,
      "chans": 2360,
      "imm": 2361,
      "signifi": 2362,
      "multi": 2363,
      "journal": 2364,
      "dete": 2365,
      "enregist": 2366,
      "compassion": 2367,
      "medicaments": 2368,
      "peine": 2369,
      "disant": 2370,
      "contro": 2371,
      "heureusement": 2372,
      "Dav": 2373,
      "mos": 2374,
      "deg": 2375,
      "Chris": 2376,
      "politiques": 2377,
      "adul": 2378,
      "Google": 2379,
      "plais": 2380,
      "surtout": 2381,
      "societes": 2382,
      "unique": 2383,
      "froi": 2384,
      "John": 2385,
      "Nord": 2386,
      "vas": 2387,
      "secre": 2388,
      "tombe": 2389,
      "analy": 2390,
      "entendre": 2391,
      "aspect": 2392,
      "patient": 2393,
      "conception": 2394,
      "micro": 2395,
      "bacter": 2396,
      "ctions": 2397,
      "concentre": 2398,
      "liste": 2399,
      "construction": 2400,
      "climatique": 2401,
      "ameliorer": 2402,
      "mus": 2403,
      "peche": 2404,
      "auto": 2405,
      "changements": 2406,
      "exemp": 2407,
      "moyenne": 2408,
      "ero": 2409,
      "matiques": 2410,
      "activite": 2411,
      "efficace": 2412,
      "Fran": 2413,
      "geni": 2414,
      "petrole": 2415,
      "cere": 2416,
      "vecu": 2417,
      "autor": 2418,
      "parties": 2419,
      "kilom": 2420,
      "cus": 2421,
      "defini": 2422,
      "fle": 2423,
      "ettes": 2424,
      "aisse": 2425,
      "etudier": 2426,
      "leader": 2427,
      "lite": 2428,
      "manger": 2429,
      "Beau": 2430,
      "vaise": 2431,
      "etudie": 2432,
      "arrete": 2433,
      "exemples": 2434,
      "Jus": 2435,
      "gor": 2436,
      "ack": 2437,
      "importance": 2438,
      "Sur": 2439,
      "proche": 2440,
      "cuis": 2441,
      "internation": 2442,
      "oeil": 2443,
      "sti": 2444,
      "glace": 2445,
      "periode": 2446,
      "nais": 2447,
      "depla": 2448,
      "autom": 2449,
      "Chaque": 2450,
      "souris": 2451,
      "communaut": 2452,
      "mauvaise": 2453,
      "cur": 2454,
      "mise": 2455,
      "vons": 2456,
      "metho": 2457,
      "moyens": 2458,
      "doute": 2459,
      "chauff": 2460,
      "suffis": 2461,
      "ciel": 2462,
      "ude": 2463,
      "oie": 2464,
      "camer": 2465,
      "itaire": 2466,
      "limite": 2467,
      "amp": 2468,
      "sites": 2469,
      "dites": 2470,
      "terrain": 2471,
      "genes": 2472,
      "cru": 2473,
      "Certains": 2474,
      "quarti": 2475,
      "explique": 2476,
      "collabor": 2477,
      "particulierement": 2478,
      "ann": 2479,
      "istan": 2480,
      "organisation": 2481,
      "ape": 2482,
      "Americ": 2483,
      "Meme": 2484,
      "cout": 2485,
      "ienne": 2486,
      "bureau": 2487,
      "issues": 2488,
      "bour": 2489,
      "loi": 2490,
      "chis": 2491,
      "gnes": 2492,
      "million": 2493,
      "Pendant": 2494,
      "bra": 2495,
      "ity": 2496,
      "vert": 2497,
      "verit": 2498,
      "Imaginez": 2499,
      "bo": 2500,
      "din": 2501,
      "sen": 2502,
      "entis": 2503,
      "sonne": 2504,
      "employ": 2505,
      "gt": 2506,
      "somme": 2507,
      "cteur": 2508,
      "my": 2509,
      "carbon": 2510,
      "absolument": 2511,
      "croire": 2512,
      "transformer": 2513,
      "universite": 2514,
      "business": 2515,
      "impossible": 2516,
      "Ge": 2517,
      "onge": 2518,
      "videmment": 2519,
      "humanite": 2520,
      "sages": 2521,
      "termine": 2522,
      "permettre": 2523,
      "creation": 2524,
      "clin": 2525,
      "tere": 2526,
      "conten": 2527,
      "angere": 2528,
      "realiser": 2529,
      "chiffres": 2530,
      "fier": 2531,
      "har": 2532,
      "pan": 2533,
      "etonn": 2534,
      "raconte": 2535,
      "TEDx": 2536,
      "revenir": 2537,
      "sein": 2538,
      "accep": 2539,
      "code": 2540,
      "vieux": 2541,
      "complexe": 2542,
      "citoy": 2543,
      "Mo": 2544,
      "Ok": 2545,
      "lut": 2546,
      "ciens": 2547,
      "couleur": 2548,
      "manque": 2549,
      "inspi": 2550,
      "medias": 2551,
      "architecture": 2552,
      "Beaucoup": 2553,
      "prehen": 2554,
      "conser": 2555,
      "caracter": 2556,
      "ctures": 2557,
      "pensais": 2558,
      "ieuse": 2559,
      "avantage": 2560,
      "gle": 2561,
      "aix": 2562,
      "isse": 2563,
      "cho": 2564,
      "mange": 2565,
      "ock": 2566,
      "profes": 2567,
      "second": 2568,
      "bal": 2569,
      "decine": 2570,
      "totalement": 2571,
      "facons": 2572,
      "phenom": 2573,
      "enfin": 2574,
      "uniquement": 2575,
      "line": 2576,
      "ecran": 2577,
      "affec": 2578,
      "boite": 2579,
      "ption": 2580,
      "savais": 2581,
      "aiment": 2582,
      "lesquelles": 2583,
      "prim": 2584,
      "oeuvre": 2585,
      "Regardez": 2586,
      "simil": 2587,
      "anglais": 2588,
      "appelee": 2589,
      "web": 2590,
      "Lorsque": 2591,
      "Deux": 2592,
      "Ni": 2593,
      "huit": 2594,
      "democratie": 2595,
      "extraordinaire": 2596,
      "nam": 2597,
      "xion": 2598,
      "direction": 2599,
      "get": 2600,
      "tons": 2601,
      "recemment": 2602,
      "mou": 2603,
      "perfor": 2604,
      "uels": 2605,
      "utilisons": 2606,
      "primer": 2607,
      "logic": 2608,
      "dents": 2609,
      "oyez": 2610,
      "vraie": 2611,
      "droits": 2612,
      "service": 2613,
      "dan": 2614,
      "deviennent": 2615,
      "diag": 2616,
      "sug": 2617,
      "version": 2618,
      "amus": 2619,
      "cellule": 2620,
      "repondu": 2621,
      "sentiment": 2622,
      "gere": 2623,
      "eleves": 2624,
      "repondre": 2625,
      "conditions": 2626,
      "fav": 2627,
      "telle": 2628,
      "500": 2629,
      "avion": 2630,
      "alisation": 2631,
      "tuer": 2632,
      "prison": 2633,
      "strate": 2634,
      "ki": 2635,
      "etab": 2636,
      "impl": 2637,
      "dispon": 2638,
      "langue": 2639,
      "gagne": 2640,
      "uer": 2641,
      "arts": 2642,
      "communication": 2643,
      "gies": 2644,
      "dehors": 2645,
      "land": 2646,
      "remp": 2647,
      "ails": 2648,
      "discours": 2649,
      "transforme": 2650,
      "laboratoire": 2651,
      "oxy": 2652,
      "suivante": 2653,
      "ok": 2654,
      "lations": 2655,
      "path": 2656,
      "vivant": 2657,
      "atten": 2658,
      "bonheur": 2659,
      "transport": 2660,
      "decen": 2661,
      "village": 2662,
      "oti": 2663,
      "esper": 2664,
      "instru": 2665,
      "internet": 2666,
      "traiter": 2667,
      "nav": 2668,
      "libre": 2669,
      "acce": 2670,
      "plas": 2671,
      "origine": 2672,
      "dedans": 2673,
      "ecoles": 2674,
      "terminer": 2675,
      "medecine": 2676,
      "sine": 2677,
      "modi": 2678,
      "solaire": 2679,
      "directement": 2680,
      "soir": 2681,
      "coin": 2682,
      "aband": 2683,
      "niques": 2684,
      "gala": 2685,
      "sauver": 2686,
      "neg": 2687,
      "ordre": 2688,
      "soins": 2689,
      "ateau": 2690,
      "stati": 2691,
      "importantes": 2692,
      "Mal": 2693,
      "agne": 2694,
      "effort": 2695,
      "circu": 2696,
      "carbone": 2697,
      "ze": 2698,
      "comprend": 2699,
      "reser": 2700,
      "tache": 2701,
      "incroyablement": 2702,
      "materiaux": 2703,
      "tine": 2704,
      "cites": 2705,
      "prive": 2706,
      "haute": 2707,
      "pent": 2708,
      "ong": 2709,
      "publique": 2710,
      "clair": 2711,
      "trouvent": 2712,
      "nucle": 2713,
      "tien": 2714,
      "apprentis": 2715,
      "paravant": 2716,
      "puiss": 2717,
      "cardi": 2718,
      "histor": 2719,
      "electricite": 2720,
      "terror": 2721,
      "pauvrete": 2722,
      "ral": 2723,
      "biz": 2724,
      "marque": 2725,
      "contac": 2726,
      "masse": 2727,
      "litteralement": 2728,
      "David": 2729,
      "16": 2730,
      "quences": 2731,
      "devait": 2732,
      "calcul": 2733,
      "atteint": 2734,
      "liberte": 2735,
      "14": 2736,
      "Mes": 2737,
      "sociale": 2738,
      "premieres": 2739,
      "route": 2740,
      "precis": 2741,
      "Aus": 2742,
      "dimin": 2743,
      "puissance": 2744,
      "services": 2745,
      "engage": 2746,
      "Me": 2747,
      "tron": 2748,
      "utile": 2749,
      "apprentissage": 2750,
      "ime": 2751,
      "urb": 2752,
      "evol": 2753,
      "tourne": 2754,
      "infec": 2755,
      "machines": 2756,
      "remarqu": 2757,
      "km": 2758,
      "SA": 2759,
      "dos": 2760,
      "chinois": 2761,
      "tee": 2762,
      "adore": 2763,
      "simples": 2764,
      "gagner": 2765,
      "augmente": 2766,
      "possibilite": 2767,
      "combat": 2768,
      "plantes": 2769,
      "touche": 2770,
      "visible": 2771,
      "police": 2772,
      "familles": 2773,
      "dipl": 2774,
      "mettez": 2775,
      "immedi": 2776,
      "rassemble": 2777,
      "operation": 2778,
      "traditionne": 2779,
      "auparavant": 2780,
      "voler": 2781,
      "envoyer": 2782,
      "morceau": 2783,
      "vag": 2784,
      "tradu": 2785,
      "17": 2786,
      "auteur": 2787,
      "reseaux": 2788,
      "kilometres": 2789,
      "paix": 2790,
      "parer": 2791,
      "arbres": 2792,
      "dite": 2793,
      "gner": 2794,
      "norma": 2795,
      "fallait": 2796,
      "pensee": 2797,
      "travaillent": 2798,
      "affaires": 2799,
      "choisir": 2800,
      "parten": 2801,
      "permis": 2802,
      "amener": 2803,
      "courant": 2804,
      "ferme": 2805,
      "front": 2806,
      "sorti": 2807,
      "ayant": 2808,
      "ecouter": 2809,
      "communautes": 2810,
      "Alle": 2811,
      "etape": 2812,
      "comprehen": 2813,
      "sentir": 2814,
      "usee": 2815,
      "ook": 2816,
      "reduire": 2817,
      "tration": 2818,
      "oyau": 2819,
      "Co": 2820,
      "oration": 2821,
      "effectivement": 2822,
      "13": 2823,
      "Sa": 2824,
      "lois": 2825,
      "sil": 2826,
      "pros": 2827,
      "pira": 2828,
      "commencent": 2829,
      "concerne": 2830,
      "galax": 2831,
      "bord": 2832,
      "ball": 2833,
      "ennes": 2834,
      "alites": 2835,
      "dix": 2836,
      "obes": 2837,
      "Br": 2838,
      "ya": 2839,
      "diver": 2840,
      "apon": 2841,
      "compos": 2842,
      "trib": 2843,
      "exterieur": 2844,
      "devi": 2845,
      "presentation": 2846,
      "pied": 2847,
      "membres": 2848,
      "temper": 2849,
      "mourir": 2850,
      "Tous": 2851,
      "gam": 2852,
      "campa": 2853,
      "invente": 2854,
      "Rob": 2855,
      "compl": 2856,
      "assu": 2857,
      "199": 2858,
      "gh": 2859,
      "aurais": 2860,
      "comman": 2861,
      "prefere": 2862,
      "proteger": 2863,
      "contexte": 2864,
      "fantas": 2865,
      "ancer": 2866,
      "cartes": 2867,
      "dangere": 2868,
      "marches": 2869,
      "grandi": 2870,
      "appareil": 2871,
      "Ja": 2872,
      "cos": 2873,
      "dam": 2874,
      "pourrais": 2875,
      "adop": 2876,
      "effets": 2877,
      "eloi": 2878,
      "sym": 2879,
      "solutions": 2880,
      "leaders": 2881,
      "panne": 2882,
      "gerer": 2883,
      "court": 2884,
      "ouvert": 2885,
      "fascin": 2886,
      "No": 2887,
      "fie": 2888,
      "ormais": 2889,
      "allais": 2890,
      "suivant": 2891,
      "interessante": 2892,
      "secondes": 2893,
      "merveilleux": 2894,
      "hopital": 2895,
      "vac": 2896,
      "libe": 2897,
      "maj": 2898,
      "vivons": 2899,
      "fique": 2900,
      "etoiles": 2901,
      "chanson": 2902,
      "concu": 2903,
      "atures": 2904,
      "Mars": 2905,
      "poids": 2906,
      "professeur": 2907,
      "Lais": 2908,
      "ctes": 2909,
      "hes": 2910,
      "onti": 2911,
      "opti": 2912,
      "gouvernements": 2913,
      "neurones": 2914,
      "Har": 2915,
      "fau": 2916,
      "era": 2917,
      "visite": 2918,
      "semblait": 2919,
      "oceans": 2920,
      "tiens": 2921,
      "commerci": 2922,
      "lien": 2923,
      "tourner": 2924,
      "lot": 2925,
      "intelli": 2926,
      "outil": 2927,
      "performan": 2928,
      "individus": 2929,
      "philos": 2930,
      "Man": 2931,
      "bois": 2932,
      "biologie": 2933,
      "portable": 2934,
      "limites": 2935,
      "docu": 2936,
      "payer": 2937,
      "vin": 2938,
      "rej": 2939,
      "cham": 2940,
      "diversite": 2941,
      "souvenir": 2942,
      "entraine": 2943,
      "ryth": 2944,
      "clu": 2945,
      "tice": 2946,
      "implique": 2947,
      "connecte": 2948,
      "concevoir": 2949,
      "mous": 2950,
      "ana": 2951,
      "ath": 2952,
      "ologique": 2953,
      "prenant": 2954,
      "necessaire": 2955,
      "Ap": 2956,
      "Ph": 2957,
      "dess": 2958,
      "proce": 2959,
      "crit": 2960,
      "mid": 2961,
      "pture": 2962,
      "electron": 2963,
      "decisions": 2964,
      "faux": 2965,
      "nait": 2966,
      "onses": 2967,
      "iels": 2968,
      "uellement": 2969,
      "etrange": 2970,
      "intelligence": 2971,
      "prece": 2972,
      "allee": 2973,
      "reponses": 2974,
      "faible": 2975,
      "ano": 2976,
      "see": 2977,
      "enses": 2978,
      "forces": 2979,
      "garder": 2980,
      "achete": 2981,
      "nord": 2982,
      "complique": 2983,
      "naturel": 2984,
      "ications": 2985,
      "dor": 2986,
      "enez": 2987,
      "dessous": 2988,
      "cope": 2989,
      "pul": 2990,
      "lancer": 2991,
      "certainement": 2992,
      "Laissez": 2993,
      "mai": 2994,
      "memoi": 2995,
      "mam": 2996,
      "maje": 2997,
      "morts": 2998,
      "poisson": 2999,
      "professionne": 3000,
      "rempla": 3001,
      "onie": 3002,
      "bebe": 3003,
      "agis": 3004,
      "corresp": 3005,
      "aliser": 3006,
      "collegues": 3007,
      "devoir": 3008,
      "requ": 3009,
      "armes": 3010,
      "sures": 3011,
      "pieces": 3012,
      "bile": 3013,
      "disons": 3014,
      "utilisation": 3015,
      "fronti": 3016,
      "decri": 3017,
      "chaine": 3018,
      "aison": 3019,
      "alter": 3020,
      "camp": 3021,
      "importants": 3022,
      "prime": 3023,
      "Quelle": 3024,
      "fabriquer": 3025,
      "spectac": 3026,
      "gy": 3027,
      "pont": 3028,
      "nez": 3029,
      "connait": 3030,
      "correspond": 3031,
      "aer": 3032,
      "tures": 3033,
      "insec": 3034,
      "arret": 3035,
      "para": 3036,
      "dure": 3037,
      "conver": 3038,
      "distribu": 3039,
      "valeurs": 3040,
      "eviter": 3041,
      "tomber": 3042,
      "dynam": 3043,
      "medecin": 3044,
      "potentiel": 3045,
      "moderne": 3046,
      "statis": 3047,
      "Du": 3048,
      "Ju": 3049,
      "mir": 3050,
      "prene": 3051,
      "plait": 3052,
      "finance": 3053,
      "laissez": 3054,
      "evolue": 3055,
      "24": 3056,
      "ote": 3057,
      "istique": 3058,
      "vier": 3059,
      "venant": 3060,
      "opportunite": 3061,
      "occa": 3062,
      "Personne": 3063,
      "At": 3064,
      "tar": 3065,
      "ielle": 3066,
      "ieure": 3067,
      "essaie": 3068,
      "suivi": 3069,
      "decision": 3070,
      "cis": 3071,
      "publie": 3072,
      "experiment": 3073,
      "programmes": 3074,
      "conduit": 3075,
      "capit": 3076,
      "objectif": 3077,
      "citoyens": 3078,
      "jeun": 3079,
      "provo": 3080,
      "chef": 3081,
      "voient": 3082,
      "personnel": 3083,
      "sommet": 3084,
      "cee": 3085,
      "vehi": 3086,
      "ash": 3087,
      "informatique": 3088,
      "debat": 3089,
      "films": 3090,
      "consommation": 3091,
      "aper": 3092,
      "eurs": 3093,
      "retrouve": 3094,
      "Or": 3095,
      "moti": 3096,
      "vention": 3097,
      "carriere": 3098,
      "fonctionner": 3099,
      "equili": 3100,
      "genial": 3101,
      "meu": 3102,
      "pleine": 3103,
      "graphique": 3104,
      "audi": 3105,
      "desormais": 3106,
      "itaires": 3107,
      "beaute": 3108,
      "atif": 3109,
      "intelligent": 3110,
      "az": 3111,
      "cteurs": 3112,
      "imes": 3113,
      "alth": 3114,
      "passent": 3115,
      "vile": 3116,
      "mondial": 3117,
      "observer": 3118,
      "medecins": 3119,
      "controler": 3120,
      "immediate": 3121,
      "campagne": 3122,
      "DA": 3123,
      "Li": 3124,
      "dessin": 3125,
      "sim": 3126,
      "puissant": 3127,
      "sty": 3128,
      "fur": 3129,
      "enes": 3130,
      "abil": 3131,
      "brill": 3132,
      "devraient": 3133,
      "americain": 3134,
      "revenu": 3135,
      "preuve": 3136,
      "Ben": 3137,
      "fen": 3138,
      "avis": 3139,
      "victi": 3140,
      "apporter": 3141,
      "empe": 3142,
      "lusion": 3143,
      "voulu": 3144,
      "permettent": 3145,
      "memoire": 3146,
      "lt": 3147,
      "special": 3148,
      "Dan": 3149,
      "Es": 3150,
      "vendre": 3151,
      "ram": 3152,
      "croit": 3153,
      "justice": 3154,
      "videos": 3155,
      "pousser": 3156,
      "creativite": 3157,
      "essentiellement": 3158,
      "institutions": 3159,
      "otidi": 3160,
      "evidemment": 3161,
      "zz": 3162,
      "lee": 3163,
      "sud": 3164,
      "attendre": 3165,
      "essayons": 3166,
      "imaginez": 3167,
      "zaines": 3168,
      "quotidi": 3169,
      "ister": 3170,
      "manif": 3171,
      "adoles": 3172,
      "habitude": 3173,
      "observe": 3174,
      "neuf": 3175,
      "Son": 3176,
      "deplace": 3177,
      "entreprene": 3178,
      "mettent": 3179,
      "eval": 3180,
      "echec": 3181,
      "rempl": 3182,
      "appeler": 3183,
      "identite": 3184,
      "pouvions": 3185,
      "influence": 3186,
      "VI": 3187,
      "fos": 3188,
      "atmos": 3189,
      "gratu": 3190,
      "religion": 3191,
      "souhait": 3192,
      "philosoph": 3193,
      "Bu": 3194,
      "ionne": 3195,
      "mel": 3196,
      "contribu": 3197,
      "ambi": 3198,
      "puissent": 3199,
      "devenue": 3200,
      "connaiss": 3201,
      "actuellement": 3202,
      "compagnie": 3203,
      "pir": 3204,
      "lesquels": 3205,
      "Combien": 3206,
      "descend": 3207,
      "complexes": 3208,
      "Tres": 3209,
      "book": 3210,
      "oins": 3211,
      "demain": 3212,
      "apporte": 3213,
      "agent": 3214,
      "oyer": 3215,
      "faisaient": 3216,
      "profond": 3217,
      "politi": 3218,
      "precise": 3219,
      "considere": 3220,
      "numerique": 3221,
      "accele": 3222,
      "venue": 3223,
      "peuple": 3224,
      "plate": 3225,
      "pieds": 3226,
      "auraient": 3227,
      "comprehension": 3228,
      "ak": 3229,
      "lente": 3230,
      "tort": 3231,
      "fric": 3232,
      "hypot": 3233,
      "rappelle": 3234,
      "americaine": 3235,
      "poissons": 3236,
      "voulaient": 3237,
      "Dr": 3238,
      "entierement": 3239,
      "isons": 3240,
      "cool": 3241,
      "difficiles": 3242,
      "facilement": 3243,
      "mouvements": 3244,
      "gout": 3245,
      "vage": 3246,
      "envers": 3247,
      "bebes": 3248,
      "presenter": 3249,
      "decouverte": 3250,
      "bateau": 3251,
      "gi": 3252,
      "dech": 3253,
      "ande": 3254,
      "double": 3255,
      "bacteries": 3256,
      "camera": 3257,
      "has": 3258,
      "istiques": 3259,
      "aveu": 3260,
      "verrez": 3261,
      "appelons": 3262,
      "arrivent": 3263,
      "atives": 3264,
      "positif": 3265,
      "article": 3266,
      "numero": 3267,
      "artiste": 3268,
      "magnifique": 3269,
      "mathematiques": 3270,
      "montrent": 3271,
      "danse": 3272,
      "bizarre": 3273,
      "bur": 3274,
      "vait": 3275,
      "vole": 3276,
      "tiers": 3277,
      "parlent": 3278,
      "attra": 3279,
      "formid": 3280,
      "epide": 3281,
      "revenus": 3282,
      "Vi": 3283,
      "initi": 3284,
      "intro": 3285,
      "trom": 3286,
      "perdre": 3287,
      "moments": 3288,
      "durable": 3289,
      "envoye": 3290,
      "combin": 3291,
      "Mc": 3292,
      "vul": 3293,
      "associ": 3294,
      "besoins": 3295,
      "menace": 3296,
      "Ex": 3297,
      "sexe": 3298,
      "meilleures": 3299,
      "quartier": 3300,
      "plastique": 3301,
      "moteur": 3302,
      "garde": 3303,
      "regardant": 3304,
      "Lond": 3305,
      "reci": 3306,
      "peint": 3307,
      "concent": 3308,
      "oiseaux": 3309,
      "ick": 3310,
      "symb": 3311,
      "majorite": 3312,
      "Pau": 3313,
      "distance": 3314,
      "noire": 3315,
      "oubli": 3316,
      "cien": 3317,
      "compar": 3318,
      "final": 3319,
      "Char": 3320,
      "connaissez": 3321,
      "hip": 3322,
      "Ber": 3323,
      "afric": 3324,
      "cents": 3325,
      "fg": 3326,
      "hier": 3327,
      "aim": 3328,
      "sele": 3329,
      "pedi": 3330,
      "forte": 3331,
      "courir": 3332,
      "radio": 3333,
      "Americains": 3334,
      "Di": 3335,
      "Pren": 3336,
      "parlons": 3337,
      "ficie": 3338,
      "sold": 3339,
      "immediatement": 3340,
      "bom": 3341,
      "alie": 3342,
      "civil": 3343,
      "expose": 3344,
      "couleurs": 3345,
      "serieux": 3346,
      "phra": 3347,
      "planetes": 3348,
      "mesurer": 3349,
      "21": 3350,
      "Face": 3351,
      "Gu": 3352,
      "Hu": 3353,
      "rie": 3354,
      "aviez": 3355,
      "cache": 3356,
      "bleu": 3357,
      "couver": 3358,
      "connaissons": 3359,
      "clairement": 3360,
      "ecoute": 3361,
      "phenomene": 3362,
      "diagnos": 3363,
      "presse": 3364,
      "isant": 3365,
      "prets": 3366,
      "affaire": 3367,
      "medicament": 3368,
      "plaisir": 3369,
      "analyse": 3370,
      "contenu": 3371,
      "introdu": 3372,
      "Sh": 3373,
      "doc": 3374,
      "icul": 3375,
      "depart": 3376,
      "desir": 3377,
      "Etat": 3378,
      "gee": 3379,
      "bel": 3380,
      "contrer": 3381,
      "differences": 3382,
      "occident": 3383,
      "decla": 3384,
      "risques": 3385,
      "secteur": 3386,
      "reflechis": 3387,
      "seuls": 3388,
      "stres": 3389,
      "recomp": 3390,
      "quete": 3391,
      "sibles": 3392,
      "cations": 3393,
      "ther": 3394,
      "rastru": 3395,
      "sauf": 3396,
      "celebre": 3397,
      "300": 3398,
      "As": 3399,
      "Pro": 3400,
      "pain": 3401,
      "ondes": 3402,
      "entiere": 3403,
      "tives": 3404,
      "divis": 3405,
      "liens": 3406,
      "perspe": 3407,
      "couche": 3408,
      "genere": 3409,
      "genetique": 3410,
      "blanc": 3411,
      "malgre": 3412,
      "infrastru": 3413,
      "profondement": 3414,
      "abeilles": 3415,
      "equilibre": 3416,
      "idi": 3417,
      "ige": 3418,
      "oter": 3419,
      "garcon": 3420,
      "suppose": 3421,
      "ood": 3422,
      "contact": 3423,
      "fghan": 3424,
      "%.": 3425,
      "tap": 3426,
      "devais": 3427,
      "invite": 3428,
      "parent": 3429,
      "VIH": 3430,
      "Cet": 3431,
      "of": 3432,
      "reaction": 3433,
      "intes": 3434,
      "convers": 3435,
      "ecos": 3436,
      "expression": 3437,
      "maisons": 3438,
      "techniques": 3439,
      "boute": 3440,
      "tribue": 3441,
      "temperature": 3442,
      "mie": 3443,
      "arr": 3444,
      "riche": 3445,
      "ouvrir": 3446,
      "disaient": 3447,
      "ferences": 3448,
      "technique": 3449,
      "ieusement": 3450,
      "critique": 3451,
      "consequences": 3452,
      "emploi": 3453,
      "dimensions": 3454,
      "oyaume": 3455,
      "atmosphere": 3456,
      "conversation": 3457,
      "arbre": 3458,
      "blog": 3459,
      "explorer": 3460,
      "alisme": 3461,
      "americains": 3462,
      "hous": 3463,
      "ias": 3464,
      "armee": 3465,
      "lignes": 3466,
      "adultes": 3467,
      "envie": 3468,
      "pat": 3469,
      "issant": 3470,
      "humaines": 3471,
      "principe": 3472,
      "nucleaire": 3473,
      "chons": 3474,
      "minute": 3475,
      "pousse": 3476,
      "batiments": 3477,
      "emotions": 3478,
      "rentre": 3479,
      "rues": 3480,
      "ott": 3481,
      "satis": 3482,
      "health": 3483,
      "ologue": 3484,
      "sciences": 3485,
      "etudiant": 3486,
      "evident": 3487,
      "logiciel": 3488,
      "cotes": 3489,
      "lou": 3490,
      "bouger": 3491,
      "espaces": 3492,
      "organismes": 3493,
      "tableau": 3494,
      "Toutes": 3495,
      "veritable": 3496,
      "lir": 3497,
      "ainment": 3498,
      "cerveaux": 3499,
      "blan": 3500,
      "contraire": 3501,
      "Londres": 3502,
      "rance": 3503,
      "vete": 3504,
      "cade": 3505,
      "distin": 3506,
      "atiques": 3507,
      "donnent": 3508,
      "augmenter": 3509,
      "Fin": 3510,
      "Nos": 3511,
      "Tw": 3512,
      "onner": 3513,
      "math": 3514,
      "seraient": 3515,
      "Cependant": 3516,
      "souviens": 3517,
      "faisais": 3518,
      "univer": 3519,
      "occupe": 3520,
      "naissance": 3521,
      "are": 3522,
      "hr": 3523,
      "ode": 3524,
      "diction": 3525,
      "servir": 3526,
      "oyons": 3527,
      "vieil": 3528,
      "soud": 3529,
      "ographie": 3530,
      "cant": 3531,
      "alles": 3532,
      "abs": 3533,
      "tisme": 3534,
      "douleur": 3535,
      "particules": 3536,
      "evenement": 3537,
      "assurer": 3538,
      "chambre": 3539,
      "by": 3540,
      "passait": 3541,
      "resu": 3542,
      "rage": 3543,
      "accident": 3544,
      "preser": 3545,
      "financi": 3546,
      "anges": 3547,
      "vations": 3548,
      "course": 3549,
      "pensait": 3550,
      "enormes": 3551,
      "tests": 3552,
      "responsabilite": 3553,
      ",\"": 3554,
      "Cali": 3555,
      "lieux": 3556,
      "chaus": 3557,
      "simu": 3558,
      "cadre": 3559,
      "sujets": 3560,
      "fabrique": 3561,
      "occuper": 3562,
      "entert": 3563,
      "surve": 3564,
      "ates": 3565,
      "accompl": 3566,
      "connaissent": 3567,
      "Depuis": 3568,
      "prochaines": 3569,
      "competences": 3570,
      "preuves": 3571,
      "cuisine": 3572,
      "collaboration": 3573,
      "Facebook": 3574,
      "entertainment": 3575,
      "ples": 3576,
      "demar": 3577,
      "troph": 3578,
      "emb": 3579,
      "intent": 3580,
      "nies": 3581,
      "erreur": 3582,
      "imagine": 3583,
      "electrique": 3584,
      "molecules": 3585,
      "concentrer": 3586,
      "Gr": 3587,
      "Ken": 3588,
      "bale": 3589,
      "vend": 3590,
      "ensez": 3591,
      "soli": 3592,
      "echou": 3593,
      "invention": 3594,
      "chirurg": 3595,
      "emotionne": 3596,
      "details": 3597,
      "quitte": 3598,
      "definition": 3599,
      "The": 3600,
      "spati": 3601,
      "appu": 3602,
      "ignor": 3603,
      "derniers": 3604,
      "fonds": 3605,
      "materiel": 3606,
      "tester": 3607,
      "choisi": 3608,
      "enseignants": 3609,
      "Afghan": 3610,
      "savait": 3611,
      "enthous": 3612,
      "plonge": 3613,
      "discus": 3614,
      "affir": 3615,
      "logique": 3616,
      "terrible": 3617,
      "Califor": 3618,
      "3D": 3619,
      "CO": 3620,
      "conque": 3621,
      "lies": 3622,
      "verre": 3623,
      "active": 3624,
      "lise": 3625,
      "produisent": 3626,
      "organisations": 3627,
      "structures": 3628,
      "valent": 3629,
      "complexite": 3630,
      "altern": 3631,
      "Rich": 3632,
      "anz": 3633,
      "itter": 3634,
      "rencontrer": 3635,
      "commencons": 3636,
      "illus": 3637,
      "volont": 3638,
      "protection": 3639,
      "imagination": 3640,
      "Bill": 3641,
      "San": 3642,
      "honn": 3643,
      "dizaines": 3644,
      "president": 3645,
      "virtue": 3646,
      "optimis": 3647,
      "hasard": 3648,
      "enthousias": 3649,
      "ka": 3650,
      "saient": 3651,
      "etiques": 3652,
      "algor": 3653,
      "rale": 3654,
      "mani": 3655,
      "cultures": 3656,
      "ancien": 3657,
      "membre": 3658,
      "oxygene": 3659,
      "rythme": 3660,
      "We": 3661,
      "ling": 3662,
      "ppe": 3663,
      "rons": 3664,
      "commer": 3665,
      "cafe": 3666,
      "respect": 3667,
      "cop": 3668,
      "chercheurs": 3669,
      "insectes": 3670,
      "Be": 3671,
      "mand": 3672,
      "lages": 3673,
      "tiennent": 3674,
      "apprend": 3675,
      "media": 3676,
      "antil": 3677,
      "television": 3678,
      "echantil": 3679,
      "confort": 3680,
      "horri": 3681,
      "methode": 3682,
      "algorith": 3683,
      "2000": 3684,
      "Pr": 3685,
      "Pensez": 3686,
      "vaut": 3687,
      "difficul": 3688,
      "debar": 3689,
      "defis": 3690,
      "artistes": 3691,
      "chimiques": 3692,
      "emissions": 3693,
      "colere": 3694,
      "Bro": 3695,
      "morte": 3696,
      "riv": 3697,
      "perman": 3698,
      "surement": 3699,
      "ics": 3700,
      "secret": 3701,
      "fonde": 3702,
      "reconnaitre": 3703,
      "etiez": 3704,
      "propose": 3705,
      "toucher": 3706,
      "derou": 3707,
      "regle": 3708,
      "regardons": 3709,
      "fonctionnent": 3710,
      "existence": 3711,
      "bilites": 3712,
      "fantastique": 3713,
      "occasion": 3714,
      "Votre": 3715,
      "dence": 3716,
      "jard": 3717,
      "mut": 3718,
      "ule": 3719,
      "defin": 3720,
      "diap": 3721,
      "osau": 3722,
      "astron": 3723,
      "uelles": 3724,
      "manieres": 3725,
      "venus": 3726,
      "march": 3727,
      "Encore": 3728,
      "Afghanistan": 3729,
      "Californie": 3730,
      "ements": 3731,
      "ket": 3732,
      "lits": 3733,
      "zero": 3734,
      "satel": 3735,
      "meres": 3736,
      "impli": 3737,
      "gui": 3738,
      "ira": 3739,
      "esie": 3740,
      "recent": 3741,
      "venait": 3742,
      "angle": 3743,
      "correc": 3744,
      "femin": 3745,
      "entrain": 3746,
      "lat": 3747,
      "cogn": 3748,
      "metap": 3749,
      "naturelle": 3750,
      "magas": 3751,
      "agriculture": 3752,
      "aw": 3753,
      "ase": 3754,
      "cense": 3755,
      "dest": 3756,
      "dons": 3757,
      "van": 3758,
      "antique": 3759,
      "discu": 3760,
      "regions": 3761,
      "document": 3762,
      "simpl": 3763,
      "MI": 3764,
      "SI": 3765,
      "nons": 3766,
      "enter": 3767,
      "entot": 3768,
      "sable": 3769,
      "effond": 3770,
      "gnee": 3771,
      "organise": 3772,
      "enseignement": 3773,
      "statistiques": 3774,
      "naire": 3775,
      "pit": 3776,
      "yn": 3777,
      "anima": 3778,
      "auton": 3779,
      "differe": 3780,
      "attaque": 3781,
      "arrivee": 3782,
      "national": 3783,
      "deplacer": 3784,
      "Can": 3785,
      "jau": 3786,
      "sche": 3787,
      "inti": 3788,
      "chien": 3789,
      "abor": 3790,
      "genome": 3791,
      "carre": 3792,
      "capacites": 3793,
      "supp": 3794,
      "possibilites": 3795,
      "iens": 3796,
      "ider": 3797,
      "parfait": 3798,
      "proches": 3799,
      "mateurs": 3800,
      "garcons": 3801,
      "low": 3802,
      "incroyables": 3803,
      "conflit": 3804,
      "conduire": 3805,
      "appareils": 3806,
      "ecosyste": 3807,
      "frappe": 3808,
      "recol": 3809,
      "rechauff": 3810,
      "tels": 3811,
      "chante": 3812,
      "passant": 3813,
      "race": 3814,
      "acte": 3815,
      "ards": 3816,
      "evolu": 3817,
      "chacune": 3818,
      "Universite": 3819,
      "tembre": 3820,
      "ajouter": 3821,
      "jambes": 3822,
      "Japon": 3823,
      "ennu": 3824,
      "ony": 3825,
      "sif": 3826,
      "plante": 3827,
      "travaillons": 3828,
      "ruption": 3829,
      "decennies": 3830,
      "Ah": 3831,
      "Prem": 3832,
      "oint": 3833,
      "auquel": 3834,
      "arme": 3835,
      "instal": 3836,
      "ologues": 3837,
      "nomme": 3838,
      "universe": 3839,
      "devenus": 3840,
      "croyez": 3841,
      "bud": 3842,
      "Bres": 3843,
      "appre": 3844,
      "ington": 3845,
      "decider": 3846,
      "lettes": 3847,
      "juge": 3848,
      "communiquer": 3849,
      "fournir": 3850,
      "performance": 3851,
      "Ira": 3852,
      "refu": 3853,
      "considerer": 3854,
      "bruit": 3855,
      "selection": 3856,
      "Bar": 3857,
      "Gran": 3858,
      "scul": 3859,
      "decrit": 3860,
      "sit": 3861,
      "perte": 3862,
      "enfance": 3863,
      "intui": 3864,
      "heros": 3865,
      "offre": 3866,
      "existent": 3867,
      "responsable": 3868,
      "empecher": 3869,
      "Avant": 3870,
      "Nation": 3871,
      "quis": 3872,
      "seur": 3873,
      "chang": 3874,
      "cales": 3875,
      "tenu": 3876,
      "culaire": 3877,
      "bouche": 3878,
      "symp": 3879,
      "emplois": 3880,
      "evenements": 3881,
      "cieux": 3882,
      "edi": 3883,
      "iz": 3884,
      "trouvez": 3885,
      "erreurs": 3886,
      "connexion": 3887,
      "classique": 3888,
      "mauvaises": 3889,
      "possede": 3890,
      "commande": 3891,
      "Rus": 3892,
      "reves": 3893,
      "titre": 3894,
      "sep": 3895,
      "llect": 3896,
      "cate": 3897,
      "bibli": 3898,
      "istre": 3899,
      "ador": 3900,
      "telephones": 3901,
      "ctivite": 3902,
      "enregistre": 3903,
      "Geor": 3904,
      "melange": 3905,
      "Asie": 3906,
      "caus": 3907,
      "na": 3908,
      "win": 3909,
      "lex": 3910,
      "asso": 3911,
      "forment": 3912,
      "venez": 3913,
      "Parfois": 3914,
      "198": 3915,
      "lutte": 3916,
      "remarquable": 3917,
      "MS": 3918,
      "ON": 3919,
      "bet": 3920,
      "danger": 3921,
      "toit": 3922,
      "encourage": 3923,
      "argu": 3924,
      "signe": 3925,
      "othe": 3926,
      "creatures": 3927,
      "alimentaire": 3928,
      "ford": 3929,
      "ologiques": 3930,
      "feres": 3931,
      "faitement": 3932,
      "principes": 3933,
      "normal": 3934,
      "quasi": 3935,
      "dinosau": 3936,
      "Twitter": 3937,
      "fallu": 3938,
      "ront": 3939,
      "sport": 3940,
      "tex": 3941,
      "teles": 3942,
      "ressemblent": 3943,
      "utilises": 3944,
      "gestion": 3945,
      "formidable": 3946,
      "differemment": 3947,
      "eli": 3948,
      "parfaitement": 3949,
      "due": 3950,
      "coupe": 3951,
      "vrais": 3952,
      "interes": 3953,
      "tissu": 3954,
      "opportunites": 3955,
      "mariage": 3956,
      "Bresil": 3957,
      "bie": 3958,
      "pin": 3959,
      "pourcent": 3960,
      "assemble": 3961,
      "venons": 3962,
      "nulle": 3963,
      "stand": 3964,
      "stade": 3965,
      "intellect": 3966,
      "oree": 3967,
      "devriez": 3968,
      "dynamique": 3969,
      "victimes": 3970,
      "Cor": 3971,
      "tein": 3972,
      "dig": 3973,
      "catas": 3974,
      "ecl": 3975,
      "terrest": 3976,
      "allaient": 3977,
      "exploit": 3978,
      "taches": 3979,
      "sauve": 3980,
      "mortalite": 3981,
      "cycle": 3982,
      "actuelle": 3983,
      "froid": 3984,
      "suffisamment": 3985,
      "dangereux": 3986,
      "catastroph": 3987,
      "caux": 3988,
      "ctique": 3989,
      "aissent": 3990,
      "presence": 3991,
      "pointe": 3992,
      "sociales": 3993,
      "economiques": 3994,
      "loge": 3995,
      "rappeler": 3996,
      "augmentation": 3997,
      "pollu": 3998,
      "benefi": 3999,
      "400": 4000,
      "Ori": 4001,
      "chron": 4002,
      "avancer": 4003,
      "magie": 4004,
      "ierie": 4005,
      "intervie": 4006,
      "domaines": 4007,
      "identifier": 4008,
      "lettres": 4009,
      "noirs": 4010,
      "obtenu": 4011,
      "obtenez": 4012,
      "souhai": 4013,
      "IB": 4014,
      "Iran": 4015,
      "Oc": 4016,
      "Royaume": 4017,
      "cence": 4018,
      "davantage": 4019,
      "chasse": 4020,
      "sifs": 4021,
      "dirait": 4022,
      "otte": 4023,
      "amen": 4024,
      "puisque": 4025,
      "niveaux": 4026,
      "prochain": 4027,
      "Richard": 4028,
      "deli": 4029,
      "detru": 4030,
      "retrouver": 4031,
      "pages": 4032,
      "direct": 4033,
      "demandez": 4034,
      "bouge": 4035,
      "notion": 4036,
      "restaur": 4037,
      "biologique": 4038,
      "morceaux": 4039,
      "oureux": 4040,
      "dechets": 4041,
      "tait": 4042,
      "ype": 4043,
      "chimp": 4044,
      "rire": 4045,
      "moindre": 4046,
      "consiste": 4047,
      "etranger": 4048,
      "ingenieurs": 4049,
      "ingenierie": 4050,
      "ressentir": 4051,
      "application": 4052,
      "micros": 4053,
      "similaire": 4054,
      "suggere": 4055,
      "ralent": 4056,
      "maths": 4057,
      "Ser": 4058,
      "enleve": 4059,
      "pal": 4060,
      "avi": 4061,
      "vement": 4062,
      "survivre": 4063,
      "exposition": 4064,
      "accro": 4065,
      "fru": 4066,
      "retourner": 4067,
      "fasse": 4068,
      "concernant": 4069,
      "feuille": 4070,
      "employes": 4071,
      "associe": 4072,
      "Mex": 4073,
      "NA": 4074,
      "You": 4075,
      "tox": 4076,
      "ley": 4077,
      "independ": 4078,
      "ours": 4079,
      "user": 4080,
      "inspire": 4081,
      "corruption": 4082,
      "nationale": 4083,
      "trouvons": 4084,
      "origin": 4085,
      "meurent": 4086,
      "strategie": 4087,
      "vulner": 4088,
      "perspective": 4089,
      "mite": 4090,
      "od": 4091,
      "dirais": 4092,
      "compose": 4093,
      "bientot": 4094,
      "sert": 4095,
      "soin": 4096,
      "vaisse": 4097,
      "arrives": 4098,
      "accue": 4099,
      "comportements": 4100,
      "capital": 4101,
      "vouloir": 4102,
      "aspects": 4103,
      "connaissances": 4104,
      "Paul": 4105,
      "ham": 4106,
      "murs": 4107,
      "omie": 4108,
      "plant": 4109,
      "entree": 4110,
      "constitu": 4111,
      "courbe": 4112,
      "minis": 4113,
      "montagne": 4114,
      "batter": 4115,
      "lycee": 4116,
      "stress": 4117,
      "pom": 4118,
      "determiner": 4119,
      "ory": 4120,
      "rier": 4121,
      "miner": 4122,
      "minus": 4123,
      "drole": 4124,
      "vaccin": 4125,
      "supplement": 4126,
      "Wash": 4127,
      "oca": 4128,
      "orter": 4129,
      "excel": 4130,
      "appl": 4131,
      "triques": 4132,
      "note": 4133,
      "retourne": 4134,
      "representent": 4135,
      "enseigner": 4136,
      "quitter": 4137,
      "efforts": 4138,
      "Austr": 4139,
      "Min": 4140,
      "iles": 4141,
      "rentrer": 4142,
      "usine": 4143,
      "enn": 4144,
      "depression": 4145,
      "tran": 4146,
      "extr": 4147,
      "anda": 4148,
      "obst": 4149,
      "ferait": 4150,
      "experts": 4151,
      "signal": 4152,
      "colon": 4153,
      "offrir": 4154,
      "hrop": 4155,
      "45": 4156,
      "cen": 4157,
      "dres": 4158,
      "pant": 4159,
      "anthrop": 4160,
      "parlait": 4161,
      "surprise": 4162,
      "verte": 4163,
      "extrait": 4164,
      "agissent": 4165,
      "effray": 4166,
      "essais": 4167,
      "grosse": 4168,
      "habitants": 4169,
      "Quelqu": 4170,
      "principalement": 4171,
      "participer": 4172,
      "flux": 4173,
      "synth": 4174,
      "faute": 4175,
      "ld": 4176,
      "ancet": 4177,
      "chat": 4178,
      "unite": 4179,
      "immeu": 4180,
      "partis": 4181,
      "visu": 4182,
      "soutien": 4183,
      "personnelle": 4184,
      "douce": 4185,
      "sortie": 4186,
      "frere": 4187,
      "intelligents": 4188,
      "convaincre": 4189,
      "significa": 4190,
      "decrire": 4191,
      "epidemie": 4192,
      "honnete": 4193,
      "150": 4194,
      "usage": 4195,
      "perce": 4196,
      "apprennent": 4197,
      "mettons": 4198,
      "voulions": 4199,
      "pile": 4200,
      "Trois": 4201,
      "climat": 4202,
      "battre": 4203,
      "bande": 4204,
      "tonnes": 4205,
      "conflits": 4206,
      "Homme": 4207,
      "laient": 4208,
      "nage": 4209,
      "puissante": 4210,
      "portables": 4211,
      "faim": 4212,
      "professeurs": 4213,
      "galaxies": 4214,
      "mille": 4215,
      "revient": 4216,
      "tees": 4217,
      "compare": 4218,
      "calement": 4219,
      "conferences": 4220,
      "protot": 4221,
      "creent": 4222,
      "regime": 4223,
      "sembla": 4224,
      "connue": 4225,
      "clients": 4226,
      "recevoir": 4227,
      "chiffre": 4228,
      "locaux": 4229,
      "richesse": 4230,
      "Isra": 4231,
      "photographie": 4232,
      "style": 4233,
      "soldats": 4234,
      "Occident": 4235,
      "Washington": 4236,
      "75": 4237,
      "inse": 4238,
      "passage": 4239,
      "ottes": 4240,
      "ecriture": 4241,
      "accu": 4242,
      "apport": 4243,
      "ctor": 4244,
      "Auc": 4245,
      "equivalent": 4246,
      "contient": 4247,
      "citation": 4248,
      "sommeil": 4249,
      "caracteristiques": 4250,
      "obstac": 4251,
      "not": 4252,
      "tente": 4253,
      "lecon": 4254,
      "ani": 4255,
      "sements": 4256,
      "sequence": 4257,
      "cam": 4258,
      "medical": 4259,
      "profit": 4260,
      "bases": 4261,
      "Ange": 4262,
      "principal": 4263,
      "seurs": 4264,
      "chances": 4265,
      "capture": 4266,
      "andis": 4267,
      "Angle": 4268,
      "rendent": 4269,
      "epous": 4270,
      "lettre": 4271,
      "gure": 4272,
      "mens": 4273,
      "entoure": 4274,
      "nelle": 4275,
      "aver": 4276,
      "oient": 4277,
      "beaux": 4278,
      "appelait": 4279,
      "stat": 4280,
      "affi": 4281,
      "decouvertes": 4282,
      "essentiel": 4283,
      "jardin": 4284,
      "Grande": 4285,
      "Angleterre": 4286,
      "echange": 4287,
      "ores": 4288,
      "respi": 4289,
      "applique": 4290,
      "consider": 4291,
      "tempor": 4292,
      "essence": 4293,
      "devrais": 4294,
      "nourrir": 4295,
      "populaire": 4296,
      "demons": 4297,
      "fourmis": 4298,
      "chaud": 4299,
      "forets": 4300,
      "traverser": 4301,
      "immense": 4302,
      "commerce": 4303,
      "Lin": 4304,
      "Pres": 4305,
      "scan": 4306,
      "volu": 4307,
      "qual": 4308,
      "comprennent": 4309,
      "boulot": 4310,
      "iemement": 4311,
      "volonte": 4312,
      "paysage": 4313,
      "merveilleuse": 4314,
      "suffit": 4315,
      "investissement": 4316,
      "manipu": 4317,
      "destru": 4318,
      "Col": 4319,
      "aler": 4320,
      "gol": 4321,
      "ll": 4322,
      "telles": 4323,
      "pation": 4324,
      "atter": 4325,
      "obli": 4326,
      "open": 4327,
      "heli": 4328,
      "bran": 4329,
      "signaux": 4330,
      "Ouais": 4331,
      "Ander": 4332,
      "vivants": 4333,
      "efficaces": 4334,
      "propriete": 4335,
      "accept": 4336,
      "manifest": 4337,
      "CO2": 4338,
      "changent": 4339,
      "septembre": 4340,
      "Orient": 4341,
      "mique": 4342,
      "vet": 4343,
      "ries": 4344,
      "prete": 4345,
      "disais": 4346,
      "fera": 4347,
      "noms": 4348,
      "chaleur": 4349,
      "titue": 4350,
      "connecter": 4351,
      "sombre": 4352,
      "precisement": 4353,
      "Ri": 4354,
      "dente": 4355,
      "gts": 4356,
      "hore": 4357,
      "kin": 4358,
      "incl": 4359,
      "prie": 4360,
      "perer": 4361,
      "passes": 4362,
      "via": 4363,
      "utiles": 4364,
      "soeur": 4365,
      "jouent": 4366,
      "famil": 4367,
      "nett": 4368,
      "calcu": 4369,
      "lande": 4370,
      "enormement": 4371,
      "Micha": 4372,
      "cardiaque": 4373,
      "phrase": 4374,
      "35": 4375,
      "Dar": 4376,
      "Rien": 4377,
      "baisse": 4378,
      "epar": 4379,
      "gon": 4380,
      "honte": 4381,
      "oublie": 4382,
      "issons": 4383,
      "geant": 4384,
      "terres": 4385,
      "apes": 4386,
      "carbur": 4387,
      "grandir": 4388,
      "Pourtant": 4389,
      "vues": 4390,
      "sympa": 4391,
      "labo": 4392,
      "domin": 4393,
      "continent": 4394,
      "facteurs": 4395,
      "activites": 4396,
      "ressembler": 4397,
      "inventer": 4398,
      "doigts": 4399,
      "microbes": 4400,
      "Francis": 4401,
      "amusant": 4402,
      "disponibles": 4403,
      "ping": 4404,
      "once": 4405,
      "ties": 4406,
      "avent": 4407,
      "destin": 4408,
      "arra": 4409,
      "osci": 4410,
      "provis": 4411,
      "rique": 4412,
      "local": 4413,
      "James": 4414,
      "budget": 4415,
      "!\"": 4416,
      "99": 4417,
      "mant": 4418,
      "dejeun": 4419,
      "oivent": 4420,
      "parc": 4421,
      "magaz": 4422,
      "acteurs": 4423,
      "opin": 4424,
      "regu": 4425,
      "souches": 4426,
      "portee": 4427,
      "artificie": 4428,
      "Bos": 4429,
      "jur": 4430,
      "musee": 4431,
      "entes": 4432,
      "intitu": 4433,
      "oyen": 4434,
      "adres": 4435,
      "eleph": 4436,
      "transformation": 4437,
      "integ": 4438,
      "exploration": 4439,
      "egalite": 4440,
      "theor": 4441,
      "fabrication": 4442,
      "materiau": 4443,
      "fenetre": 4444,
      "SIDA": 4445,
      "Nor": 4446,
      "faus": 4447,
      "encour": 4448,
      "mentale": 4449,
      "alog": 4450,
      "olly": 4451,
      "messages": 4452,
      "exp": 4453,
      "exprimer": 4454,
      "pouviez": 4455,
      "ulaire": 4456,
      "publics": 4457,
      "alises": 4458,
      "organes": 4459,
      "utilisee": 4460,
      "morale": 4461,
      "Quelques": 4462,
      "debarras": 4463,
      "Ros": 4464,
      "frap": 4465,
      "frais": 4466,
      "notes": 4467,
      "belles": 4468,
      "crimine": 4469,
      "mule": 4470,
      "debout": 4471,
      "aurons": 4472,
      "vetements": 4473,
      "Michael": 4474,
      "endez": 4475,
      "trous": 4476,
      "duree": 4477,
      "endra": 4478,
      "oindre": 4479,
      "stock": 4480,
      "recue": 4481,
      "auront": 4482,
      "anciens": 4483,
      "constamment": 4484,
      "objectifs": 4485,
      "drogue": 4486,
      "favor": 4487,
      "otique": 4488,
      "ving": 4489,
      "xim": 4490,
      "degres": 4491,
      "aimons": 4492,
      "liqui": 4493,
      "perd": 4494,
      "biens": 4495,
      "amie": 4496,
      "lissement": 4497,
      "disci": 4498,
      "generations": 4499,
      "interessantes": 4500,
      "langues": 4501,
      "oeuvres": 4502,
      "directeur": 4503,
      "grippe": 4504,
      "musul": 4505,
      "riviere": 4506,
      "George": 4507,
      "Moyen": 4508,
      "Wi": 4509,
      "ctif": 4510,
      "ed": 4511,
      "py": 4512,
      "parlant": 4513,
      "agre": 4514,
      "Celui": 4515,
      "obsc": 4516,
      "obtient": 4517,
      "centres": 4518,
      "essai": 4519,
      "casse": 4520,
      "generalement": 4521,
      "proteines": 4522,
      "dirigeants": 4523,
      "clinique": 4524,
      "hypoth": 4525,
      "Irak": 4526,
      "Gre": 4527,
      "Mont": 4528,
      "aj": 4529,
      "etendu": 4530,
      "orb": 4531,
      "diale": 4532,
      "ject": 4533,
      "actif": 4534,
      "apie": 4535,
      "esprits": 4536,
      "regardent": 4537,
      "neurosci": 4538,
      "cyber": 4539,
      "efficacite": 4540,
      "ajoute": 4541,
      "adulte": 4542,
      "Aut": 4543,
      "bin": 4544,
      "gal": 4545,
      "quet": 4546,
      "ailles": 4547,
      "etats": 4548,
      "itaux": 4549,
      "survie": 4550,
      "aster": 4551,
      "agnes": 4552,
      "devaient": 4553,
      "crime": 4554,
      "principale": 4555,
      "responsables": 4556,
      "physiques": 4557,
      "Juste": 4558,
      "disponible": 4559,
      "El": 4560,
      "Los": 4561,
      "cue": 4562,
      "ees": 4563,
      "metre": 4564,
      "reference": 4565,
      "chest": 4566,
      "exerci": 4567,
      "couts": 4568,
      "cercle": 4569,
      "tension": 4570,
      "connus": 4571,
      "theatre": 4572,
      "faibles": 4573,
      "fonctionnement": 4574,
      "joueurs": 4575,
      "traverse": 4576,
      "electronique": 4577,
      "civilisation": 4578,
      "annon": 4579,
      "queue": 4580,
      "pourra": 4581,
      "velo": 4582,
      "suit": 4583,
      "mesures": 4584,
      "emmene": 4585,
      "utilisateurs": 4586,
      "travaillant": 4587,
      "malheureusement": 4588,
      "automatique": 4589,
      "cruci": 4590,
      "Malheureusement": 4591,
      "reserve": 4592,
      "frontieres": 4593,
      "diapo": 4594,
      "joie": 4595,
      "definir": 4596,
      "repet": 4597,
      "mante": 4598,
      "visibles": 4599,
      "franc": 4600,
      "berg": 4601,
      "electriques": 4602,
      "ayons": 4603,
      "revele": 4604,
      "ctives": 4605,
      "possibles": 4606,
      "Toute": 4607,
      "internationale": 4608,
      "diplome": 4609,
      "dessiner": 4610,
      "apercu": 4611,
      "texte": 4612,
      "nel": 4613,
      "cible": 4614,
      "surpris": 4615,
      "perception": 4616,
      "copie": 4617,
      "mira": 4618,
      "ada": 4619,
      "soutenir": 4620,
      "positions": 4621,
      "probable": 4622,
      "educa": 4623,
      "reduit": 4624,
      "toilettes": 4625,
      "pathie": 4626,
      "leadership": 4627,
      "Prenez": 4628,
      "MIT": 4629,
      "bibliothe": 4630,
      "lege": 4631,
      "orld": 4632,
      "parait": 4633,
      "teste": 4634,
      "nutri": 4635,
      "malade": 4636,
      "doigt": 4637,
      "Robert": 4638,
      "Egy": 4639,
      "hon": 4640,
      "rai": 4641,
      "sh": 4642,
      "dece": 4643,
      "aurions": 4644,
      "ecr": 4645,
      "poesie": 4646,
      "phar": 4647,
      "Enfin": 4648,
      "brou": 4649,
      "travailleurs": 4650,
      "boule": 4651,
      "generale": 4652,
      "infir": 4653,
      "symet": 4654,
      "protege": 4655,
      "necessaires": 4656,
      "instrument": 4657,
      "lentement": 4658,
      "chaussures": 4659,
      "Grand": 4660,
      "1000": 4661,
      "feme": 4662,
      "mout": 4663,
      "soyez": 4664,
      "depl": 4665,
      "viande": 4666,
      "auxquels": 4667,
      "mobil": 4668,
      "mises": 4669,
      "Indi": 4670,
      "recy": 4671,
      "reussite": 4672,
      "defense": 4673,
      "sivement": 4674,
      "accepter": 4675,
      "Mexique": 4676,
      "Peu": 4677,
      "foi": 4678,
      "king": 4679,
      "oci": 4680,
      "xi": 4681,
      "prouver": 4682,
      "compren": 4683,
      "Ceux": 4684,
      "commenc": 4685,
      "pluie": 4686,
      "bulle": 4687,
      "equipes": 4688,
      "ancienne": 4689,
      "traitements": 4690,
      "inspiration": 4691,
      "fossi": 4692,
      "diagnosti": 4693,
      "correctement": 4694,
      "PM": 4695,
      "PIB": 4696,
      "pique": 4697,
      "eti": 4698,
      "rat": 4699,
      "exec": 4700,
      "acteur": 4701,
      "vieille": 4702,
      "corde": 4703,
      "trices": 4704,
      "utilisees": 4705,
      "investir": 4706,
      "personnage": 4707,
      "National": 4708,
      "scol": 4709,
      "oirs": 4710,
      "serre": 4711,
      "croient": 4712,
      "pensees": 4713,
      "montagnes": 4714,
      "essayez": 4715,
      "Ins": 4716,
      "Certaines": 4717,
      "adapter": 4718,
      "etoile": 4719,
      "applications": 4720,
      "Australie": 4721,
      "Israel": 4722,
      "Anderson": 4723,
      "Bang": 4724,
      "bais": 4725,
      "cut": 4726,
      "lour": 4727,
      "nat": 4728,
      "demontre": 4729,
      "concep": 4730,
      "technologique": 4731,
      "renouve": 4732,
      "usees": 4733,
      "explo": 4734,
      "sensation": 4735,
      "auriez": 4736,
      "conseil": 4737,
      "singes": 4738,
      "accepte": 4739,
      "Tur": 4740,
      "lor": 4741,
      "depasse": 4742,
      "anni": 4743,
      "lable": 4744,
      "osse": 4745,
      "mobile": 4746,
      "instein": 4747,
      "Leur": 4748,
      "tionnel": 4749,
      "bataille": 4750,
      "demandent": 4751,
      "estime": 4752,
      "molecule": 4753,
      "largement": 4754,
      "sagesse": 4755,
      "distribution": 4756,
      "Charles": 4757,
      "discipl": 4758,
      "legerement": 4759,
      "dau": 4760,
      "quons": 4761,
      "desert": 4762,
      "triste": 4763,
      "paration": 4764,
      "resolution": 4765,
      "cesse": 4766,
      "mets": 4767,
      "enfer": 4768,
      "pensaient": 4769,
      "geria": 4770,
      "essayant": 4771,
      "declen": 4772,
      "scen": 4773,
      "engager": 4774,
      "interets": 4775,
      "interview": 4776,
      "dejeuner": 4777,
      "tor": 4778,
      "etapes": 4779,
      "issez": 4780,
      "chute": 4781,
      "sucre": 4782,
      "bine": 4783,
      "travaux": 4784,
      "interagir": 4785,
      "cart": 4786,
      "nouvel": 4787,
      "heureuse": 4788,
      "tomb": 4789,
      "consequent": 4790,
      "appellent": 4791,
      "silence": 4792,
      "agissait": 4793,
      "discussion": 4794,
      "ky": 4795,
      "kistan": 4796,
      "rant": 4797,
      "ster": 4798,
      "etaire": 4799,
      "serez": 4800,
      "ramener": 4801,
      "atoires": 4802,
      "ouvre": 4803,
      "interaction": 4804,
      "faces": 4805,
      "isee": 4806,
      "allant": 4807,
      "integr": 4808,
      "ayez": 4809,
      "reussir": 4810,
      "dames": 4811,
      "compagnies": 4812,
      "reunion": 4813,
      "Islam": 4814,
      "emission": 4815,
      "stupe": 4816,
      "similaires": 4817,
      "privee": 4818,
      "diminue": 4819,
      "Web": 4820,
      "horrible": 4821,
      "dauph": 4822,
      "Einstein": 4823,
      "Thom": 4824,
      "gence": 4825,
      "sain": 4826,
      "vaient": 4827,
      "determin": 4828,
      "lade": 4829,
      "ina": 4830,
      "parole": 4831,
      "dio": 4832,
      "rac": 4833,
      "cheveux": 4834,
      "biles": 4835,
      "utilisez": 4836,
      "autrement": 4837,
      "poste": 4838,
      "jeter": 4839,
      "donnee": 4840,
      "complet": 4841,
      "alisee": 4842,
      "lette": 4843,
      "grave": 4844,
      "attache": 4845,
      "entends": 4846,
      "normale": 4847,
      "maitr": 4848,
      "metaphore": 4849,
      "Mil": 4850,
      "Sy": 4851,
      "Tom": 4852,
      "Times": 4853,
      "devions": 4854,
      "aisons": 4855,
      "aliste": 4856,
      "consac": 4857,
      "ortex": 4858,
      "angers": 4859,
      "donnez": 4860,
      "versaire": 4861,
      "nombres": 4862,
      "atifs": 4863,
      "energ": 4864,
      "titut": 4865,
      "souvenez": 4866,
      "articles": 4867,
      "demie": 4868,
      "Publi": 4869,
      "necessite": 4870,
      "competition": 4871,
      "extraordinaires": 4872,
      "vaste": 4873,
      "oublier": 4874,
      "infrastructure": 4875,
      "surveill": 4876,
      "Nouve": 4877,
      "balle": 4878,
      "mys": 4879,
      "oque": 4880,
      "determine": 4881,
      "citant": 4882,
      "confront": 4883,
      "propor": 4884,
      "interface": 4885,
      "ell": 4886,
      "complete": 4887,
      "banque": 4888,
      "equipement": 4889,
      "horiz": 4890,
      "chimie": 4891,
      "champs": 4892,
      "attendu": 4893,
      "abandonne": 4894,
      "eloigne": 4895,
      "precedent": 4896,
      "Egyp": 4897,
      "var": 4898,
      "escla": 4899,
      "redi": 4900,
      "repas": 4901,
      "isez": 4902,
      "trieme": 4903,
      "embar": 4904,
      "soph": 4905,
      "drait": 4906,
      "generer": 4907,
      "descendre": 4908,
      "illir": 4909,
      "proprietes": 4910,
      "decennie": 4911,
      "Mu": 4912,
      "Sans": 4913,
      "bor": 4914,
      "cend": 4915,
      "voire": 4916,
      "aigu": 4917,
      "cependant": 4918,
      "ombre": 4919,
      "plie": 4920,
      "acci": 4921,
      "emmener": 4922,
      "illet": 4923,
      "adminis": 4924,
      "tissus": 4925,
      "igh": 4926,
      "vote": 4927,
      "mecanique": 4928,
      "Jusqu": 4929,
      "comprends": 4930,
      "historique": 4931,
      "engagement": 4932,
      "Allez": 4933,
      "rechauffement": 4934,
      "nego": 4935,
      "omique": 4936,
      "pert": 4937,
      "abeth": 4938,
      "constitue": 4939,
      "opie": 4940,
      "compter": 4941,
      "moral": 4942,
      "lumieres": 4943,
      "organiser": 4944,
      "paye": 4945,
      "conscient": 4946,
      "guerres": 4947,
      "flot": 4948,
      "alimentation": 4949,
      "hopitaux": 4950,
      "rassembler": 4951,
      "galaxie": 4952,
      "fascinant": 4953,
      "mammi": 4954,
      "vehicules": 4955,
      "combinaison": 4956,
      "Kenya": 4957,
      "magasin": 4958,
      "jaune": 4959,
      "demonstration": 4960,
      "Ver": 4961,
      "gas": 4962,
      "lun": 4963,
      "mbre": 4964,
      "etend": 4965,
      "aurez": 4966,
      "prouve": 4967,
      "parfaite": 4968,
      "concl": 4969,
      "respe": 4970,
      "venaient": 4971,
      "fix": 4972,
      "frus": 4973,
      "reflexion": 4974,
      "total": 4975,
      "freres": 4976,
      "particuliere": 4977,
      "journaliste": 4978,
      "methodes": 4979,
      "argument": 4980,
      "ancetres": 4981,
      "Public": 4982,
      "Lu": 4983,
      "PS": 4984,
      "yer": 4985,
      "ressemblait": 4986,
      "rite": 4987,
      "urer": 4988,
      "pressions": 4989,
      "absor": 4990,
      "ineg": 4991,
      "posons": 4992,
      "mines": 4993,
      "croyons": 4994,
      "airs": 4995,
      "collection": 4996,
      "2008": 4997,
      "universit": 4998,
      "NASA": 4999,
      "axe": 5000,
      "date": 5001,
      "hauteur": 5002,
      "ks": 5003,
      "entour": 5004,
      "male": 5005,
      "ridi": 5006,
      "poeme": 5007,
      "maintenir": 5008,
      "penses": 5009,
      "indique": 5010,
      "organisme": 5011,
      "handi": 5012,
      "forcement": 5013,
      "Steve": 5014,
      "etablir": 5015,
      "entrepreneur": 5016,
      "gratuite": 5017,
      "anzes": 5018,
      "schema": 5019,
      "dinosaures": 5020,
      "chimpanzes": 5021,
      "dat": 5022,
      "naires": 5023,
      "reparer": 5024,
      "ney": 5025,
      "arai": 5026,
      "civile": 5027,
      "passionne": 5028,
      "maz": 5029,
      "verti": 5030,
      "intervention": 5031,
      "prisonn": 5032,
      "culaires": 5033,
      "Chac": 5034,
      "bloc": 5035,
      "ification": 5036,
      "tomes": 5037,
      "promis": 5038,
      "journaux": 5039,
      "music": 5040,
      "quatrieme": 5041,
      "montrant": 5042,
      "appliquer": 5043,
      "remplacer": 5044,
      "cogni": 5045,
      "liquide": 5046,
      "/&": 5047,
      "Mac": 5048,
      "lecons": 5049,
      "infer": 5050,
      "plans": 5051,
      "abond": 5052,
      "fication": 5053,
      "session": 5054,
      "content": 5055,
      "rapi": 5056,
      "commencez": 5057,
      "positifs": 5058,
      "prends": 5059,
      "subst": 5060,
      "drogues": 5061,
      "dessins": 5062,
      "provoque": 5063,
      "pedia": 5064,
      "recompense": 5065,
      "blancs": 5066,
      "intitule": 5067,
      "Alex": 5068,
      "Jo": 5069,
      "Moi": 5070,
      "cous": 5071,
      "gin": 5072,
      "xions": 5073,
      "retraite": 5074,
      "quette": 5075,
      "invit": 5076,
      "separe": 5077,
      "illusion": 5078,
      "itation": 5079,
      "magne": 5080,
      "resist": 5081,
      "resolu": 5082,
      "assur": 5083,
      "oppose": 5084,
      "puissions": 5085,
      "apparait": 5086,
      "Congres": 5087,
      "iosite": 5088,
      "pierre": 5089,
      "voisins": 5090,
      "disparu": 5091,
      "gravite": 5092,
      "Allemagne": 5093,
      "bouteille": 5094,
      "Angeles": 5095,
      "Cons": 5096,
      "Ra": 5097,
      "vard": 5098,
      "rect": 5099,
      "inten": 5100,
      "cage": 5101,
      "surpren": 5102,
      "resistance": 5103,
      "peri": 5104,
      "excitant": 5105,
      "gren": 5106,
      "chers": 5107,
      "fiction": 5108,
      "ouverture": 5109,
      "passee": 5110,
      "ellow": 5111,
      "medicaux": 5112,
      "creee": 5113,
      "hyper": 5114,
      "relativement": 5115,
      "ameliore": 5116,
      "actuel": 5117,
      "troubles": 5118,
      "cliniques": 5119,
      "scanner": 5120,
      "infirm": 5121,
      "Ro": 5122,
      "epau": 5123,
      "aign": 5124,
      "aident": 5125,
      "aud": 5126,
      "omen": 5127,
      "civi": 5128,
      "mage": 5129,
      "surprenant": 5130,
      "ecla": 5131,
      "assi": 5132,
      "predire": 5133,
      "posent": 5134,
      "midi": 5135,
      "longues": 5136,
      "publicite": 5137,
      "famili": 5138,
      "restent": 5139,
      "precie": 5140,
      "disparaitre": 5141,
      "etonnant": 5142,
      "instruments": 5143,
      "quasiment": 5144,
      "pollution": 5145,
      "Francisco": 5146,
      "hypothese": 5147,
      "600": 5148,
      "dement": 5149,
      "degra": 5150,
      "quantique": 5151,
      "visages": 5152,
      "visuel": 5153,
      "ouverte": 5154,
      "repand": 5155,
      "trafi": 5156,
      "privile": 5157,
      "fonctions": 5158,
      "locale": 5159,
      "charbon": 5160,
      "empre": 5161,
      "personnages": 5162,
      "normalement": 5163,
      "panneaux": 5164,
      "motivation": 5165,
      "symptomes": 5166,
      "Thomas": 5167,
      "Pri": 5168,
      "jete": 5169,
      "tandis": 5170,
      "uil": 5171,
      "aid": 5172,
      "iso": 5173,
      "cable": 5174,
      "propa": 5175,
      "moteurs": 5176,
      "agres": 5177,
      "sations": 5178,
      "genie": 5179,
      "market": 5180,
      "tume": 5181,
      "fiant": 5182,
      "plau": 5183,
      "rouges": 5184,
      "tenter": 5185,
      "architecte": 5186,
      "fondamentale": 5187,
      "quartiers": 5188,
      "frontiere": 5189,
      "resume": 5190,
      "intention": 5191,
      "Canada": 5192,
      "marketing": 5193,
      "Gol": 5194,
      "RM": 5195,
      "Wh": 5196,
      "dge": 5197,
      "iss": 5198,
      "urgie": 5199,
      "avoca": 5200,
      "paral": 5201,
      "commune": 5202,
      "cepti": 5203,
      "activis": 5204,
      "Bonjour": 5205,
      "champign": 5206,
      "fondamentalement": 5207,
      "attaquer": 5208,
      "sangu": 5209,
      "modernes": 5210,
      "detecter": 5211,
      "entrepreneurs": 5212,
      "pirit": 5213,
      "couverture": 5214,
      "Bri": 5215,
      "Sch": 5216,
      "Sal": 5217,
      "aci": 5218,
      "maire": 5219,
      "tte": 5220,
      "tation": 5221,
      "ouest": 5222,
      "invisible": 5223,
      "prun": 5224,
      "concert": 5225,
      "attire": 5226,
      "cheval": 5227,
      "oncer": 5228,
      "serieusement": 5229,
      "agees": 5230,
      "empathie": 5231,
      "post": 5232,
      "europe": 5233,
      "achet": 5234,
      "conclusion": 5235,
      "ingenieur": 5236,
      "Nigeria": 5237,
      "modifier": 5238,
      "composants": 5239,
      "ght": 5240,
      "spectacle": 5241,
      "vehicule": 5242,
      "ecosysteme": 5243,
      "souhaite": 5244,
      "encourager": 5245,
      "annonce": 5246,
      "hos": 5247,
      "oute": 5248,
      "depense": 5249,
      "insu": 5250,
      "velop": 5251,
      "itent": 5252,
      "liers": 5253,
      "other": 5254,
      "subi": 5255,
      "utation": 5256,
      "metal": 5257,
      "emprun": 5258,
      "Chica": 5259,
      "bama": 5260,
      "facteur": 5261,
      "apparaitre": 5262,
      "attaques": 5263,
      "souvenirs": 5264,
      "Chicago": 5265,
      "Adam": 5266,
      "Bret": 5267,
      "Peter": 5268,
      "Res": 5269,
      "onique": 5270,
      "red": 5271,
      "relie": 5272,
      "infini": 5273,
      "dessine": 5274,
      "ars": 5275,
      "pher": 5276,
      "phase": 5277,
      "placer": 5278,
      "avantages": 5279,
      "integre": 5280,
      "2010": 5281,
      "totale": 5282,
      "sortent": 5283,
      "anement": 5284,
      "chimique": 5285,
      "consommateurs": 5286,
      "Permettez": 5287,
      "Pakistan": 5288,
      "terrorisme": 5289,
      "causes": 5290,
      "%,": 5291,
      "brer": 5292,
      "inverse": 5293,
      "excep": 5294,
      "onnements": 5295,
      "transmettre": 5296,
      "tionnelle": 5297,
      "197": 5298,
      "magnifiques": 5299,
      "peinture": 5300,
      "Darwin": 5301,
      "Cam": 5302,
      "hai": 5303,
      "lue": 5304,
      "lob": 5305,
      "sier": 5306,
      "oiseau": 5307,
      "regret": 5308,
      "nerveux": 5309,
      "Quoi": 5310,
      "routes": 5311,
      "probabilite": 5312,
      "2007": 5313,
      "electro": 5314,
      "considera": 5315,
      "sentiments": 5316,
      "constate": 5317,
      "Harvard": 5318,
      "politics": 5319,
      "aveug": 5320,
      "integrer": 5321,
      "23": 5322,
      "Sue": 5323,
      "gile": 5324,
      "pons": 5325,
      "pide": 5326,
      "rus": 5327,
      "rees": 5328,
      "reti": 5329,
      "ander": 5330,
      "orchest": 5331,
      "rare": 5332,
      "viendr": 5333,
      "athan": 5334,
      "poche": 5335,
      "serais": 5336,
      "transpar": 5337,
      "grosses": 5338,
      "operations": 5339,
      "mathematique": 5340,
      "concepts": 5341,
      "Frank": 5342,
      "conserva": 5343,
      "vague": 5344,
      "panneau": 5345,
      "Finalement": 5346,
      "bibliotheque": 5347,
      "Bi": 5348,
      "Eri": 5349,
      "Sar": 5350,
      "gang": 5351,
      "laires": 5352,
      "remettre": 5353,
      "remonte": 5354,
      "lace": 5355,
      "pron": 5356,
      "maman": 5357,
      "bleue": 5358,
      "chefs": 5359,
      "improvis": 5360,
      "inevit": 5361,
      "fiques": 5362,
      "courte": 5363,
      "station": 5364,
      "rendez": 5365,
      "donnant": 5366,
      "theme": 5367,
      "parlez": 5368,
      "196": 5369,
      "pourrons": 5370,
      "entrent": 5371,
      "talent": 5372,
      "globale": 5373,
      "emotion": 5374,
      "tradition": 5375,
      "fusion": 5376,
      "esperons": 5377,
      "combattre": 5378,
      "Boston": 5379,
      "anniversaire": 5380,
      "Ed": 5381,
      "nations": 5382,
      "rur": 5383,
      "savions": 5384,
      "detruire": 5385,
      "degre": 5386,
      "arabe": 5387,
      "teres": 5388,
      "pers": 5389,
      "monie": 5390,
      "naturellement": 5391,
      "vity": 5392,
      "medicale": 5393,
      "humour": 5394,
      "fondamental": 5395,
      "jambe": 5396,
      "convaincu": 5397,
      "cerebra": 5398,
      "affecte": 5399,
      "puissants": 5400,
      "pourcentage": 5401,
      "batterie": 5402,
      "surveillance": 5403,
      "22": 5404,
      "Big": 5405,
      "Gar": 5406,
      "diner": 5407,
      "fleurs": 5408,
      "foie": 5409,
      "joli": 5410,
      "sque": 5411,
      "savaient": 5412,
      "spirit": 5413,
      "time": 5414,
      "autisme": 5415,
      "prin": 5416,
      "archi": 5417,
      "situe": 5418,
      "brit": 5419,
      "brut": 5420,
      "siecles": 5421,
      "charger": 5422,
      "chirurgie": 5423,
      "oeufs": 5424,
      "situations": 5425,
      "representer": 5426,
      "aveugle": 5427,
      "pharma": 5428,
      "Jon": 5429,
      "fici": 5430,
      "gur": 5431,
      "usion": 5432,
      "reconnais": 5433,
      "reconnaissance": 5434,
      "inde": 5435,
      "inconnu": 5436,
      "sedu": 5437,
      "cifique": 5438,
      "contribue": 5439,
      "atomes": 5440,
      "graines": 5441,
      "abou": 5442,
      "dise": 5443,
      "financ": 5444,
      "culti": 5445,
      "piano": 5446,
      "fran": 5447,
      "candi": 5448,
      "economies": 5449,
      "siege": 5450,
      "specifique": 5451,
      "magique": 5452,
      "creatif": 5453,
      "ethique": 5454,
      "examine": 5455,
      "installe": 5456,
      "Deuxiemement": 5457,
      "conversations": 5458,
      "soudain": 5459,
      "accomplir": 5460,
      "restaurant": 5461,
      "volume": 5462,
      "pingou": 5463,
      "agreable": 5464,
      "For": 5465,
      "iPh": 5466,
      "ker": 5467,
      "lune": 5468,
      "roi": 5469,
      "encer": 5470,
      "chais": 5471,
      "ielles": 5472,
      "diab": 5473,
      "comprenons": 5474,
      "acquis": 5475,
      "biais": 5476,
      "cros": 5477,
      "corpo": 5478,
      "energies": 5479,
      "domes": 5480,
      "hydrog": 5481,
      "personnalite": 5482,
      "rayons": 5483,
      "mecanisme": 5484,
      "analyser": 5485,
      "logiciels": 5486,
      "Premierement": 5487,
      "magazine": 5488,
      "energetique": 5489,
      "Sha": 5490,
      "mans": 5491,
      "pure": 5492,
      "oud": 5493,
      "anes": 5494,
      "desole": 5495,
      "trau": 5496,
      "pratiques": 5497,
      "provient": 5498,
      "attirer": 5499,
      "excite": 5500,
      "actifs": 5501,
      "imprimer": 5502,
      "ology": 5503,
      "elever": 5504,
      "ting": 5505,
      "ingue": 5506,
      "positive": 5507,
      "basee": 5508,
      "approprie": 5509,
      "consequence": 5510,
      "odeur": 5511,
      "evoluer": 5512,
      "fossiles": 5513,
      "Ki": 5514,
      "Sau": 5515,
      "glis": 5516,
      "wood": 5517,
      "ino": 5518,
      "choc": 5519,
      "ave": 5520,
      "males": 5521,
      "ramene": 5522,
      "couvert": 5523,
      "vraies": 5524,
      "fixe": 5525,
      "tremble": 5526,
      "nuage": 5527,
      "explor": 5528,
      "elections": 5529,
      "reuss": 5530,
      "foot": 5531,
      "representation": 5532,
      "intelligente": 5533,
      "condition": 5534,
      "inquiet": 5535,
      "cameras": 5536,
      "terroristes": 5537,
      "partenaires": 5538,
      "Noel": 5539,
      "procede": 5540,
      "requins": 5541,
      "furent": 5542,
      "alternative": 5543,
      "aventure": 5544,
      "Wiki": 5545,
      "Fe": 5546,
      "World": 5547,
      "fis": 5548,
      "fleur": 5549,
      "mun": 5550,
      "yant": 5551,
      "quait": 5552,
      "neige": 5553,
      "veget": 5554,
      "gration": 5555,
      "plat": 5556,
      "decouvr": 5557,
      "aliments": 5558,
      "hiver": 5559,
      "olique": 5560,
      "psychologie": 5561,
      "drapeau": 5562,
      "precision": 5563,
      "ballon": 5564,
      "algorithmes": 5565,
      "Nations": 5566,
      "bous": 5567,
      "cortex": 5568,
      "dieu": 5569,
      "fete": 5570,
      "saut": 5571,
      "siere": 5572,
      "zo": 5573,
      "combus": 5574,
      "contres": 5575,
      "concre": 5576,
      "viole": 5577,
      "onneur": 5578,
      "ellement": 5579,
      "dispositif": 5580,
      "chiens": 5581,
      "reflech": 5582,
      "herit": 5583,
      "Mondiale": 5584,
      "voisin": 5585,
      "diriger": 5586,
      "souffle": 5587,
      "orient": 5588,
      "faudrait": 5589,
      "evalu": 5590,
      "attraper": 5591,
      "docteur": 5592,
      "destruction": 5593,
      "Mer": 5594,
      "ades": 5595,
      "aces": 5596,
      "eh": 5597,
      "fus": 5598,
      "anie": 5599,
      "trage": 5600,
      "arde": 5601,
      "condam": 5602,
      "itre": 5603,
      "mondes": 5604,
      "preparer": 5605,
      "viez": 5606,
      "luci": 5607,
      "ctur": 5608,
      "ainement": 5609,
      "visuelle": 5610,
      "trace": 5611,
      "blanche": 5612,
      "publiques": 5613,
      "sourire": 5614,
      "antibio": 5615,
      "traits": 5616,
      "nourris": 5617,
      "recoit": 5618,
      "bouton": 5619,
      "architectes": 5620,
      "apparemment": 5621,
      "lendemain": 5622,
      "pilote": 5623,
      "automo": 5624,
      "liberer": 5625,
      "satellite": 5626,
      "aborder": 5627,
      "telescope": 5628,
      "hydrogene": 5629,
      "Bus": 5630,
      "France": 5631,
      "Pouvez": 5632,
      "event": 5633,
      "gard": 5634,
      "entendez": 5635,
      "aupres": 5636,
      "couches": 5637,
      "motifs": 5638,
      "serons": 5639,
      "agents": 5640,
      "creons": 5641,
      "militaires": 5642,
      "voyager": 5643,
      "pensant": 5644,
      "crimin": 5645,
      "portes": 5646,
      "repous": 5647,
      "gerie": 5648,
      "cines": 5649,
      "cinqu": 5650,
      "permettant": 5651,
      "Afric": 5652,
      "echap": 5653,
      "populations": 5654,
      "recuperer": 5655,
      "explication": 5656,
      "artistique": 5657,
      "chanter": 5658,
      "spectre": 5659,
      "adolescents": 5660,
      "vingt": 5661,
      "Ban": 5662,
      "Voyons": 5663,
      "aqu": 5664,
      "dist": 5665,
      "hent": 5666,
      "nan": 5667,
      "soire": 5668,
      "envoie": 5669,
      "oux": 5670,
      "reproduire": 5671,
      "lateur": 5672,
      "urban": 5673,
      "dique": 5674,
      "dialog": 5675,
      "rig": 5676,
      "presents": 5677,
      "interactions": 5678,
      "interpret": 5679,
      "tumeur": 5680,
      "sentent": 5681,
      "oleil": 5682,
      "voile": 5683,
      "centrale": 5684,
      "Super": 5685,
      "naturelles": 5686,
      "menage": 5687,
      "volant": 5688,
      "offic": 5689,
      "hotel": 5690,
      "souffrance": 5691,
      "detail": 5692,
      "acceder": 5693,
      "majeure": 5694,
      "Guerre": 5695,
      "baleines": 5696,
      "exploitation": 5697,
      "LA": 5698,
      "vacc": 5699,
      "enlever": 5700,
      "ismes": 5701,
      "dions": 5702,
      "suici": 5703,
      "portent": 5704,
      "franche": 5705,
      "ordinaires": 5706,
      "contrain": 5707,
      "soie": 5708,
      "designer": 5709,
      "designers": 5710,
      "feuilles": 5711,
      "graphie": 5712,
      "Stan": 5713,
      "Aussi": 5714,
      "Medi": 5715,
      "expans": 5716,
      "vaccins": 5717,
      "acier": 5718,
      "mm": 5719,
      "tetes": 5720,
      "war": 5721,
      "reactions": 5722,
      "lecture": 5723,
      "anony": 5724,
      "citer": 5725,
      "olie": 5726,
      "auxquelles": 5727,
      "authent": 5728,
      "forcer": 5729,
      "vieilles": 5730,
      "rencontres": 5731,
      "frequence": 5732,
      "creativity": 5733,
      "concur": 5734,
      "industrielle": 5735,
      "quantites": 5736,
      "longueur": 5737,
      "stimu": 5738,
      "carburant": 5739,
      "Stre": 5740,
      "Soleil": 5741,
      "gos": 5742,
      "rog": 5743,
      "riez": 5744,
      "dep": 5745,
      "ald": 5746,
      "quiconque": 5747,
      "convi": 5748,
      "eclaire": 5749,
      "posez": 5750,
      "mettant": 5751,
      "vendu": 5752,
      "militaire": 5753,
      "humil": 5754,
      "mini": 5755,
      "ferm": 5756,
      "tissement": 5757,
      "ingredi": 5758,
      "control": 5759,
      "Andre": 5760,
      "remarquer": 5761,
      "amelioration": 5762,
      "Avez": 5763,
      "biologiques": 5764,
      "grim": 5765,
      "dimension": 5766,
      "ampou": 5767,
      "attendez": 5768,
      "navi": 5769,
      "orbite": 5770,
      "Te": 5771,
      "flu": 5772,
      "honneur": 5773,
      "mail": 5774,
      "rever": 5775,
      "informe": 5776,
      "anter": 5777,
      "ecra": 5778,
      "ters": 5779,
      "verifier": 5780,
      "pred": 5781,
      "genetiques": 5782,
      "marin": 5783,
      "ordinaire": 5784,
      "oreilles": 5785,
      "bala": 5786,
      "future": 5787,
      "collective": 5788,
      "aimez": 5789,
      "Martin": 5790,
      "trouvait": 5791,
      "innovations": 5792,
      "profondeur": 5793,
      "benefici": 5794,
      "pratiquement": 5795,
      "stupide": 5796,
      "Russie": 5797,
      "obstacles": 5798,
      "Nouvelle": 5799,
      "mammiferes": 5800,
      "iPhone": 5801,
      "Ara": 5802,
      "Dur": 5803,
      "Fait": 5804,
      "Fellow": 5805,
      "hack": 5806,
      "maux": 5807,
      "incar": 5808,
      "ares": 5809,
      "cacher": 5810,
      "riger": 5811,
      "amoureux": 5812,
      "moelle": 5813,
      "ogen": 5814,
      "empeche": 5815,
      "cription": 5816,
      "transition": 5817,
      "donnait": 5818,
      "bert": 5819,
      "hormon": 5820,
      "particip": 5821,
      "examiner": 5822,
      "installer": 5823,
      "veritablement": 5824,
      "navig": 5825,
      "pattes": 5826,
      "difficulte": 5827,
      "discuter": 5828,
      "Bretagne": 5829,
      "heritage": 5830,
      "27": 5831,
      "GPS": 5832,
      "PD": 5833,
      "lites": 5834,
      "mete": 5835,
      "up": 5836,
      "yon": 5837,
      "etendre": 5838,
      "intr": 5839,
      "inclu": 5840,
      "illage": 5841,
      "unis": 5842,
      "ecout": 5843,
      "impri": 5844,
      "credit": 5845,
      "vente": 5846,
      "tues": 5847,
      "soeurs": 5848,
      "these": 5849,
      "eglise": 5850,
      "decouvre": 5851,
      "reduction": 5852,
      "juges": 5853,
      "industri": 5854,
      "Quelque": 5855,
      "pensions": 5856,
      "analog": 5857,
      "foule": 5858,
      "mathemati": 5859,
      "abandonner": 5860,
      "partenaire": 5861,
      "chirurgien": 5862,
      "statut": 5863,
      "conclure": 5864,
      "250": 5865,
      "65": 5866,
      "Jer": 5867,
      "batt": 5868,
      "oct": 5869,
      "pur": 5870,
      "ye": 5871,
      "defaut": 5872,
      "pace": 5873,
      "illu": 5874,
      "orph": 5875,
      "prati": 5876,
      "partement": 5877,
      "paralle": 5878,
      "compli": 5879,
      "prepare": 5880,
      "reglement": 5881,
      "seules": 5882,
      "centaine": 5883,
      "central": 5884,
      "branche": 5885,
      "trouverez": 5886,
      "proteine": 5887,
      "classes": 5888,
      "villages": 5889,
      "toile": 5890,
      "physiquement": 5891,
      "Heure": 5892,
      "cinema": 5893,
      "institution": 5894,
      "immun": 5895,
      "modifie": 5896,
      "circulation": 5897,
      "quotidien": 5898,
      "echantillons": 5899,
      "extraire": 5900,
      "prototype": 5901,
      "City": 5902,
      "Evidemment": 5903,
      "Sci": 5904,
      "fous": 5905,
      "japon": 5906,
      "ypes": 5907,
      "onnes": 5908,
      "section": 5909,
      "pares": 5910,
      "poursuivre": 5911,
      "proto": 5912,
      "mesur": 5913,
      "minim": 5914,
      "ministre": 5915,
      "nuages": 5916,
      "gras": 5917,
      "cordes": 5918,
      "lobe": 5919,
      "pareil": 5920,
      "specifiques": 5921,
      "capteurs": 5922,
      "Tube": 5923,
      "radicalement": 5924,
      "conclu": 5925,
      "allume": 5926,
      "muscles": 5927,
      "vagues": 5928,
      "difficultes": 5929,
      "semblable": 5930,
      "exercice": 5931,
      "Celle": 5932,
      "gs": 5933,
      "enva": 5934,
      "retirer": 5935,
      "plier": 5936,
      "preoccu": 5937,
      "puce": 5938,
      "pole": 5939,
      "Chr": 5940,
      "suscepti": 5941,
      "signes": 5942,
      "economistes": 5943,
      "traites": 5944,
      "2009": 5945,
      "reveille": 5946,
      "biology": 5947,
      "chansons": 5948,
      "cerebr": 5949,
      "traditionnelle": 5950,
      "professionnels": 5951,
      "politiciens": 5952,
      "benefices": 5953,
      "YouTube": 5954,
      "juridi": 5955,
      "debarrasser": 5956,
      "Don": 5957,
      "Fond": 5958,
      "dame": 5959,
      "foyer": 5960,
      "wa": 5961,
      "oun": 5962,
      "tile": 5963,
      "pourrez": 5964,
      "osphere": 5965,
      "vienne": 5966,
      "peres": 5967,
      "atur": 5968,
      "autorite": 5969,
      "aman": 5970,
      "instin": 5971,
      "couru": 5972,
      "eleg": 5973,
      "traject": 5974,
      "recoivent": 5975,
      "hydr": 5976,
      "liees": 5977,
      "calculs": 5978,
      "evaluer": 5979,
      "immeuble": 5980,
      "Street": 5981,
      "Jack": 5982,
      "Ke": 5983,
      "Obama": 5984,
      "uter": 5985,
      "yp": 5986,
      "enquete": 5987,
      "recul": 5988,
      "esthes": 5989,
      "chap": 5990,
      "omage": 5991,
      "desas": 5992,
      "desespere": 5993,
      "oites": 5994,
      "sale": 5995,
      "oblig": 5996,
      "ideal": 5997,
      "voyant": 5998,
      "profondes": 5999,
      "oreille": 6000,
      "suivent": 6001,
      "roule": 6002,
      "connexions": 6003,
      "necessairement": 6004,
      "annique": 6005,
      "Buff": 6006,
      "echantillon": 6007,
      "supplementaires": 6008,
      "francais": 6009,
      "expansion": 6010,
      "Tex": 6011,
      "Willi": 6012,
      "gou": 6013,
      "mme": 6014,
      "raient": 6015,
      "del": 6016,
      "reli": 6017,
      "ini": 6018,
      "chaise": 6019,
      "trine": 6020,
      "parcours": 6021,
      "proc": 6022,
      "endrait": 6023,
      "mobiles": 6024,
      "creature": 6025,
      "hei": 6026,
      "ardons": 6027,
      "rencontr": 6028,
      "repan": 6029,
      "repete": 6030,
      "joueur": 6031,
      "explore": 6032,
      "expert": 6033,
      "claire": 6034,
      "fondation": 6035,
      "fail": 6036,
      "reflechi": 6037,
      "rup": 6038,
      "conseils": 6039,
      "doctor": 6040,
      "accessible": 6041,
      "circonst": 6042,
      "salles": 6043,
      "puissiez": 6044,
      "diminuer": 6045,
      "adolescent": 6046,
      "cadeau": 6047,
      "Aucun": 6048,
      "respirer": 6049,
      "scenar": 6050,
      "rapides": 6051,
      "Dis": 6052,
      "Nature": 6053,
      "Ob": 6054,
      "Secon": 6055,
      "Tim": 6056,
      "atr": 6057,
      "gig": 6058,
      "lux": 6059,
      "rence": 6060,
      "deces": 6061,
      "depenser": 6062,
      "laser": 6063,
      "appren": 6064,
      "modes": 6065,
      "obse": 6066,
      "sentez": 6067,
      "intense": 6068,
      "voies": 6069,
      "Mark": 6070,
      "arrivera": 6071,
      "amelior": 6072,
      "Unies": 6073,
      "litterature": 6074,
      "Juli": 6075,
      "echoue": 6076,
      "artificielle": 6077,
      "diagnostic": 6078,
      "Egypte": 6079,
      "negoci": 6080,
      "Wikipedia": 6081,
      "Ab": 6082,
      "Coree": 6083,
      "Sam": 6084,
      "naient": 6085,
      "comprenez": 6086,
      "surs": 6087,
      "aint": 6088,
      "accent": 6089,
      "preter": 6090,
      "prevu": 6091,
      "sach": 6092,
      "merite": 6093,
      "interne": 6094,
      "ordonne": 6095,
      "lucra": 6096,
      "ado": 6097,
      "jouets": 6098,
      "essayent": 6099,
      "loint": 6100,
      "titudes": 6101,
      "cellulaire": 6102,
      "ferer": 6103,
      "multiples": 6104,
      "abilites": 6105,
      "terrestre": 6106,
      "microscope": 6107,
      "accidents": 6108,
      "antibiotiques": 6109,
      "Amaz": 6110,
      "barre": 6111,
      "cot": 6112,
      "sphere": 6113,
      "umer": 6114,
      "mental": 6115,
      "ara": 6116,
      "ciers": 6117,
      "maxim": 6118,
      "riz": 6119,
      "verser": 6120,
      "extin": 6121,
      "expon": 6122,
      "bidon": 6123,
      "motif": 6124,
      "icien": 6125,
      "partagent": 6126,
      "Voix": 6127,
      "trajet": 6128,
      "thes": 6129,
      "basse": 6130,
      "economics": 6131,
      "affront": 6132,
      "collis": 6133,
      "assise": 6134,
      "investi": 6135,
      "liee": 6136,
      "poly": 6137,
      "bureaux": 6138,
      "montee": 6139,
      "sensi": 6140,
      "electroniques": 6141,
      "miroir": 6142,
      "symbole": 6143,
      "docteurs": 6144,
      "solide": 6145,
      "refugies": 6146,
      "diaposi": 6147,
      "William": 6148,
      "exponent": 6149,
      "Ad": 6150,
      "Cr": 6151,
      "Haw": 6152,
      "dense": 6153,
      "trer": 6154,
      "legu": 6155,
      "ester": 6156,
      "omni": 6157,
      "peaux": 6158,
      "passons": 6159,
      "oser": 6160,
      "provenant": 6161,
      "resol": 6162,
      "ressenti": 6163,
      "ecart": 6164,
      "persu": 6165,
      "attr": 6166,
      "attitude": 6167,
      "actere": 6168,
      "aby": 6169,
      "metro": 6170,
      "coups": 6171,
      "marins": 6172,
      "jusque": 6173,
      "caractere": 6174,
      "profiter": 6175,
      "croyances": 6176,
      "sauter": 6177,
      "sinon": 6178,
      "continuent": 6179,
      "rempli": 6180,
      "Regardons": 6181,
      "match": 6182,
      "evidence": 6183,
      "rejoindre": 6184,
      "Apple": 6185,
      "quotidienne": 6186,
      "infrastructures": 6187,
      "standard": 6188,
      "minuscule": 6189,
      "opinion": 6190,
      "Mad": 6191,
      "bul": 6192,
      "epuis": 6193,
      "udes": 6194,
      "este": 6195,
      "retro": 6196,
      "inhabit": 6197,
      "memor": 6198,
      "chou": 6199,
      "mentionne": 6200,
      "sives": 6201,
      "diam": 6202,
      "mateur": 6203,
      "territ": 6204,
      "exister": 6205,
      "apparti": 6206,
      "apprenons": 6207,
      "ffe": 6208,
      "coins": 6209,
      "option": 6210,
      "gences": 6211,
      "plage": 6212,
      "Paris": 6213,
      "malades": 6214,
      "tropica": 6215,
      "record": 6216,
      "poumons": 6217,
      "tendances": 6218,
      "promo": 6219,
      "secrets": 6220,
      "commercial": 6221,
      "aerop": 6222,
      "attrape": 6223,
      "bombe": 6224,
      "tapis": 6225,
      "apprecier": 6226,
      "scolaire": 6227,
      "Ecou": 6228,
      "Port": 6229,
      "Ses": 6230,
      "Ti": 6231,
      "rares": 6232,
      "saute": 6233,
      "vus": 6234,
      "deri": 6235,
      "depenses": 6236,
      "larite": 6237,
      "siques": 6238,
      "altitude": 6239,
      "coul": 6240,
      "coher": 6241,
      "marie": 6242,
      "fati": 6243,
      "ionn": 6244,
      "bref": 6245,
      "humor": 6246,
      "arrivait": 6247,
      "centr": 6248,
      "souleve": 6249,
      "ystere": 6250,
      "organe": 6251,
      "menaces": 6252,
      "chercheur": 6253,
      "Ouest": 6254,
      "graphiques": 6255,
      "participe": 6256,
      "kilos": 6257,
      "sacre": 6258,
      "potentiellement": 6259,
      "fournit": 6260,
      "asseoir": 6261,
      "densite": 6262,
      "choco": 6263,
      "transports": 6264,
      "Hist": 6265,
      "II": 6266,
      "atrice": 6267,
      "tat": 6268,
      "reme": 6269,
      "lables": 6270,
      "tier": 6271,
      "issement": 6272,
      "chait": 6273,
      "itant": 6274,
      "propul": 6275,
      "chev": 6276,
      "coupa": 6277,
      "certitude": 6278,
      "utilisateur": 6279,
      "mions": 6280,
      "outh": 6281,
      "personnelles": 6282,
      "personnellement": 6283,
      "developpent": 6284,
      "1990": 6285,
      "2005": 6286,
      "connect": 6287,
      "neuro": 6288,
      "attendent": 6289,
      "participation": 6290,
      "Selon": 6291,
      "inquiete": 6292,
      "diagram": 6293,
      "intelligentes": 6294,
      "vieillissement": 6295,
      "optimiste": 6296,
      "recente": 6297,
      "fauteuil": 6298,
      "calculer": 6299,
      "criminels": 6300,
      "Gi": 6301,
      "Grace": 6302,
      "Joe": 6303,
      "PA": 6304,
      "aques": 6305,
      "dage": 6306,
      "epi": 6307,
      "ko": 6308,
      "rose": 6309,
      "ast": 6310,
      "astu": 6311,
      "preci": 6312,
      "prefer": 6313,
      "ouvri": 6314,
      "ultime": 6315,
      "attente": 6316,
      "travaillait": 6317,
      "reputation": 6318,
      "Chinois": 6319,
      "Commen": 6320,
      "naturels": 6321,
      "construisent": 6322,
      "client": 6323,
      "soigner": 6324,
      "connectes": 6325,
      "Art": 6326,
      "talents": 6327,
      "sexuelle": 6328,
      "Pacifique": 6329,
      "reunir": 6330,
      "examen": 6331,
      "curiosite": 6332,
      "jeunesse": 6333,
      "africains": 6334,
      "declare": 6335,
      "oft": 6336,
      "absence": 6337,
      "satellites": 6338,
      "entrainer": 6339,
      "automatiquement": 6340,
      "explosion": 6341,
      "gratuitement": 6342,
      "circonstances": 6343,
      "aeroport": 6344,
      "Bas": 6345,
      "CD": 6346,
      "Vr": 6347,
      "ben": 6348,
      "flui": 6349,
      "hec": 6350,
      "icon": 6351,
      "envis": 6352,
      "remer": 6353,
      "reconstruire": 6354,
      "ailes": 6355,
      "lac": 6356,
      "rarement": 6357,
      "apprecie": 6358,
      "biom": 6359,
      "couper": 6360,
      "quelconque": 6361,
      "consomme": 6362,
      "regul": 6363,
      "exploi": 6364,
      "saisir": 6365,
      "arrivez": 6366,
      "doul": 6367,
      "tours": 6368,
      "locales": 6369,
      "collecte": 6370,
      "pourront": 6371,
      "superieur": 6372,
      "conducteur": 6373,
      "analys": 6374,
      "forts": 6375,
      "inspirer": 6376,
      "strategies": 6377,
      "diplom": 6378,
      "partenari": 6379,
      "ONU": 6380,
      "obscurite": 6381,
      "transparence": 6382,
      "pingouins": 6383,
      "franchement": 6384,
      "Vraiment": 6385,
      "SMS": 6386,
      "Vir": 6387,
      "Voyez": 6388,
      "mystere": 6389,
      "nar": 6390,
      "san": 6391,
      "escal": 6392,
      "dee": 6393,
      "instruc": 6394,
      "genet": 6395,
      "euse": 6396,
      "visi": 6397,
      "dren": 6398,
      "stop": 6399,
      "Union": 6400,
      "construite": 6401,
      "culturelle": 6402,
      "lumine": 6403,
      "robotique": 6404,
      "identiques": 6405,
      "identifie": 6406,
      "reveler": 6407,
      "hana": 6408,
      "conscients": 6409,
      "rapports": 6410,
      "empi": 6411,
      "effectue": 6412,
      "elevee": 6413,
      "sacri": 6414,
      "photographe": 6415,
      "reserves": 6416,
      "philosophie": 6417,
      "volontaire": 6418,
      "dauphins": 6419,
      "combusti": 6420,
      "participants": 6421,
      "Am": 6422,
      "Bur": 6423,
      "Cal": 6424,
      "fan": 6425,
      "sand": 6426,
      "soyons": 6427,
      "ution": 6428,
      "reagir": 6429,
      "remonter": 6430,
      "refroi": 6431,
      "anmoins": 6432,
      "anvier": 6433,
      "quement": 6434,
      "isole": 6435,
      "estation": 6436,
      "oine": 6437,
      "paraitre": 6438,
      "usines": 6439,
      "dict": 6440,
      "pel": 6441,
      "jection": 6442,
      "athe": 6443,
      "Jeff": 6444,
      "serve": 6445,
      "creant": 6446,
      "marine": 6447,
      "tube": 6448,
      "systematique": 6449,
      "donnons": 6450,
      "boucle": 6451,
      "saison": 6452,
      "garet": 6453,
      "collegue": 6454,
      "actives": 6455,
      "rappelez": 6456,
      "poussiere": 6457,
      "vivaient": 6458,
      "numeriques": 6459,
      "lyn": 6460,
      "pollen": 6461,
      "equation": 6462,
      "secondaires": 6463,
      "oxyde": 6464,
      "obesite": 6465,
      "entrainement": 6466,
      "professionnel": 6467,
      "deroule": 6468,
      "orchestre": 6469,
      "32": 6470,
      "Ali": 6471,
      "Pet": 6472,
      "Ru": 6473,
      "bis": 6474,
      "his": 6475,
      "zaine": 6476,
      "detaille": 6477,
      "recep": 6478,
      "temoi": 6479,
      "med": 6480,
      "algues": 6481,
      "caf": 6482,
      "cat": 6483,
      "acer": 6484,
      "copi": 6485,
      "irait": 6486,
      "grille": 6487,
      "marques": 6488,
      "figure": 6489,
      "ateaux": 6490,
      "imagerie": 6491,
      "admettre": 6492,
      "productivite": 6493,
      "travaillais": 6494,
      "brain": 6495,
      "brise": 6496,
      "environnements": 6497,
      "gay": 6498,
      "Antar": 6499,
      "Allons": 6500,
      "religieux": 6501,
      "musiciens": 6502,
      "international": 6503,
      "sensible": 6504,
      "esperance": 6505,
      "circuits": 6506,
      "club": 6507,
      "Prenons": 6508,
      "impliquer": 6509,
      "simplicite": 6510,
      "fruits": 6511,
      "vaisseaux": 6512,
      "tranqu": 6513,
      "ridicule": 6514,
      "Chacun": 6515,
      "considerable": 6516,
      "Eric": 6517,
      "Fellows": 6518,
      "Heureusement": 6519,
      "Cin": 6520,
      "Gen": 6521,
      "HA": 6522,
      "bag": 6523,
      "elar": 6524,
      "ji": 6525,
      "ms": 6526,
      "retire": 6527,
      "quart": 6528,
      "anou": 6529,
      "titres": 6530,
      "pate": 6531,
      "orites": 6532,
      "alph": 6533,
      "applau": 6534,
      "copes": 6535,
      "cooperation": 6536,
      "abule": 6537,
      "osex": 6538,
      "crees": 6539,
      "ulte": 6540,
      "corail": 6541,
      "huile": 6542,
      "polio": 6543,
      "2011": 6544,
      "supporter": 6545,
      "trouves": 6546,
      "principaux": 6547,
      "blague": 6548,
      "cardiaques": 6549,
      "contribuer": 6550,
      "universites": 6551,
      "demarre": 6552,
      "installations": 6553,
      "ONG": 6554,
      "ralentir": 6555,
      "ajout": 6556,
      "etendue": 6557,
      "lunettes": 6558,
      "empreinte": 6559,
      "desastre": 6560,
      "scenario": 6561,
      "lucratif": 6562,
      "remercie": 6563,
      "Antarctique": 6564,
      "800": 6565,
      "Bob": 6566,
      "Jes": 6567,
      "Sm": 6568,
      "fon": 6569,
      "women": 6570,
      "leger": 6571,
      "nees": 6572,
      "tise": 6573,
      "palu": 6574,
      "ora": 6575,
      "pass": 6576,
      "veu": 6577,
      "ota": 6578,
      "geom": 6579,
      "come": 6580,
      "ouvoir": 6581,
      "gnite": 6582,
      "finit": 6583,
      "sentais": 6584,
      "seuil": 6585,
      "attan": 6586,
      "medicine": 6587,
      "Quelles": 6588,
      "colonie": 6589,
      "interessants": 6590,
      "permettez": 6591,
      "ographique": 6592,
      "hane": 6593,
      "operer": 6594,
      "comparer": 6595,
      "adequ": 6596,
      "salaire": 6597,
      "curieux": 6598,
      "sensibles": 6599,
      "adopter": 6600,
      "Essay": 6601,
      "croitre": 6602,
      "eclai": 6603,
      "sophistique": 6604,
      "universitaire": 6605,
      "trafic": 6606,
      "Christ": 6607,
      "Ecoutez": 6608,
      "exploiter": 6609,
      "Mur": 6610,
      "Ox": 6611,
      "Tit": 6612,
      "boire": 6613,
      "hau": 6614,
      "wn": 6615,
      "onger": 6616,
      "recit": 6617,
      "esth": 6618,
      "cables": 6619,
      "riques": 6620,
      "viendra": 6621,
      "exclu": 6622,
      "tenait": 6623,
      "metier": 6624,
      "disposition": 6625,
      "sembler": 6626,
      "ennemi": 6627,
      "illent": 6628,
      "sauvage": 6629,
      "gouvern": 6630,
      "support": 6631,
      "confir": 6632,
      "singe": 6633,
      "creatifs": 6634,
      "reunions": 6635,
      "studio": 6636,
      "agricul": 6637,
      "enregistrer": 6638,
      "tombee": 6639,
      "urbain": 6640,
      "gamin": 6641,
      "remplace": 6642,
      "reflechissez": 6643,
      "financier": 6644,
      "affiche": 6645,
      "adresse": 6646,
      "aveugles": 6647,
      "Commencons": 6648,
      "29": 6649,
      "Em": 6650,
      "Glob": 6651,
      "King": 6652,
      "fabule": 6653,
      "jac": 6654,
      "oquer": 6655,
      "esca": 6656,
      "reconnu": 6657,
      "etage": 6658,
      "pause": 6659,
      "omo": 6660,
      "parking": 6661,
      "ecologique": 6662,
      "rad": 6663,
      "exception": 6664,
      "predi": 6665,
      "mangent": 6666,
      "disme": 6667,
      "impul": 6668,
      "visions": 6669,
      "retab": 6670,
      "iennes": 6671,
      "solaires": 6672,
      "apparence": 6673,
      "Congo": 6674,
      "etranges": 6675,
      "observation": 6676,
      "laboratoires": 6677,
      "demandais": 6678,
      "demandant": 6679,
      "Micros": 6680,
      "avancee": 6681,
      "traduire": 6682,
      "silen": 6683,
      "adopte": 6684,
      "documents": 6685,
      "Phili": 6686,
      "spatial": 6687,
      "ignorance": 6688,
      "oblige": 6689,
      "fausse": 6690,
      "asteroi": 6691,
      "declenche": 6692,
      "maitrise": 6693,
      "veloppe": 6694,
      "Fer": 6695,
      "Gates": 6696,
      "Hai": 6697,
      "ala": 6698,
      "hattan": 6699,
      "paie": 6700,
      "tements": 6701,
      "dignite": 6702,
      "itude": 6703,
      "lisabeth": 6704,
      "marchent": 6705,
      "ventions": 6706,
      "drones": 6707,
      "infanti": 6708,
      "banques": 6709,
      "assist": 6710,
      "apparaissent": 6711,
      "communications": 6712,
      "dependance": 6713,
      "enseignant": 6714,
      "urgence": 6715,
      "philanthrop": 6716,
      "enregistrement": 6717,
      "nucleaires": 6718,
      "diverses": 6719,
      "gamme": 6720,
      "Manhattan": 6721,
      "spectaculaire": 6722,
      "paradig": 6723,
      "financement": 6724,
      "goutte": 6725,
      "trompe": 6726,
      "simulation": 6727,
      "animation": 6728,
      "catastrophe": 6729,
      "grenou": 6730,
      "financiere": 6731,
      "Faites": 6732,
      "trajectoire": 6733,
      "Jim": 6734,
      "US": 6735,
      "gale": 6736,
      "kg": 6737,
      "mins": 6738,
      "celi": 6739,
      "invisibles": 6740,
      "secours": 6741,
      "chas": 6742,
      "racines": 6743,
      "exprime": 6744,
      "ueux": 6745,
      "couvrir": 6746,
      "pub": 6747,
      "metab": 6748,
      "inex": 6749,
      "mart": 6750,
      "fich": 6751,
      "carres": 6752,
      "appelez": 6753,
      "ouverts": 6754,
      "arrivons": 6755,
      "faisions": 6756,
      "pires": 6757,
      "developpes": 6758,
      "economiser": 6759,
      "souri": 6760,
      "banc": 6761,
      "habitat": 6762,
      "etrangers": 6763,
      "poulet": 6764,
      "psychi": 6765,
      "rayon": 6766,
      "emerge": 6767,
      "mecanismes": 6768,
      "caracteristique": 6769,
      "negatif": 6770,
      "athle": 6771,
      "requin": 6772,
      "remplir": 6773,
      "accelere": 6774,
      "theories": 6775,
      "ollywood": 6776,
      "26": 6777,
      "33": 6778,
      "Cl": 6779,
      "Elisabeth": 6780,
      "Gener": 6781,
      "Pi": 6782,
      "Sc": 6783,
      "Souv": 6784,
      "Vide": 6785,
      "gorie": 6786,
      "haus": 6787,
      "iP": 6788,
      "nante": 6789,
      "obe": 6790,
      "spor": 6791,
      "enver": 6792,
      "revoir": 6793,
      "istr": 6794,
      "sey": 6795,
      "unites": 6796,
      "destine": 6797,
      "siff": 6798,
      "survecu": 6799,
      "attir": 6800,
      "monn": 6801,
      "moin": 6802,
      "serai": 6803,
      "options": 6804,
      "iciens": 6805,
      "file": 6806,
      "vache": 6807,
      "miques": 6808,
      "chaos": 6809,
      "essaient": 6810,
      "contrairement": 6811,
      "garanti": 6812,
      "raisonn": 6813,
      "compagne": 6814,
      "normes": 6815,
      "folle": 6816,
      "creative": 6817,
      "demandait": 6818,
      "brule": 6819,
      "deplacent": 6820,
      "lutter": 6821,
      "balles": 6822,
      "primaire": 6823,
      "circuit": 6824,
      "echecs": 6825,
      "concentration": 6826,
      "prisonniers": 6827,
      "automobile": 6828,
      "interpretation": 6829,
      "Durant": 6830,
      "Air": 6831,
      "Sin": 6832,
      "boites": 6833,
      "dation": 6834,
      "los": 6835,
      "vages": 6836,
      "deur": 6837,
      "inattendu": 6838,
      "illa": 6839,
      "confr": 6840,
      "verts": 6841,
      "expedi": 6842,
      "assure": 6843,
      "ampl": 6844,
      "formule": 6845,
      "transporter": 6846,
      "bliez": 6847,
      "habite": 6848,
      "totalite": 6849,
      "superieure": 6850,
      "assistance": 6851,
      "atteign": 6852,
      "psycho": 6853,
      "Lorsqu": 6854,
      "fenetres": 6855,
      "enthousiasme": 6856,
      "terrestres": 6857,
      "confrontes": 6858,
      "Suede": 6859,
      "britannique": 6860,
      "Bush": 6861,
      "echapper": 6862,
      "Buffard": 6863,
      "envisager": 6864,
      "Microsoft": 6865,
      "AR": 6866,
      "Donne": 6867,
      "Eli": 6868,
      "Hans": 6869,
      "IRM": 6870,
      "Kar": 6871,
      "Lune": 6872,
      "Mag": 6873,
      "Rio": 6874,
      "ache": 6875,
      "bos": 6876,
      "ny": 6877,
      "tables": 6878,
      "ualite": 6879,
      "revue": 6880,
      "laver": 6881,
      "sel": 6882,
      "sequ": 6883,
      "chil": 6884,
      "uniques": 6885,
      "mention": 6886,
      "prima": 6887,
      "cities": 6888,
      "combine": 6889,
      "compromis": 6890,
      "care": 6891,
      "vivez": 6892,
      "perf": 6893,
      "messie": 6894,
      "servent": 6895,
      "phone": 6896,
      "manuel": 6897,
      "obre": 6898,
      "voyait": 6899,
      "centi": 6900,
      "critiques": 6901,
      "declin": 6902,
      "bulles": 6903,
      "calcule": 6904,
      "programmation": 6905,
      "charges": 6906,
      "potable": 6907,
      "attentes": 6908,
      "ecrivain": 6909,
      "anciennes": 6910,
      "vivante": 6911,
      "existait": 6912,
      "bacterie": 6913,
      "suffisant": 6914,
      "bourse": 6915,
      "faveur": 6916,
      "rejoint": 6917,
      "occidentale": 6918,
      "financiers": 6919,
      "spatiale": 6920,
      "permanence": 6921,
      "categor": 6922,
      "interesser": 6923,
      "minuscules": 6924,
      "musulman": 6925,
      "epaule": 6926,
      "champignons": 6927,
      "Stanford": 6928,
      ".,": 6929,
      "AB": 6930,
      "Flor": 6931,
      "eut": 6932,
      "foc": 6933,
      "taient": 6934,
      "repose": 6935,
      "quin": 6936,
      "ceuti": 6937,
      "arth": 6938,
      "parlais": 6939,
      "chere": 6940,
      "motive": 6941,
      "embras": 6942,
      "contam": 6943,
      "appels": 6944,
      "feront": 6945,
      "story": 6946,
      "tribus": 6947,
      "retard": 6948,
      "jouet": 6949,
      "typique": 6950,
      "modelis": 6951,
      "195": 6952,
      "antici": 6953,
      "2006": 6954,
      "herbe": 6955,
      "faciles": 6956,
      "ilicon": 6957,
      "oeuf": 6958,
      "promet": 6959,
      "origines": 6960,
      "principales": 6961,
      "biologistes": 6962,
      "mouches": 6963,
      "pirat": 6964,
      "performances": 6965,
      "therapie": 6966,
      "baleine": 6967,
      "emotionnelle": 6968,
      "Prin": 6969,
      "marchand": 6970,
      "ennuyeux": 6971,
      "sculpture": 6972,
      "categorie": 6973,
      "interesses": 6974,
      "atterris": 6975,
      "baisser": 6976,
      "pharmaceuti": 6977,
      "Texas": 6978,
      "chocolat": 6979,
      "paludisme": 6980,
      "Video": 6981,
      "Del": 6982,
      "Matt": 6983,
      "Ter": 6984,
      "sois": 6985,
      "remerci": 6986,
      "iniere": 6987,
      "composition": 6988,
      "surmonter": 6989,
      "ata": 6990,
      "agers": 6991,
      "tenue": 6992,
      "tenez": 6993,
      "interrog": 6994,
      "autrefois": 6995,
      "technologiques": 6996,
      "lard": 6997,
      "larmes": 6998,
      "noeu": 6999,
      "restau": 7000,
      "apparu": 7001,
      "conduite": 7002,
      "innov": 7003,
      "variete": 7004,
      "mythe": 7005,
      "divise": 7006,
      "femelle": 7007,
      "audac": 7008,
      "diabete": 7009,
      "corpore": 7010,
      "eclairage": 7011,
      "confronte": 7012,
      "messieurs": 7013,
      "Ghana": 7014,
      "Her": 7015,
      "Lar": 7016,
      "blage": 7017,
      "burg": 7018,
      "paire": 7019,
      "piste": 7020,
      "rav": 7021,
      "retenir": 7022,
      "quee": 7023,
      "pagne": 7024,
      "pru": 7025,
      "allions": 7026,
      "diable": 7027,
      "peindre": 7028,
      "actes": 7029,
      "consist": 7030,
      "distribue": 7031,
      "couple": 7032,
      "pouvant": 7033,
      "visiter": 7034,
      "drome": 7035,
      "crimes": 7036,
      "paysages": 7037,
      "traces": 7038,
      "formations": 7039,
      "1980": 7040,
      "calme": 7041,
      "secteurs": 7042,
      "soigne": 7043,
      "rappel": 7044,
      "defendre": 7045,
      "fassent": 7046,
      "effectuer": 7047,
      "journalistes": 7048,
      "efficacement": 7049,
      "Mesdames": 7050,
      "libere": 7051,
      "ramide": 7052,
      "plateforme": 7053,
      "demarrer": 7054,
      "appreci": 7055,
      "assembler": 7056,
      "privilege": 7057,
      "printemps": 7058,
      "ingredients": 7059,
      "PDG": 7060,
      "gigantes": 7061,
      "infantile": 7062,
      "28": 7063,
      "95": 7064,
      "Ac": 7065,
      "Aux": 7066,
      "Bla": 7067,
      "Gab": 7068,
      "emet": 7069,
      "veter": 7070,
      "xes": 7071,
      "decolle": 7072,
      "rejet": 7073,
      "etaires": 7074,
      "issait": 7075,
      "deser": 7076,
      "divers": 7077,
      "exige": 7078,
      "ouvons": 7079,
      "commis": 7080,
      "interessent": 7081,
      "aleatoire": 7082,
      "arrieres": 7083,
      "plafond": 7084,
      "pic": 7085,
      "laissent": 7086,
      "transmission": 7087,
      "ignore": 7088,
      "essayais": 7089,
      "evin": 7090,
      "construisons": 7091,
      "programmer": 7092,
      "telling": 7093,
      "souffrent": 7094,
      "fortes": 7095,
      "rendue": 7096,
      "possedent": 7097,
      "heses": 7098,
      "introduit": 7099,
      "soudainement": 7100,
      "volontaires": 7101,
      "percevoir": 7102,
      "Green": 7103,
      "symetrie": 7104,
      "administration": 7105,
      "araignee": 7106,
      "Andrew": 7107,
      "japonais": 7108,
      "extinction": 7109,
      "storytelling": 7110,
      "Cap": 7111,
      "Lif": 7112,
      "Mas": 7113,
      "USA": 7114,
      "].": 7115,
      "asi": 7116,
      "abi": 7117,
      "bain": 7118,
      "gan": 7119,
      "hol": 7120,
      "mit": 7121,
      "sk": 7122,
      "reproduction": 7123,
      "etages": 7124,
      "infin": 7125,
      "illement": 7126,
      "estes": 7127,
      "plain": 7128,
      "ressource": 7129,
      "actu": 7130,
      "approch": 7131,
      "fortement": 7132,
      "derange": 7133,
      "command": 7134,
      "Envir": 7135,
      "cts": 7136,
      "migr": 7137,
      "isees": 7138,
      "plaque": 7139,
      "places": 7140,
      "souci": 7141,
      "rapproche": 7142,
      "endront": 7143,
      "refuse": 7144,
      "attenti": 7145,
      "offert": 7146,
      "maternelle": 7147,
      "americaines": 7148,
      "partageons": 7149,
      "trouble": 7150,
      "constante": 7151,
      "physicien": 7152,
      "muscle": 7153,
      "mouche": 7154,
      "symboles": 7155,
      "phrases": 7156,
      "algorithme": 7157,
      "universel": 7158,
      "intuition": 7159,
      "candid": 7160,
      "heimer": 7161,
      "Histoire": 7162,
      "Smith": 7163,
      "BG": 7164,
      "Blan": 7165,
      "Ital": 7166,
      "cm": 7167,
      "ctifs": 7168,
      "fit": 7169,
      "ial": 7170,
      "tun": 7171,
      "top": 7172,
      "onges": 7173,
      "oue": 7174,
      "reprendre": 7175,
      "anat": 7176,
      "intri": 7177,
      "dile": 7178,
      "crev": 7179,
      "createurs": 7180,
      "fies": 7181,
      "ptures": 7182,
      "presentes": 7183,
      "informatiques": 7184,
      "publier": 7185,
      "tape": 7186,
      "clavier": 7187,
      "2003": 7188,
      "Monde": 7189,
      "mondiaux": 7190,
      "esperer": 7191,
      "appartement": 7192,
      "etroit": 7193,
      "tableaux": 7194,
      "violon": 7195,
      "extremes": 7196,
      "essentielle": 7197,
      "merveilleuses": 7198,
      "democratique": 7199,
      "diront": 7200,
      "vouliez": 7201,
      "graves": 7202,
      "reunis": 7203,
      "musicale": 7204,
      "adapte": 7205,
      "avancees": 7206,
      "flex": 7207,
      "stimul": 7208,
      "secondaire": 7209,
      "primi": 7210,
      "fosse": 7211,
      "comparaison": 7212,
      "autonome": 7213,
      "installation": 7214,
      "effrayant": 7215,
      "golf": 7216,
      "Institut": 7217,
      "legumes": 7218,
      "Jos": 7219,
      "So": 7220,
      "dose": 7221,
      "fal": 7222,
      "jui": 7223,
      "tur": 7224,
      "vrer": 7225,
      "voter": 7226,
      "yo": 7227,
      "yme": 7228,
      "detest": 7229,
      "quez": 7230,
      "ecar": 7231,
      "perpet": 7232,
      "oly": 7233,
      "gris": 7234,
      "agan": 7235,
      "sachant": 7236,
      "gnent": 7237,
      "peuples": 7238,
      "produite": 7239,
      "thon": 7240,
      "superbe": 7241,
      "habitudes": 7242,
      "2004": 7243,
      "hauts": 7244,
      "Mary": 7245,
      "alimentaires": 7246,
      "biodiversite": 7247,
      "meurt": 7248,
      "obtenons": 7249,
      "periodes": 7250,
      "chinoise": 7251,
      "devienne": 7252,
      "Nobel": 7253,
      "capitalisme": 7254,
      "virtuel": 7255,
      "elephant": 7256,
      "musulmans": 7257,
      "myster": 7258,
      "intrinse": 7259,
      "territoire": 7260,
      "Oxford": 7261,
      "BI": 7262,
      "Cre": 7263,
      "DH": 7264,
      "Mons": 7265,
      "biere": 7266,
      "dys": 7267,
      "wart": 7268,
      "envisage": 7269,
      "anesthes": 7270,
      "lateurs": 7271,
      "isait": 7272,
      "chet": 7273,
      "chrom": 7274,
      "vict": 7275,
      "couvr": 7276,
      "preco": 7277,
      "pretend": 7278,
      "enceinte": 7279,
      "modu": 7280,
      "discut": 7281,
      "diffusion": 7282,
      "fermer": 7283,
      "clo": 7284,
      "filtre": 7285,
      "restait": 7286,
      "banlie": 7287,
      "2001": 7288,
      "rendant": 7289,
      "semblant": 7290,
      "proposer": 7291,
      "subs": 7292,
      "oline": 7293,
      "moleculaire": 7294,
      "variations": 7295,
      "signification": 7296,
      "conserver": 7297,
      "diplomes": 7298,
      "traditionnel": 7299,
      "vacances": 7300,
      "majeur": 7301,
      "aimait": 7302,
      "21eme": 7303,
      "discussions": 7304,
      "eliminer": 7305,
      "President": 7306,
      "pyramide": 7307,
      "discipline": 7308,
      "handica": 7309,
      "assurance": 7310,
      "cerebrale": 7311,
      "archives": 7312,
      "dialogue": 7313,
      "sandw": 7314,
      "Haiti": 7315,
      "700": 7316,
      "85": 7317,
      "Dere": 7318,
      "Ha": 7319,
      "Lou": 7320,
      "RI": 7321,
      "ek": 7322,
      "noy": 7323,
      "quants": 7324,
      "sees": 7325,
      "chants": 7326,
      "orange": 7327,
      "ieures": 7328,
      "parcourir": 7329,
      "dien": 7330,
      "right": 7331,
      "percu": 7332,
      "aste": 7333,
      "coles": 7334,
      "prevoir": 7335,
      "grais": 7336,
      "agences": 7337,
      "regler": 7338,
      "fermes": 7339,
      "cente": 7340,
      "addi": 7341,
      "ocy": 7342,
      "pides": 7343,
      "frai": 7344,
      "connaissais": 7345,
      "sauvages": 7346,
      "laborer": 7347,
      "conseiller": 7348,
      "pierres": 7349,
      "ecoutez": 7350,
      "vivait": 7351,
      "fascine": 7352,
      "matieres": 7353,
      "cket": 7354,
      "buts": 7355,
      "sexes": 7356,
      "roman": 7357,
      "couteux": 7358,
      "proprietaire": 7359,
      "investisseurs": 7360,
      "signifiait": 7361,
      "etonnante": 7362,
      "accelerer": 7363,
      "affirme": 7364,
      "Brook": 7365,
      "ecosystemes": 7366,
      "elephants": 7367,
      "miracle": 7368,
      "ecrans": 7369,
      "infirmieres": 7370,
      "sanguins": 7371,
      "trauma": 7372,
      "monnaie": 7373,
      ".>>": 7374,
      "Hy": 7375,
      "Hig": 7376,
      "Met": 7377,
      "Tor": 7378,
      "Ven": 7379,
      "gique": 7380,
      "sco": 7381,
      "vallee": 7382,
      "zer": 7383,
      "zheimer": 7384,
      "esses": 7385,
      "paquet": 7386,
      "inons": 7387,
      "chaines": 7388,
      "omer": 7389,
      "triel": 7390,
      "concours": 7391,
      "contradi": 7392,
      "surfaces": 7393,
      "ressort": 7394,
      "vio": 7395,
      "crain": 7396,
      "interrom": 7397,
      "puisqu": 7398,
      "bro": 7399,
      "explose": 7400,
      "debute": 7401,
      "posee": 7402,
      "roulant": 7403,
      "Alzheimer": 7404,
      "directions": 7405,
      "emplace": 7406,
      "concus": 7407,
      "itives": 7408,
      "Star": 7409,
      "homosex": 7410,
      "legis": 7411,
      "implications": 7412,
      "moustiques": 7413,
      "statistique": 7414,
      "provoquer": 7415,
      "victime": 7416,
      "excellent": 7417,
      "immeubles": 7418,
      "doctorat": 7419,
      "120": 7420,
      "47": 7421,
      "Jane": 7422,
      "May": 7423,
      "Valle": 7424,
      "ft": 7425,
      "gets": 7426,
      "nager": 7427,
      "nano": 7428,
      "stere": 7429,
      "twe": 7430,
      "chaient": 7431,
      "passerait": 7432,
      "vee": 7433,
      "rate": 7434,
      "endor": 7435,
      "chemins": 7436,
      "imprime": 7437,
      "lisez": 7438,
      "genres": 7439,
      "tuy": 7440,
      "comport": 7441,
      "trem": 7442,
      "vise": 7443,
      "millier": 7444,
      "stable": 7445,
      "longe": 7446,
      "elin": 7447,
      "organique": 7448,
      "menent": 7449,
      "tater": 7450,
      "culturel": 7451,
      "durables": 7452,
      "volent": 7453,
      "baseball": 7454,
      "rendus": 7455,
      "cancers": 7456,
      "poussent": 7457,
      "jume": 7458,
      "industriel": 7459,
      "sexuelles": 7460,
      "allumer": 7461,
      "dette": 7462,
      "bridge": 7463,
      "detection": 7464,
      "puissantes": 7465,
      "bizar": 7466,
      "remarquables": 7467,
      "blogs": 7468,
      "discute": 7469,
      "intime": 7470,
      "intellectuelle": 7471,
      "supplementaire": 7472,
      "accumu": 7473,
      "helicop": 7474,
      "crucial": 7475,
      "cerebral": 7476,
      "42": 7477,
      "48": 7478,
      "Cer": 7479,
      "Ever": 7480,
      "Jose": 7481,
      "LG": 7482,
      "SE": 7483,
      "She": 7484,
      "aca": 7485,
      "ganda": 7486,
      "pis": 7487,
      "rang": 7488,
      "ules": 7489,
      "enri": 7490,
      "reparti": 7491,
      "qualites": 7492,
      "pale": 7493,
      "inconnus": 7494,
      "contempor": 7495,
      "libres": 7496,
      "rales": 7497,
      "crane": 7498,
      "interro": 7499,
      "voyages": 7500,
      "humi": 7501,
      "correct": 7502,
      "Quatre": 7503,
      "Parmi": 7504,
      "prenait": 7505,
      "ignorer": 7506,
      "mondialisation": 7507,
      "alisees": 7508,
      "lantique": 7509,
      "aimerions": 7510,
      "archie": 7511,
      "suivantes": 7512,
      "poitrine": 7513,
      "bruits": 7514,
      "investissements": 7515,
      "froide": 7516,
      "kilometre": 7517,
      "etonnamment": 7518,
      "impliques": 7519,
      "dormir": 7520,
      "brillant": 7521,
      "hypotheses": 7522,
      "bombes": 7523,
      "diagnostique": 7524,
      "guide": 7525,
      "Aucune": 7526,
      "camion": 7527,
      "mensonge": 7528,
      "Norve": 7529,
      "varie": 7530,
      "aiguille": 7531,
      "abondance": 7532,
      "squelette": 7533,
      "cultiver": 7534,
      "gouvernance": 7535,
      "paradigme": 7536,
      "banlieue": 7537,
      "Higgs": 7538,
      "PC": 7539,
      "ice": 7540,
      "janvier": 7541,
      "kins": 7542,
      "noyau": 7543,
      "decor": 7544,
      "trag": 7545,
      "parvenir": 7546,
      "pee": 7547,
      "mations": 7548,
      "expressions": 7549,
      "coch": 7550,
      "prediction": 7551,
      "poete": 7552,
      "inspir": 7553,
      "tenus": 7554,
      "optique": 7555,
      "ventionne": 7556,
      "angles": 7557,
      "utilisaient": 7558,
      "fibres": 7559,
      "posant": 7560,
      "commentaires": 7561,
      "transmet": 7562,
      "pese": 7563,
      "debats": 7564,
      "pleurer": 7565,
      "environment": 7566,
      "tournee": 7567,
      "indice": 7568,
      "bandes": 7569,
      "activer": 7570,
      "gagnent": 7571,
      "chaude": 7572,
      "voudrait": 7573,
      "attendant": 7574,
      "guerir": 7575,
      "fondamentaux": 7576,
      "sacs": 7577,
      "Stephen": 7578,
      "emergent": 7579,
      "Americain": 7580,
      "bola": 7581,
      "landais": 7582,
      "Malgre": 7583,
      "traditionnelles": 7584,
      "preferee": 7585,
      "fascinante": 7586,
      "paradis": 7587,
      "soldat": 7588,
      "recompenses": 7589,
      "terriblement": 7590,
      "virtuelle": 7591,
      "Brown": 7592,
      "vaisseau": 7593,
      "epargne": 7594,
      "chapitre": 7595,
      "maximum": 7596,
      "diapositive": 7597,
      "diagramme": 7598,
      "Valley": 7599,
      "Pal": 7600,
      "bateaux": 7601,
      "cais": 7602,
      "emes": 7603,
      "stri": 7604,
      "ume": 7605,
      "watt": 7606,
      "yan": 7607,
      "defor": 7608,
      "depasser": 7609,
      "decharge": 7610,
      "releve": 7611,
      "relever": 7612,
      "aides": 7613,
      "ety": 7614,
      "temoin": 7615,
      "issante": 7616,
      "auteurs": 7617,
      "plom": 7618,
      "pertes": 7619,
      "exer": 7620,
      "assem": 7621,
      "coucher": 7622,
      "couvre": 7623,
      "phe": 7624,
      "tendez": 7625,
      "crist": 7626,
      "genoci": 7627,
      "atelier": 7628,
      "mix": 7629,
      "mign": 7630,
      "feriez": 7631,
      "croyance": 7632,
      "Quels": 7633,
      "rouler": 7634,
      "taper": 7635,
      "semblaient": 7636,
      "neurone": 7637,
      "concue": 7638,
      "religions": 7639,
      "variole": 7640,
      "inquieter": 7641,
      "geniale": 7642,
      "limitee": 7643,
      "Moore": 7644,
      "etabli": 7645,
      "infection": 7646,
      "Coca": 7647,
      "commandes": 7648,
      "gratuit": 7649,
      "resumer": 7650,
      "recolter": 7651,
      "cognitive": 7652,
      "otherapie": 7653,
      "independant": 7654,
      "tremblement": 7655,
      "regulierement": 7656,
      "Scott": 7657,
      "remercier": 7658,
      "Fi": 7659,
      "Jour": 7660,
      "Jac": 7661,
      "Kevin": 7662,
      "Maman": 7663,
      "Sus": 7664,
      "Sec": 7665,
      "bai": 7666,
      "dieux": 7667,
      "eoli": 7668,
      "oniques": 7669,
      "demontrer": 7670,
      "catal": 7671,
      "proposition": 7672,
      "oth": 7673,
      "oll": 7674,
      "verrons": 7675,
      "accompagne": 7676,
      "chel": 7677,
      "oncle": 7678,
      "manche": 7679,
      "constater": 7680,
      "intermedi": 7681,
      "interieure": 7682,
      "Lee": 7683,
      "cherchent": 7684,
      "passez": 7685,
      "piet": 7686,
      "grandissent": 7687,
      "allemand": 7688,
      "commenca": 7689,
      "1960": 7690,
      "Ouganda": 7691,
      "sortis": 7692,
      "epiniere": 7693,
      "speciale": 7694,
      "juin": 7695,
      "radicale": 7696,
      "barriere": 7697,
      "repondent": 7698,
      "Univers": 7699,
      "biologiste": 7700,
      "magnetique": 7701,
      "influencer": 7702,
      "jamin": 7703,
      "controverse": 7704,
      "ampleur": 7705,
      "faudra": 7706,
      "Benjamin": 7707,
      "Daniel": 7708,
      "initiative": 7709,
      "association": 7710,
      "alternatives": 7711,
      "adorent": 7712,
      "considerons": 7713,
      "femelles": 7714,
      "Africains": 7715,
      "Cinq": 7716,
      "elarg": 7717,
      "agriculteurs": 7718,
      "children": 7719,
      "centimetres": 7720,
      "Italie": 7721,
      "chromos": 7722,
      "Ba": 7723,
      "Rw": 7724,
      "Rome": 7725,
      "Sir": 7726,
      "Wa": 7727,
      "amateurs": 7728,
      "ctivement": 7729,
      "dures": 7730,
      "elas": 7731,
      "nis": 7732,
      "pairs": 7733,
      "tab": 7734,
      "ouer": 7735,
      "recours": 7736,
      "aimais": 7737,
      "audit": 7738,
      "seche": 7739,
      "parach": 7740,
      "comble": 7741,
      "vides": 7742,
      "perme": 7743,
      "versions": 7744,
      "exces": 7745,
      "excu": 7746,
      "acous": 7747,
      "opposition": 7748,
      "interrup": 7749,
      "Leurs": 7750,
      "cherchons": 7751,
      "poster": 7752,
      "mienne": 7753,
      "briser": 7754,
      "personnels": 7755,
      "tisation": 7756,
      "istere": 7757,
      "Indus": 7758,
      "devenues": 7759,
      "economiste": 7760,
      "connaissait": 7761,
      "irez": 7762,
      "refus": 7763,
      "roues": 7764,
      "tournant": 7765,
      "titution": 7766,
      "secur": 7767,
      "collectif": 7768,
      "voeu": 7769,
      "regardais": 7770,
      "chanceux": 7771,
      "recupere": 7772,
      "progressivement": 7773,
      "own": 7774,
      "itime": 7775,
      "Steven": 7776,
      "evidente": 7777,
      "frag": 7778,
      "urbaine": 7779,
      "gamins": 7780,
      "eradi": 7781,
      "epidemi": 7782,
      "africain": 7783,
      "diviser": 7784,
      "confortable": 7785,
      "marchait": 7786,
      "sports": 7787,
      "accroche": 7788,
      "planter": 7789,
      "significative": 7790,
      "frapper": 7791,
      "commencait": 7792,
      "tragedie": 7793,
      "ogenese": 7794,
      "affronter": 7795,
      "collision": 7796,
      "instructions": 7797,
      "categories": 7798,
      "Life": 7799,
      "Environ": 7800,
      "Dites": 7801,
      "Lab": 7802,
      "MM": 7803,
      "Nel": 7804,
      "Tes": 7805,
      "Wal": 7806,
      "globe": 7807,
      "hallu": 7808,
      "schi": 7809,
      "yl": 7810,
      "zoph": 7811,
      "outre": 7812,
      "reelles": 7813,
      "realiste": 7814,
      "tiles": 7815,
      "ceau": 7816,
      "ung": 7817,
      "tront": 7818,
      "alcool": 7819,
      "camions": 7820,
      "mate": 7821,
      "resid": 7822,
      "poemes": 7823,
      "agence": 7824,
      "cry": 7825,
      "financer": 7826,
      "comptes": 7827,
      "millen": 7828,
      "fiable": 7829,
      "partant": 7830,
      "montant": 7831,
      "star": 7832,
      "rapporte": 7833,
      "laissons": 7834,
      "transmis": 7835,
      "tifie": 7836,
      "querir": 7837,
      "1950": 7838,
      "indica": 7839,
      "developpee": 7840,
      "echanges": 7841,
      "epanou": 7842,
      "judi": 7843,
      "accessibles": 7844,
      "Caroline": 7845,
      "penetre": 7846,
      "Pays": 7847,
      "dimensionne": 7848,
      "etablis": 7849,
      "divertissement": 7850,
      "emotionnel": 7851,
      "illustre": 7852,
      "definit": 7853,
      "epouse": 7854,
      "concepteurs": 7855,
      "inegalites": 7856,
      "munici": 7857,
      "hautement": 7858,
      "attentivement": 7859,
      "Derek": 7860,
      "Rwanda": 7861,
      "schizoph": 7862,
      "Ebola": 7863,
      "Gra": 7864,
      "Ir": 7865,
      "Satur": 7866,
      "Wol": 7867,
      "clon": 7868,
      "dar": 7869,
      "far": 7870,
      "gestes": 7871,
      "joy": 7872,
      "joint": 7873,
      "paires": 7874,
      "rot": 7875,
      "departement": 7876,
      "anime": 7877,
      "tiez": 7878,
      "mec": 7879,
      "ust": 7880,
      "Etre": 7881,
      "Ethi": 7882,
      "perc": 7883,
      "endom": 7884,
      "prevenir": 7885,
      "ogene": 7886,
      "oyers": 7887,
      "obti": 7888,
      "immobil": 7889,
      "dispose": 7890,
      "genoux": 7891,
      "petro": 7892,
      "commentaire": 7893,
      "admi": 7894,
      "grandit": 7895,
      "travaillaient": 7896,
      "election": 7897,
      "thur": 7898,
      "pouvoirs": 7899,
      "restes": 7900,
      "hautes": 7901,
      "mondiales": 7902,
      "gagnant": 7903,
      "fourmi": 7904,
      "engendre": 7905,
      "cycl": 7906,
      "normaux": 7907,
      "pollin": 7908,
      "ower": 7909,
      "fondamentales": 7910,
      "individuelle": 7911,
      "combiner": 7912,
      "internationaux": 7913,
      "amuser": 7914,
      "intestin": 7915,
      "plongee": 7916,
      "effondrement": 7917,
      "catastrophes": 7918,
      "vulnerabilite": 7919,
      "surprenante": 7920,
      "football": 7921,
      "Global": 7922,
      "Floride": 7923,
      "Bay": 7924,
      "Bible": 7925,
      "Che": 7926,
      "Der": 7927,
      "FBI": 7928,
      "Gand": 7929,
      "How": 7930,
      "Mus": 7931,
      "RA": 7932,
      "Sou": 7933,
      "Th": 7934,
      "Tri": 7935,
      "ames": 7936,
      "ium": 7937,
      "spont": 7938,
      "repenser": 7939,
      "autis": 7940,
      "orale": 7941,
      "parlaient": 7942,
      "dioxyde": 7943,
      "ller": 7944,
      "osph": 7945,
      "lip": 7946,
      "ria": 7947,
      "inscri": 7948,
      "tenance": 7949,
      "venais": 7950,
      "createur": 7951,
      "tuent": 7952,
      "fiante": 7953,
      "souli": 7954,
      "egois": 7955,
      "croyait": 7956,
      "roue": 7957,
      "permettra": 7958,
      "baton": 7959,
      "apparition": 7960,
      "terrains": 7961,
      "Arthur": 7962,
      "gueris": 7963,
      "fumee": 7964,
      "poign": 7965,
      "descendu": 7966,
      "tocine": 7967,
      "immenses": 7968,
      "phenomenes": 7969,
      "fantastiques": 7970,
      "philosophe": 7971,
      "recifs": 7972,
      "magasins": 7973,
      "logement": 7974,
      "detruit": 7975,
      "capturer": 7976,
      "educatif": 7977,
      "cartograph": 7978,
      "esclavage": 7979,
      "substance": 7980,
      "Brian": 7981,
      "Sarah": 7982,
      "cinquieme": 7983,
      "susceptibles": 7984,
      "predictions": 7985,
      "precoce": 7986,
      "hallucin": 7987,
      "Act": 7988,
      "Do": 7989,
      "Gore": 7990,
      "Jones": 7991,
      "KB": 7992,
      "Ray": 7993,
      "Soci": 7994,
      "War": 7995,
      "bec": 7996,
      "els": 7997,
      "fide": 7998,
      "flam": 7999,
      "opar": 8000,
      "xima": 8001,
      "outes": 8002,
      "demenage": 8003,
      "recette": 8004,
      "quie": 8005,
      "quettes": 8006,
      "anec": 8007,
      "indu": 8008,
      "inva": 8009,
      "chats": 8010,
      "description": 8011,
      "traine": 8012,
      "civ": 8013,
      "conventionne": 8014,
      "puits": 8015,
      "serions": 8016,
      "agi": 8017,
      "abus": 8018,
      "interdit": 8019,
      "interagissent": 8020,
      "montent": 8021,
      "seuse": 8022,
      "gnees": 8023,
      "jouant": 8024,
      "gerent": 8025,
      "frau": 8026,
      "nova": 8027,
      "collecter": 8028,
      "habitues": 8029,
      "mascul": 8030,
      "rends": 8031,
      "populaires": 8032,
      "precieux": 8033,
      "medicales": 8034,
      "dote": 8035,
      "promouvoir": 8036,
      "souffre": 8037,
      "attendais": 8038,
      "traditions": 8039,
      "estimation": 8040,
      "autorites": 8041,
      "history": 8042,
      "atteints": 8043,
      "prosper": 8044,
      "compliquee": 8045,
      "devoirs": 8046,
      "dynamiques": 8047,
      "restaurants": 8048,
      "obstacle": 8049,
      "proportion": 8050,
      "activism": 8051,
      "domestique": 8052,
      "Banque": 8053,
      "immunitaire": 8054,
      "alphab": 8055,
      "bizarres": 8056,
      "Dal": 8057,
      "Fre": 8058,
      "MA": 8059,
      "Pouvons": 8060,
      "bit": 8061,
      "bille": 8062,
      "foyers": 8063,
      "poses": 8064,
      "uage": 8065,
      "relier": 8066,
      "lades": 8067,
      "ceint": 8068,
      "orce": 8069,
      "desti": 8070,
      "sity": 8071,
      "dira": 8072,
      "peurs": 8073,
      "life": 8074,
      "projec": 8075,
      "cession": 8076,
      "racine": 8077,
      "perdent": 8078,
      "verrou": 8079,
      "app": 8080,
      "apprise": 8081,
      "grottes": 8082,
      "cercles": 8083,
      "ogue": 8084,
      "obs": 8085,
      "ancere": 8086,
      "agement": 8087,
      "emar": 8088,
      "comptent": 8089,
      "impots": 8090,
      "voyais": 8091,
      "ferai": 8092,
      "nommee": 8093,
      "deviner": 8094,
      "coraux": 8095,
      "Park": 8096,
      "demandes": 8097,
      "egal": 8098,
      "evoque": 8099,
      "malheureux": 8100,
      "croyais": 8101,
      "sensorie": 8102,
      "1970": 8103,
      "voles": 8104,
      "massive": 8105,
      "ecrite": 8106,
      "continuons": 8107,
      "architectur": 8108,
      "origami": 8109,
      "impressionnant": 8110,
      "animals": 8111,
      "lampe": 8112,
      "synchron": 8113,
      "internationales": 8114,
      "conservation": 8115,
      "traduction": 8116,
      "maitres": 8117,
      "audience": 8118,
      "brillante": 8119,
      "solides": 8120,
      "original": 8121,
      "synthese": 8122,
      "familier": 8123,
      "cartographie": 8124,
      "tombent": 8125,
      "avocat": 8126,
      "inevitable": 8127,
      "soiree": 8128,
      "hackers": 8129,
      "procure": 8130,
      "Titan": 8131,
      "sandwich": 8132,
      "Brit": 8133,
      "CE": 8134,
      "Hol": 8135,
      "My": 8136,
      "Musee": 8137,
      "Tech": 8138,
      "XX": 8139,
      "cancere": 8140,
      "gation": 8141,
      "hall": 8142,
      "spa": 8143,
      "saine": 8144,
      "vistes": 8145,
      "enz": 8146,
      "envoient": 8147,
      "ouge": 8148,
      "tivite": 8149,
      "isations": 8150,
      "inaire": 8151,
      "illages": 8152,
      "avan": 8153,
      "trim": 8154,
      "conge": 8155,
      "ecris": 8156,
      "preoccupe": 8157,
      "phosph": 8158,
      "manie": 8159,
      "manquer": 8160,
      "Leon": 8161,
      "pensiez": 8162,
      "ocke": 8163,
      "brie": 8164,
      "priorite": 8165,
      "decoupe": 8166,
      "ifies": 8167,
      "tention": 8168,
      "sauce": 8169,
      "Desole": 8170,
      "restee": 8171,
      "regardait": 8172,
      "debuts": 8173,
      "levez": 8174,
      "humanitaire": 8175,
      "psychology": 8176,
      "poignee": 8177,
      "oureuse": 8178,
      "fantome": 8179,
      "salon": 8180,
      "remarquez": 8181,
      "degats": 8182,
      "terroriste": 8183,
      "eloigner": 8184,
      "camps": 8185,
      "specialiste": 8186,
      "contribution": 8187,
      "introduire": 8188,
      "beton": 8189,
      "colonies": 8190,
      "semblables": 8191,
      "notamment": 8192,
      "manipuler": 8193,
      "renouvelables": 8194,
      "avocats": 8195,
      "perfec": 8196,
      "Ethiopie": 8197,
      "AI": 8198,
      "BF": 8199,
      "Ele": 8200,
      "Lo": 8201,
      "MT": 8202,
      "Po": 8203,
      "Revolution": 8204,
      "Soyez": 8205,
      "Vou": 8206,
      "amas": 8207,
      "bete": 8208,
      "joindre": 8209,
      "well": 8210,
      "recru": 8211,
      "lay": 8212,
      "tiqu": 8213,
      "medit": 8214,
      "mega": 8215,
      "desespoir": 8216,
      "arc": 8217,
      "pecher": 8218,
      "proviennent": 8219,
      "gel": 8220,
      "ressens": 8221,
      "ecologie": 8222,
      "ramas": 8223,
      "rivi": 8224,
      "prevention": 8225,
      "absol": 8226,
      "immer": 8227,
      "icile": 8228,
      "couples": 8229,
      "ness": 8230,
      "angi": 8231,
      "fice": 8232,
      "fibre": 8233,
      "courbes": 8234,
      "contente": 8235,
      "stabil": 8236,
      "grandissant": 8237,
      "triche": 8238,
      "geste": 8239,
      "essayait": 8240,
      "evrier": 8241,
      "fro": 8242,
      "pleure": 8243,
      "tentative": 8244,
      "habitant": 8245,
      "eduquer": 8246,
      "Revenons": 8247,
      "week": 8248,
      "promesse": 8249,
      "perdue": 8250,
      "romantique": 8251,
      "toler": 8252,
      "remarquerez": 8253,
      "detecteur": 8254,
      "suggerer": 8255,
      "historiques": 8256,
      "brillants": 8257,
      "specialistes": 8258,
      "bombar": 8259,
      "vieillis": 8260,
      "preserva": 8261,
      "recolte": 8262,
      "benefice": 8263,
      "vulnerables": 8264,
      "arrateur": 8265,
      "horizon": 8266,
      "blocs": 8267,
      "Cambridge": 8268,
      "reflechit": 8269,
      "evaluation": 8270,
      "Virgin": 8271,
      "escalier": 8272,
      "silencieux": 8273,
      "Monsieur": 8274,
      "ocytocine": 8275,
      "interroge": 8276,
      "rivieres": 8277,
      "Amy": 8278,
      "Cy": 8279,
      "Cent": 8280,
      "Center": 8281,
      "LED": 8282,
      "Os": 8283,
      "Seu": 8284,
      "Van": 8285,
      "aa": 8286,
      "barrieres": 8287,
      "elite": 8288,
      "fla": 8289,
      "maitre": 8290,
      "pommes": 8291,
      "tang": 8292,
      "encre": 8293,
      "oubliez": 8294,
      "dedie": 8295,
      "reforme": 8296,
      "repli": 8297,
      "aile": 8298,
      "anor": 8299,
      "tian": 8300,
      "tinent": 8301,
      "papa": 8302,
      "tranche": 8303,
      "arche": 8304,
      "composi": 8305,
      "danser": 8306,
      "perse": 8307,
      "coli": 8308,
      "coeurs": 8309,
      "absur": 8310,
      "crises": 8311,
      "imiter": 8312,
      "intervenir": 8313,
      "directe": 8314,
      "prisons": 8315,
      "jazz": 8316,
      "ferais": 8317,
      "...\"": 8318,
      "guit": 8319,
      "Cher": 8320,
      "transporte": 8321,
      "blessure": 8322,
      "blessures": 8323,
      "tifier": 8324,
      "travaillez": 8325,
      "bassa": 8326,
      "tionnels": 8327,
      "construits": 8328,
      "mortes": 8329,
      "faction": 8330,
      "specialement": 8331,
      "fonctionnait": 8332,
      "poule": 8333,
      "frequent": 8334,
      "recuper": 8335,
      "actuels": 8336,
      "attends": 8337,
      "consommer": 8338,
      "rechercher": 8339,
      "Mike": 8340,
      "Johnson": 8341,
      "lineaire": 8342,
      "temperatures": 8343,
      "concues": 8344,
      "commerciaux": 8345,
      "tromper": 8346,
      "blanches": 8347,
      "surveiller": 8348,
      "appuyer": 8349,
      "illustrer": 8350,
      "optimisme": 8351,
      "guider": 8352,
      "autonomes": 8353,
      "jugement": 8354,
      "nettoyer": 8355,
      "recycla": 8356,
      "paraly": 8357,
      "Jonathan": 8358,
      "analogie": 8359,
      "minimum": 8360,
      "envah": 8361,
      "desesperement": 8362,
      "deforestation": 8363,
      "genocide": 8364,
      "Howard": 8365,
      "55": 8366,
      "Nick": 8367,
      "Silicon": 8368,
      "ajus": 8369,
      "bam": 8370,
      "cants": 8371,
      "mistes": 8372,
      "nique": 8373,
      "osite": 8374,
      "pendu": 8375,
      "ventre": 8376,
      "ouais": 8377,
      "debrou": 8378,
      "deviez": 8379,
      "anxi": 8380,
      "etnam": 8381,
      "enterre": 8382,
      "albu": 8383,
      "veilles": 8384,
      "geants": 8385,
      "resister": 8386,
      "atar": 8387,
      "bleus": 8388,
      "exi": 8389,
      "expres": 8390,
      "preferes": 8391,
      "series": 8392,
      "disque": 8393,
      "regne": 8394,
      "cherchez": 8395,
      "ultra": 8396,
      "carit": 8397,
      "vapeur": 8398,
      "olet": 8399,
      "contour": 8400,
      "appeles": 8401,
      "chame": 8402,
      "ocra": 8403,
      "rendement": 8404,
      "gieuses": 8405,
      "colline": 8406,
      "filme": 8407,
      "positives": 8408,
      "menac": 8409,
      "echappe": 8410,
      "connectivite": 8411,
      "reels": 8412,
      "anee": 8413,
      "partagee": 8414,
      "continents": 8415,
      "sexuels": 8416,
      "monsieur": 8417,
      "assey": 8418,
      "physiciens": 8419,
      "syndrome": 8420,
      "autoroute": 8421,
      "profession": 8422,
      "dossier": 8423,
      "traduit": 8424,
      "associes": 8425,
      "preserver": 8426,
      "eclair": 8427,
      "branches": 8428,
      "stupefiant": 8429,
      "gasp": 8430,
      "contraintes": 8431,
      "imprimante": 8432,
      "parallele": 8433,
      "exponentielle": 8434,
      "couloir": 8435,
      "metabol": 8436,
      "Norvege": 8437,
      "3000": 8438,
      "Centre": 8439,
      "DE": 8440,
      "DU": 8441,
      "Hel": 8442,
      "Penn": 8443,
      "Som": 8444,
      "Venez": 8445,
      "back": 8446,
      "dait": 8447,
      "hou": 8448,
      "haine": 8449,
      "ip": 8450,
      "tain": 8451,
      "way": 8452,
      "enveloppe": 8453,
      "deteste": 8454,
      "aique": 8455,
      "lave": 8456,
      "inutile": 8457,
      "separation": 8458,
      "param": 8459,
      "licence": 8460,
      "proxim": 8461,
      "oto": 8462,
      "vice": 8463,
      "perdez": 8464,
      "bleues": 8465,
      "enser": 8466,
      "exc": 8467,
      "cock": 8468,
      "mobilite": 8469,
      "sache": 8470,
      "sahar": 8471,
      "emmen": 8472,
      "email": 8473,
      "creez": 8474,
      "tubes": 8475,
      "impose": 8476,
      "vaches": 8477,
      "chapeau": 8478,
      "allonge": 8479,
      "rappro": 8480,
      "piration": 8481,
      "laissant": 8482,
      "Chez": 8483,
      "Camp": 8484,
      "boul": 8485,
      "20eme": 8486,
      "photogra": 8487,
      "piege": 8488,
      "indiquer": 8489,
      "Ang": 8490,
      "contiennent": 8491,
      "assiste": 8492,
      "etrangere": 8493,
      "trouvais": 8494,
      "trouvaient": 8495,
      "engages": 8496,
      "bouts": 8497,
      "horloge": 8498,
      "emporte": 8499,
      "disparaissent": 8500,
      "sexuel": 8501,
      "courageux": 8502,
      "cereales": 8503,
      "fierte": 8504,
      "inspires": 8505,
      "caracteres": 8506,
      "vagin": 8507,
      "frontal": 8508,
      "moustiqu": 8509,
      "professionnelle": 8510,
      "agissons": 8511,
      "ambiti": 8512,
      "declaration": 8513,
      "arrange": 8514,
      "batteries": 8515,
      "inclut": 8516,
      "destination": 8517,
      "nutrition": 8518,
      "Turquie": 8519,
      "paralys": 8520,
      "orientation": 8521,
      "Science": 8522,
      "diametre": 8523,
      "coupable": 8524,
      "esthetique": 8525,
      "raisonnable": 8526,
      "gigantesque": 8527,
      "schizophren": 8528,
      "souligner": 8529,
      "civils": 8530,
      "proximite": 8531,
      "Bron": 8532,
      "ES": 8533,
      "Gro": 8534,
      "Saint": 8535,
      "echanger": 8536,
      "fass": 8537,
      "jolie": 8538,
      "mure": 8539,
      "nai": 8540,
      "vau": 8541,
      "vali": 8542,
      "wi": 8543,
      "ena": 8544,
      "decr": 8545,
      "reur": 8546,
      "quan": 8547,
      "tici": 8548,
      "illis": 8549,
      "pardon": 8550,
      "altru": 8551,
      "comete": 8552,
      "otter": 8553,
      "rations": 8554,
      "pertinent": 8555,
      "monu": 8556,
      "apprenez": 8557,
      "coule": 8558,
      "abat": 8559,
      "ouvrez": 8560,
      "entrez": 8561,
      "methane": 8562,
      "emouv": 8563,
      "marath": 8564,
      "venti": 8565,
      "compt": 8566,
      "impre": 8567,
      "milit": 8568,
      "brev": 8569,
      "courants": 8570,
      "courante": 8571,
      "nid": 8572,
      "passees": 8573,
      "Six": 8574,
      "ifiquement": 8575,
      "portant": 8576,
      "2050": 8577,
      "garage": 8578,
      "communs": 8579,
      "colonne": 8580,
      "douzaine": 8581,
      "telecharger": 8582,
      "restre": 8583,
      "sieges": 8584,
      "Africa": 8585,
      "epaisse": 8586,
      "augmentent": 8587,
      "pouce": 8588,
      "approcher": 8589,
      "citations": 8590,
      "chauves": 8591,
      "celebres": 8592,
      "radical": 8593,
      "sexy": 8594,
      "psychologique": 8595,
      "ressentent": 8596,
      "fournissent": 8597,
      "precedente": 8598,
      "Atlantique": 8599,
      "Droit": 8600,
      "formidables": 8601,
      "bouteilles": 8602,
      "Colom": 8603,
      "acceptable": 8604,
      "nettoy": 8605,
      "neuroscience": 8606,
      "inegalite": 8607,
      "inviter": 8608,
      "distances": 8609,
      "fermiers": 8610,
      "predateurs": 8611,
      "meteo": 8612,
      "assemblage": 8613,
      "Nelson": 8614,
      "Saturne": 8615,
      "photography": 8616,
      "fassiez": 8617,
      "Dou": 8618,
      "Eg": 8619,
      "Faisons": 8620,
      "Mau": 8621,
      "Nat": 8622,
      "RB": 8623,
      "Soit": 8624,
      "Tas": 8625,
      "Wat": 8626,
      "alar": 8627,
      "eva": 8628,
      "fol": 8629,
      "pionn": 8630,
      "ward": 8631,
      "work": 8632,
      "legere": 8633,
      "neanmoins": 8634,
      "til": 8635,
      "secher": 8636,
      "durer": 8637,
      "camar": 8638,
      "lion": 8639,
      "geo": 8640,
      "uther": 8641,
      "sondage": 8642,
      "predit": 8643,
      "tenons": 8644,
      "meritent": 8645,
      "agee": 8646,
      "finale": 8647,
      "finissent": 8648,
      "impu": 8649,
      "stabilite": 8650,
      "atie": 8651,
      "transfor": 8652,
      "priorites": 8653,
      "exploser": 8654,
      "devenez": 8655,
      "contrat": 8656,
      "Demo": 8657,
      "affich": 8658,
      "doux": 8659,
      "telecharge": 8660,
      "reflete": 8661,
      "labore": 8662,
      "facil": 8663,
      "etrie": 8664,
      "supprimer": 8665,
      "observant": 8666,
      "ecriv": 8667,
      "defend": 8668,
      "submer": 8669,
      "connues": 8670,
      "dirigeant": 8671,
      "ressentez": 8672,
      "individuel": 8673,
      "abeille": 8674,
      "terribles": 8675,
      "plastiques": 8676,
      "campus": 8677,
      "Espagne": 8678,
      "echouer": 8679,
      "chirurgiens": 8680,
      "effondre": 8681,
      "autonomie": 8682,
      "schemas": 8683,
      "dinosaure": 8684,
      "Coran": 8685,
      "fruit": 8686,
      "etiquette": 8687,
      "electrodes": 8688,
      "juridique": 8689,
      "sensibilite": 8690,
      "appartient": 8691,
      "Jesus": 8692,
      "billets": 8693,
      "saharienne": 8694,
      "36": 8695,
      "Cour": 8696,
      "Hen": 8697,
      "Hollywood": 8698,
      "Long": 8699,
      "Mor": 8700,
      "Net": 8701,
      "Sante": 8702,
      "bac": 8703,
      "food": 8704,
      "pus": 8705,
      "pente": 8706,
      "rele": 8707,
      "reviennent": 8708,
      "tini": 8709,
      "sequences": 8710,
      "trott": 8711,
      "siers": 8712,
      "alu": 8713,
      "alent": 8714,
      "div": 8715,
      "matrice": 8716,
      "rats": 8717,
      "accorde": 8718,
      "sonore": 8719,
      "couter": 8720,
      "autes": 8721,
      "preme": 8722,
      "eteint": 8723,
      "more": 8724,
      "conscie": 8725,
      "emen": 8726,
      "interprete": 8727,
      "Chili": 8728,
      "prives": 8729,
      "energy": 8730,
      "trouvee": 8731,
      "profil": 8732,
      "ings": 8733,
      "grandeur": 8734,
      "refriger": 8735,
      "famine": 8736,
      "fondations": 8737,
      "constructions": 8738,
      "ennemis": 8739,
      "rendait": 8740,
      "language": 8741,
      "aurai": 8742,
      "specif": 8743,
      "fourni": 8744,
      "equipements": 8745,
      "choisissent": 8746,
      "defici": 8747,
      "norme": 8748,
      "celebrer": 8749,
      "penche": 8750,
      "dirai": 8751,
      "lancement": 8752,
      "Hey": 8753,
      "Plutot": 8754,
      "fournisse": 8755,
      "cuisiner": 8756,
      "negli": 8757,
      "traditionnels": 8758,
      "commerciale": 8759,
      "meubles": 8760,
      "embau": 8761,
      "independance": 8762,
      "visualiser": 8763,
      "respiration": 8764,
      "opinions": 8765,
      "lourd": 8766,
      "subir": 8767,
      "industries": 8768,
      "mathematiciens": 8769,
      "luxe": 8770,
      "systematiquement": 8771,
      "guerison": 8772,
      "alphabet": 8773,
      "Leonard": 8774,
      "brievement": 8775,
      "brevets": 8776,
      "Ai": 8777,
      "BC": 8778,
      "Bir": 8779,
      "Fem": 8780,
      "Stu": 8781,
      "bond": 8782,
      "durs": 8783,
      "fum": 8784,
      "gateau": 8785,
      "hur": 8786,
      "pun": 8787,
      "roy": 8788,
      "smart": 8789,
      "ttes": 8790,
      "tate": 8791,
      "yons": 8792,
      "dedu": 8793,
      "quad": 8794,
      "anniques": 8795,
      "later": 8796,
      "trons": 8797,
      "compu": 8798,
      "compati": 8799,
      "conven": 8800,
      "itz": 8801,
      "propage": 8802,
      "mages": 8803,
      "accompli": 8804,
      "cooper": 8805,
      "prejuges": 8806,
      "poches": 8807,
      "eteindre": 8808,
      "serieuse": 8809,
      "ogenes": 8810,
      "tendu": 8811,
      "merde": 8812,
      "obtiennent": 8813,
      "mettait": 8814,
      "interpreter": 8815,
      "cheres": 8816,
      "ologies": 8817,
      "Entre": 8818,
      "vateurs": 8819,
      "soutient": 8820,
      "renvoy": 8821,
      "transparent": 8822,
      "bloque": 8823,
      "blesse": 8824,
      "donnes": 8825,
      "tsun": 8826,
      "fromage": 8827,
      "presentent": 8828,
      "2012": 8829,
      "syl": 8830,
      "battu": 8831,
      "robus": 8832,
      "vols": 8833,
      "nourrit": 8834,
      "exacte": 8835,
      "emporter": 8836,
      "troupes": 8837,
      "savon": 8838,
      "disparition": 8839,
      "alimente": 8840,
      "psychologues": 8841,
      "autorise": 8842,
      "citoyen": 8843,
      "navire": 8844,
      "Jamais": 8845,
      "connectee": 8846,
      "occidental": 8847,
      "perspectives": 8848,
      "satisfaction": 8849,
      "distinguer": 8850,
      "simuler": 8851,
      "aborde": 8852,
      "universelle": 8853,
      "arguments": 8854,
      "apportent": 8855,
      "neurosciences": 8856,
      "horizont": 8857,
      "civique": 8858,
      "Whit": 8859,
      "hormones": 8860,
      "coton": 8861,
      "promotion": 8862,
      "fatigue": 8863,
      "partenariat": 8864,
      "applaudis": 8865,
      "tragique": 8866,
      "judici": 8867,
      "anxiete": 8868,
      "Bronx": 8869,
      "consciemment": 8870,
      "Cu": 8871,
      "Numer": 8872,
      "glu": 8873,
      "hh": 8874,
      "piter": 8875,
      "rock": 8876,
      "sab": 8877,
      "remis": 8878,
      "retiens": 8879,
      "ouse": 8880,
      "pamine": 8881,
      "ism": 8882,
      "secou": 8883,
      "tronc": 8884,
      "diarr": 8885,
      "cibles": 8886,
      "cigaret": 8887,
      "veill": 8888,
      "plonger": 8889,
      "cath": 8890,
      "Etes": 8891,
      "touches": 8892,
      "verbe": 8893,
      "utre": 8894,
      "expul": 8895,
      "extension": 8896,
      "coinci": 8897,
      "presid": 8898,
      "irs": 8899,
      "iront": 8900,
      "ambassa": 8901,
      "formu": 8902,
      "onnee": 8903,
      "creuser": 8904,
      "hee": 8905,
      "ficiel": 8906,
      "fications": 8907,
      "brevet": 8908,
      "hua": 8909,
      "humeur": 8910,
      "ouvertes": 8911,
      "mince": 8912,
      "tantes": 8913,
      "changeant": 8914,
      "format": 8915,
      "tournent": 8916,
      "indices": 8917,
      "cliquer": 8918,
      "passera": 8919,
      "2002": 8920,
      "apparue": 8921,
      "Contr": 8922,
      "offrent": 8923,
      "observons": 8924,
      "rappele": 8925,
      "how": 8926,
      "configur": 8927,
      "disparait": 8928,
      "consommateur": 8929,
      "demandons": 8930,
      "diraient": 8931,
      "estimer": 8932,
      "musicien": 8933,
      "detecte": 8934,
      "librement": 8935,
      "pirates": 8936,
      "procedure": 8937,
      "experimenter": 8938,
      "capitale": 8939,
      "aperce": 8940,
      "manifeste": 8941,
      "betail": 8942,
      "honnetement": 8943,
      "carburants": 8944,
      "fausses": 8945,
      "repeter": 8946,
      "handicap": 8947,
      "repandre": 8948,
      "concurrence": 8949,
      "ampoule": 8950,
      "Seconde": 8951,
      "Clint": 8952,
      "expedition": 8953,
      "candidats": 8954,
      "victoire": 8955,
      "stereot": 8956,
      "prosperite": 8957,
      "Democra": 8958,
      "Bo": 8959,
      "Bru": 8960,
      "Cur": 8961,
      "Ko": 8962,
      "Rock": 8963,
      "Sk": 8964,
      "Tra": 8965,
      "fine": 8966,
      "fiers": 8967,
      "fevrier": 8968,
      "gents": 8969,
      "ning": 8970,
      "ptions": 8971,
      "pomme": 8972,
      "pots": 8973,
      "range": 8974,
      "sense": 8975,
      "tais": 8976,
      "tos": 8977,
      "deter": 8978,
      "reine": 8979,
      "reformes": 8980,
      "reconnait": 8981,
      "separer": 8982,
      "separes": 8983,
      "ild": 8984,
      "omiques": 8985,
      "oies": 8986,
      "paroles": 8987,
      "diens": 8988,
      "cad": 8989,
      "rajou": 8990,
      "ather": 8991,
      "ffer": 8992,
      "aspira": 8993,
      "coc": 8994,
      "puzz": 8995,
      "graisse": 8996,
      "grotte": 8997,
      "Maison": 8998,
      "lements": 8999,
      "gnol": 9000,
      "ologiste": 9001,
      "ulter": 9002,
      "culose": 9003,
      "migration": 9004,
      "Simon": 9005,
      "ifs": 9006,
      "transforment": 9007,
      "primes": 9008,
      "jouait": 9009,
      "prenaient": 9010,
      "integration": 9011,
      "cascade": 9012,
      "commencant": 9013,
      "airie": 9014,
      "noci": 9015,
      "fondateur": 9016,
      "indienne": 9017,
      "sauvet": 9018,
      "creees": 9019,
      "Marie": 9020,
      "atteinte": 9021,
      "approvisi": 9022,
      "exact": 9023,
      "cycles": 9024,
      "payes": 9025,
      "communiquent": 9026,
      "promen": 9027,
      "glaci": 9028,
      "glamour": 9029,
      "attendait": 9030,
      "competi": 9031,
      "individuels": 9032,
      "stupides": 9033,
      "instants": 9034,
      "emerger": 9035,
      "infections": 9036,
      "dangereuse": 9037,
      "Shang": 9038,
      "financieres": 9039,
      "metaphor": 9040,
      "intimite": 9041,
      "telescopes": 9042,
      "digit": 9043,
      "pompe": 9044,
      "prototypes": 9045,
      "Rires": 9046,
      "kinson": 9047,
      "shir": 9048,
      "decembre": 9049,
      "peripher": 9050,
      "Salut": 9051,
      "prononce": 9052,
      "reussissent": 9053,
      "ampoules": 9054,
      "naviguer": 9055,
      "Fondation": 9056,
      "religieuses": 9057,
      "remede": 9058,
      "analyses": 9059,
      "Philip": 9060,
      "hausse": 9061,
      "helicoptere": 9062,
      "ecrivains": 9063,
      "Henry": 9064,
      "approvisionnement": 9065,
      "37": 9066,
      "Bref": 9067,
      "Eve": 9068,
      "Earth": 9069,
      "Faire": 9070,
      "Kh": 9071,
      "Kel": 9072,
      "Mis": 9073,
      "Mess": 9074,
      "Mel": 9075,
      "OL": 9076,
      "Ren": 9077,
      "bans": 9078,
      "billet": 9079,
      "dd": 9080,
      "dale": 9081,
      "nul": 9082,
      "nette": 9083,
      "pleur": 9084,
      "deme": 9085,
      "reprises": 9086,
      "quar": 9087,
      "quise": 9088,
      "quets": 9089,
      "patron": 9090,
      "incapable": 9091,
      "melo": 9092,
      "aises": 9093,
      "parcouru": 9094,
      "vietique": 9095,
      "viendrait": 9096,
      "cuir": 9097,
      "beur": 9098,
      "phie": 9099,
      "manuels": 9100,
      "insiste": 9101,
      "imper": 9102,
      "embr": 9103,
      "credi": 9104,
      "endrez": 9105,
      "tuber": 9106,
      "diffuse": 9107,
      "diffuser": 9108,
      "comporter": 9109,
      "Ensemble": 9110,
      "enfu": 9111,
      "partent": 9112,
      "nuits": 9113,
      "devint": 9114,
      "corrom": 9115,
      "portait": 9116,
      "Parlons": 9117,
      "brul": 9118,
      "profits": 9119,
      "egale": 9120,
      "casser": 9121,
      "controles": 9122,
      "rituels": 9123,
      "pleins": 9124,
      "fondre": 9125,
      "calor": 9126,
      "tieme": 9127,
      "roche": 9128,
[...]
